// generated code
unsigned char tflite_model[] = {
  0x1c, 0x00, 0x00, 0x00, 0x54, 0x46, 0x4c, 0x33, 0x14, 0x00, 0x20, 0x00, 
  0x1c, 0x00, 0x18, 0x00, 0x14, 0x00, 0x10, 0x00, 0x0c, 0x00, 0x00, 0x00, 
  0x08, 0x00, 0x04, 0x00, 0x14, 0x00, 0x00, 0x00, 0x1c, 0x00, 0x00, 0x00, 
  0x8c, 0x00, 0x00, 0x00, 0xe4, 0x00, 0x00, 0x00, 0x24, 0x07, 0x00, 0x00, 
  0x34, 0x07, 0x00, 0x00, 0xb4, 0x0c, 0x00, 0x00, 0x03, 0x00, 0x00, 0x00, 
  0x01, 0x00, 0x00, 0x00, 0x10, 0x00, 0x00, 0x00, 0x00, 0x00, 0x0a, 0x00, 
  0x10, 0x00, 0x0c, 0x00, 0x08, 0x00, 0x04, 0x00, 0x0a, 0x00, 0x00, 0x00, 
  0x0c, 0x00, 0x00, 0x00, 0x1c, 0x00, 0x00, 0x00, 0x38, 0x00, 0x00, 0x00, 
  0x0f, 0x00, 0x00, 0x00, 0x73, 0x65, 0x72, 0x76, 0x69, 0x6e, 0x67, 0x5f, 
  0x64, 0x65, 0x66, 0x61, 0x75, 0x6c, 0x74, 0x00, 0x01, 0x00, 0x00, 0x00, 
  0x04, 0x00, 0x00, 0x00, 0x9c, 0xff, 0xff, 0xff, 0x0a, 0x00, 0x00, 0x00, 
  0x04, 0x00, 0x00, 0x00, 0x07, 0x00, 0x00, 0x00, 0x64, 0x65, 0x6e, 0x73, 
  0x65, 0x5f, 0x32, 0x00, 0x01, 0x00, 0x00, 0x00, 0x04, 0x00, 0x00, 0x00, 
  0xbe, 0xf8, 0xff, 0xff, 0x04, 0x00, 0x00, 0x00, 0x07, 0x00, 0x00, 0x00, 
  0x69, 0x6e, 0x70, 0x75, 0x74, 0x5f, 0x31, 0x00, 0x02, 0x00, 0x00, 0x00, 
  0x34, 0x00, 0x00, 0x00, 0x04, 0x00, 0x00, 0x00, 0xdc, 0xff, 0xff, 0xff, 
  0x0d, 0x00, 0x00, 0x00, 0x04, 0x00, 0x00, 0x00, 0x13, 0x00, 0x00, 0x00, 
  0x43, 0x4f, 0x4e, 0x56, 0x45, 0x52, 0x53, 0x49, 0x4f, 0x4e, 0x5f, 0x4d, 
  0x45, 0x54, 0x41, 0x44, 0x41, 0x54, 0x41, 0x00, 0x08, 0x00, 0x0c, 0x00, 
  0x08, 0x00, 0x04, 0x00, 0x08, 0x00, 0x00, 0x00, 0x0c, 0x00, 0x00, 0x00, 
  0x04, 0x00, 0x00, 0x00, 0x13, 0x00, 0x00, 0x00, 0x6d, 0x69, 0x6e, 0x5f, 
  0x72, 0x75, 0x6e, 0x74, 0x69, 0x6d, 0x65, 0x5f, 0x76, 0x65, 0x72, 0x73, 
  0x69, 0x6f, 0x6e, 0x00, 0x0e, 0x00, 0x00, 0x00, 0x3c, 0x06, 0x00, 0x00, 
  0x34, 0x06, 0x00, 0x00, 0xfc, 0x05, 0x00, 0x00, 0xd4, 0x05, 0x00, 0x00, 
  0x88, 0x05, 0x00, 0x00, 0x88, 0x04, 0x00, 0x00, 0x20, 0x02, 0x00, 0x00, 
  0xa8, 0x00, 0x00, 0x00, 0xa0, 0x00, 0x00, 0x00, 0x98, 0x00, 0x00, 0x00, 
  0x90, 0x00, 0x00, 0x00, 0x88, 0x00, 0x00, 0x00, 0x68, 0x00, 0x00, 0x00, 
  0x04, 0x00, 0x00, 0x00, 0x6a, 0xf9, 0xff, 0xff, 0x04, 0x00, 0x00, 0x00, 
  0x54, 0x00, 0x00, 0x00, 0x0c, 0x00, 0x00, 0x00, 0x08, 0x00, 0x0e, 0x00, 
  0x08, 0x00, 0x04, 0x00, 0x08, 0x00, 0x00, 0x00, 0x10, 0x00, 0x00, 0x00, 
  0x24, 0x00, 0x00, 0x00, 0x00, 0x00, 0x06, 0x00, 0x08, 0x00, 0x04, 0x00, 
  0x06, 0x00, 0x00, 0x00, 0x04, 0x00, 0x00, 0x00, 0x00, 0x00, 0x00, 0x00, 
  0x00, 0x00, 0x0a, 0x00, 0x10, 0x00, 0x0c, 0x00, 0x08, 0x00, 0x04, 0x00, 
  0x0a, 0x00, 0x00, 0x00, 0x02, 0x00, 0x00, 0x00, 0x02, 0x00, 0x00, 0x00, 
  0x04, 0x00, 0x00, 0x00, 0x05, 0x00, 0x00, 0x00, 0x32, 0x2e, 0x39, 0x2e, 
  0x31, 0x00, 0x00, 0x00, 0xca, 0xf9, 0xff, 0xff, 0x04, 0x00, 0x00, 0x00, 
  0x10, 0x00, 0x00, 0x00, 0x31, 0x2e, 0x35, 0x2e, 0x30, 0x00, 0x00, 0x00, 
  0x00, 0x00, 0x00, 0x00, 0x00, 0x00, 0x00, 0x00, 0x10, 0xf5, 0xff, 0xff, 
  0x14, 0xf5, 0xff, 0xff, 0x18, 0xf5, 0xff, 0xff, 0x1c, 0xf5, 0xff, 0xff, 
  0xf6, 0xf9, 0xff, 0xff, 0x04, 0x00, 0x00, 0x00, 0x68, 0x01, 0x00, 0x00, 
  0xc0, 0x4c, 0x91, 0x3e, 0x28, 0xfc, 0x42, 0xbf, 0xfd, 0x7e, 0x4c, 0xbf, 
  0x0c, 0x5c, 0x99, 0x3d, 0x3c, 0x0d, 0x02, 0x3e, 0x2b, 0x0c, 0x09, 0xbf, 
  0x74, 0x3c, 0x8f, 0xbf, 0x3d, 0x91, 0xb3, 0xbe, 0x78, 0x19, 0xa6, 0x3e, 
  0x56, 0x9f, 0x98, 0xbe, 0x40, 0x10, 0xb0, 0xbc, 0x96, 0x9f, 0xc6, 0xbf, 
  0x98, 0x32, 0x4f, 0x3f, 0xbf, 0x5d, 0x0e, 0x3f, 0xe9, 0xd9, 0x98, 0xbe, 
  0xbb, 0xf6, 0x3a, 0xbf, 0x6c, 0xf0, 0x28, 0xbf, 0xca, 0x4d, 0xc7, 0x3d, 
  0xa6, 0x65, 0xb9, 0xbd, 0x4e, 0x44, 0x16, 0xbf, 0x3c, 0x55, 0x86, 0x3f, 
  0x02, 0x56, 0x37, 0xbf, 0x98, 0xe8, 0xa2, 0xbe, 0x2e, 0xea, 0xcc, 0xbd, 
  0x01, 0x76, 0xcf, 0xbf, 0xe6, 0x87, 0xef, 0x3e, 0xa2, 0xc4, 0x00, 0xbf, 
  0x23, 0xde, 0x30, 0xbf, 0x70, 0x0b, 0xcb, 0xbf, 0xce, 0x02, 0x13, 0xbf, 
  0xf4, 0x31, 0x79, 0xbf, 0x3e, 0x4f, 0x04, 0xbf, 0x77, 0x81, 0xa3, 0xbe, 
  0xc6, 0x96, 0x12, 0xbf, 0xb6, 0x3a, 0xbd, 0xbd, 0x80, 0x82, 0x10, 0xc0, 
  0x9e, 0x95, 0x0e, 0xc0, 0x92, 0xc3, 0x3a, 0xbf, 0x30, 0xb8, 0x2c, 0xbf, 
  0x2b, 0x6b, 0xf9, 0x3c, 0x70, 0x34, 0x9c, 0x3d, 0x8b, 0x03, 0xfc, 0x3f, 
  0xaf, 0x78, 0x99, 0xbf, 0xfa, 0x2a, 0x33, 0xc0, 0xb2, 0xce, 0x39, 0xbf, 
  0x32, 0x9a, 0x8f, 0xbe, 0xc1, 0xa8, 0xf2, 0xbe, 0x04, 0xe0, 0xc9, 0xbe, 
  0x8d, 0x73, 0x1f, 0x3d, 0x07, 0x51, 0x4f, 0xbf, 0xfe, 0x54, 0x0d, 0x3f, 
  0x39, 0x37, 0x3f, 0xbf, 0x6e, 0x5f, 0x38, 0xbf, 0xc9, 0x2e, 0x0d, 0x3e, 
  0x9f, 0x2b, 0x18, 0x3f, 0x06, 0xc8, 0xe2, 0x3e, 0x21, 0xb6, 0xab, 0xbf, 
  0xb2, 0x83, 0x52, 0xbf, 0x84, 0x77, 0x92, 0xbf, 0xda, 0xfd, 0x11, 0xbe, 
  0x7e, 0x78, 0x58, 0x3f, 0xfb, 0x9f, 0xe7, 0xbc, 0xd9, 0x3a, 0xa8, 0x3d, 
  0x5c, 0x7a, 0x09, 0xbe, 0x8d, 0xb5, 0x94, 0x3e, 0x28, 0x99, 0x06, 0xbf, 
  0xb8, 0xae, 0xd9, 0x3f, 0x4d, 0xfb, 0x87, 0x3f, 0x27, 0x79, 0x68, 0x3f, 
  0x1a, 0x6a, 0x8b, 0xbe, 0x58, 0x2f, 0x69, 0x3e, 0x00, 0x4e, 0xdb, 0x3d, 
  0x5a, 0xb1, 0x10, 0x3e, 0xd3, 0x2a, 0xde, 0xbe, 0x12, 0x37, 0x2c, 0xbe, 
  0x3e, 0xe9, 0x83, 0xbe, 0x10, 0xdb, 0x39, 0xbf, 0x8b, 0xba, 0x86, 0xbe, 
  0x61, 0xa9, 0x02, 0x3f, 0x9a, 0x9d, 0xe6, 0xbe, 0x4c, 0x3b, 0x8b, 0xbe, 
  0x98, 0xf8, 0xa8, 0x3e, 0x19, 0x07, 0x00, 0x3e, 0x91, 0xe2, 0x35, 0xbf, 
  0x0a, 0x28, 0x15, 0x3f, 0xc8, 0xda, 0x75, 0x3e, 0x8f, 0xd1, 0x8a, 0x3f, 
  0xb5, 0xa3, 0xbe, 0xbf, 0x68, 0xff, 0x0a, 0x3f, 0xa8, 0xfb, 0xde, 0xbe, 
  0x6a, 0xfb, 0xff, 0xff, 0x04, 0x00, 0x00, 0x00, 0x58, 0x02, 0x00, 0x00, 
  0xad, 0x60, 0x24, 0xbf, 0xde, 0x15, 0x04, 0xbf, 0x81, 0x9a, 0x33, 0x3f, 
  0x92, 0x55, 0x39, 0xbe, 0x6f, 0xba, 0xf0, 0xbe, 0xea, 0x9c, 0xbf, 0xbe, 
  0xd3, 0x86, 0x28, 0xbe, 0xc5, 0xb5, 0x4f, 0xbf, 0xf8, 0x94, 0x0b, 0x3d, 
  0x35, 0xfd, 0x2f, 0xbe, 0xe8, 0xca, 0x59, 0xbe, 0xb0, 0xbb, 0xf8, 0x3c, 
  0x48, 0x29, 0xcb, 0xbd, 0x85, 0xc7, 0x17, 0xbf, 0x45, 0xde, 0xbe, 0x3e, 
  0xc6, 0xbd, 0x04, 0xbe, 0xe8, 0x90, 0x55, 0xbf, 0x5c, 0x9b, 0x05, 0xbf, 
  0x87, 0x63, 0xea, 0xbd, 0x9a, 0x37, 0x63, 0xbe, 0xc9, 0xcd, 0x1e, 0xbf, 
  0xae, 0x85, 0x41, 0xbf, 0x8e, 0x46, 0x59, 0xbe, 0x3c, 0x5c, 0xb9, 0xbe, 
  0x00, 0x39, 0x78, 0xbe, 0x47, 0x40, 0xe0, 0x3e, 0xe8, 0x08, 0x39, 0xbe, 
  0xe0, 0xfc, 0x88, 0xbc, 0x7c, 0x53, 0x86, 0xbe, 0xf4, 0x0a, 0xec, 0x3d, 
  0x3b, 0xdb, 0xc3, 0xbe, 0x78, 0xd5, 0x24, 0xbd, 0x81, 0x29, 0x17, 0xbe, 
  0x1d, 0x55, 0xbf, 0xbe, 0x1c, 0xf2, 0xa7, 0x3d, 0xbf, 0x6d, 0x84, 0x3e, 
  0x4f, 0xe0, 0xc1, 0xbe, 0x1a, 0x66, 0x85, 0xbe, 0x74, 0x11, 0xa5, 0xbe, 
  0x4b, 0xd1, 0x2a, 0xbf, 0xc1, 0x1b, 0x5f, 0xbe, 0x5f, 0xf1, 0x25, 0x3f, 
  0xd9, 0x66, 0x38, 0xbf, 0x48, 0xb8, 0xcf, 0xbd, 0x05, 0x81, 0xe6, 0xbe, 
  0x98, 0xaf, 0xb9, 0xbd, 0x70, 0x79, 0x5a, 0xbe, 0xaa, 0x13, 0x3f, 0x3f, 
  0xa3, 0x14, 0xeb, 0xbe, 0xdc, 0x2c, 0x53, 0x3f, 0xd1, 0xb5, 0xa6, 0x3e, 
  0xc4, 0x70, 0xec, 0xbf, 0x97, 0x8d, 0xd5, 0xbe, 0x15, 0x5c, 0x6a, 0xbe, 
  0xfe, 0x2d, 0xb6, 0xbe, 0x3a, 0xbc, 0xa1, 0xbe, 0x16, 0xb3, 0xfc, 0x3e, 
  0x53, 0xb2, 0x05, 0xbe, 0x65, 0xcd, 0x12, 0x40, 0x8c, 0xee, 0x40, 0xbd, 
  0x56, 0xbf, 0x87, 0x3f, 0xb9, 0x73, 0xae, 0xbd, 0x70, 0x8e, 0x16, 0x3e, 
  0xbb, 0xed, 0xa7, 0xbf, 0x08, 0x3f, 0x94, 0xbe, 0xd0, 0xb9, 0xf7, 0x3c, 
  0xd2, 0x5b, 0x2a, 0xbe, 0x3e, 0x67, 0x02, 0xbf, 0x64, 0xe0, 0x8f, 0xbf, 
  0xbc, 0x81, 0xe6, 0xbe, 0x60, 0x67, 0xd3, 0x3d, 0x3a, 0x4a, 0xae, 0x3f, 
  0x44, 0x13, 0x3a, 0x3f, 0x8d, 0xf5, 0xdf, 0xbf, 0xa7, 0xb8, 0xe0, 0xbe, 
  0x26, 0x3a, 0x06, 0xbe, 0xb9, 0xc5, 0x9d, 0xbb, 0x01, 0xcd, 0xa0, 0x3e, 
  0x32, 0x00, 0x38, 0xbf, 0xd2, 0xf3, 0x2c, 0x3f, 0x50, 0xb5, 0xa3, 0xbe, 
  0xe6, 0xcd, 0x86, 0x3f, 0xc9, 0xae, 0xc2, 0xbe, 0xa2, 0x28, 0xcf, 0xbe, 
  0xce, 0x76, 0x07, 0x3e, 0xea, 0x3e, 0x51, 0x3e, 0xb4, 0x55, 0x61, 0xbf, 
  0x81, 0xda, 0x98, 0x3e, 0xde, 0x7b, 0x22, 0xbf, 0x3a, 0x6d, 0x85, 0x3e, 
  0x17, 0x0f, 0x44, 0x3d, 0x38, 0xf6, 0x0b, 0xbf, 0xce, 0x8e, 0xe0, 0xbe, 
  0x2c, 0x57, 0x3b, 0x3f, 0xc6, 0xac, 0x7c, 0x3e, 0xbd, 0xd5, 0xa4, 0x3e, 
  0xcc, 0x9b, 0x34, 0x3f, 0x7b, 0x96, 0x7e, 0xbd, 0x89, 0x58, 0x03, 0xbf, 
  0x77, 0x10, 0x2b, 0xbc, 0xed, 0x46, 0xa6, 0xbe, 0x70, 0xa4, 0x48, 0xbd, 
  0x14, 0xe1, 0xf1, 0xbd, 0xfc, 0xd6, 0x91, 0xbe, 0x22, 0x57, 0x79, 0x3e, 
  0xac, 0xac, 0x8d, 0x3d, 0x89, 0xec, 0x97, 0x3e, 0x74, 0x95, 0x31, 0xbe, 
  0xf0, 0x2c, 0x20, 0xbd, 0x1c, 0x13, 0xc4, 0xbe, 0x63, 0xfc, 0x9c, 0x3f, 
  0x67, 0xe9, 0x8d, 0x3f, 0xb2, 0x6c, 0x92, 0xbe, 0x37, 0x51, 0xec, 0xbe, 
  0xd5, 0xe2, 0xf5, 0x3e, 0xb6, 0xcf, 0x02, 0x3e, 0x93, 0x92, 0x33, 0x3e, 
  0x31, 0x8f, 0xf7, 0xbd, 0xca, 0x80, 0xe8, 0xbf, 0xb9, 0x23, 0xfc, 0x3c, 
  0x64, 0xb6, 0x7b, 0xbf, 0xa2, 0xb8, 0x35, 0x3f, 0x17, 0x4d, 0xb0, 0xbe, 
  0x13, 0xcd, 0x34, 0x3f, 0x59, 0x6e, 0xf7, 0xbe, 0xa3, 0xc5, 0xa4, 0xbe, 
  0x31, 0x57, 0xc3, 0xbe, 0x37, 0x5b, 0x4b, 0x3e, 0x61, 0xb6, 0x88, 0xbf, 
  0xba, 0x96, 0x53, 0xbd, 0x31, 0xfa, 0x98, 0xbf, 0x39, 0x81, 0xd3, 0xbd, 
  0xdd, 0xb6, 0xc4, 0xbe, 0xd8, 0x64, 0x55, 0x3f, 0xf9, 0x97, 0xe8, 0xbe, 
  0x6e, 0x10, 0xf1, 0xbe, 0x36, 0xec, 0x87, 0x3f, 0x1b, 0xb6, 0x14, 0x3f, 
  0xd7, 0x8b, 0x18, 0xc0, 0xb3, 0x44, 0xba, 0x3e, 0x05, 0x54, 0x3e, 0xbf, 
  0x20, 0x90, 0x3b, 0xbe, 0xbe, 0x23, 0xc7, 0xbe, 0xc5, 0xb1, 0xa2, 0xbe, 
  0x10, 0x87, 0xe4, 0xbe, 0xbe, 0x84, 0x4e, 0xbe, 0x3c, 0x21, 0xb5, 0xbd, 
  0x68, 0x97, 0x4b, 0x3d, 0x23, 0x6c, 0xe0, 0xbe, 0x00, 0x85, 0x3d, 0xbc, 
  0xce, 0xfd, 0xff, 0xff, 0x04, 0x00, 0x00, 0x00, 0xf0, 0x00, 0x00, 0x00, 
  0x58, 0x6c, 0x37, 0x3d, 0xc1, 0xf2, 0x50, 0x40, 0x0e, 0x96, 0xe6, 0x3e, 
  0x08, 0x19, 0xef, 0x3f, 0xfd, 0xd2, 0xd1, 0x3f, 0x5f, 0x51, 0xa4, 0x3f, 
  0x11, 0x45, 0x17, 0xc0, 0x0a, 0x8d, 0x4c, 0xbf, 0xa5, 0x49, 0xb2, 0x3d, 
  0x4d, 0x4b, 0xff, 0x3f, 0x8b, 0x9b, 0x17, 0x40, 0xe9, 0xd5, 0xc4, 0x3f, 
  0xe1, 0x90, 0x6d, 0x3f, 0xbe, 0x36, 0x10, 0xbe, 0xa3, 0x66, 0xf5, 0xbe, 
  0x9d, 0xb3, 0x8d, 0x3e, 0xa8, 0x8c, 0x9f, 0xbc, 0xe0, 0xba, 0xad, 0x3e, 
  0xe4, 0x6b, 0xf0, 0xbe, 0x88, 0x4b, 0x4a, 0xbf, 0x8f, 0x1b, 0xfe, 0x3e, 
  0x50, 0xdc, 0x92, 0xbf, 0x60, 0x63, 0xea, 0xbf, 0x0d, 0x59, 0xdf, 0xbf, 
  0x26, 0x45, 0x0d, 0xbf, 0x56, 0x30, 0x06, 0xbf, 0x75, 0xa9, 0x9c, 0xbe, 
  0x48, 0xcb, 0xc1, 0xbd, 0x52, 0x6e, 0xa9, 0x3e, 0xc6, 0x0f, 0x0b, 0xbe, 
  0xaa, 0x19, 0x65, 0xbe, 0x74, 0x75, 0xe4, 0xbe, 0xda, 0xe0, 0x03, 0xbf, 
  0x40, 0x86, 0xc9, 0xbc, 0xaa, 0xbb, 0x9d, 0x3e, 0x08, 0x3e, 0xaf, 0xbd, 
  0xe4, 0x42, 0x08, 0x40, 0x5c, 0x1d, 0x97, 0x3d, 0xe2, 0xbb, 0xa1, 0x3e, 
  0x4d, 0x04, 0x3d, 0xbf, 0x65, 0x17, 0xc5, 0xbf, 0x3f, 0xee, 0xa1, 0xbf, 
  0xef, 0x59, 0xc9, 0x3e, 0xa9, 0x05, 0x89, 0xbe, 0x29, 0x77, 0x9d, 0xbe, 
  0xba, 0x6e, 0x25, 0x3c, 0xe0, 0x26, 0xe5, 0xbd, 0x08, 0xf1, 0x91, 0xbf, 
  0xde, 0xbc, 0xca, 0xbf, 0x28, 0x2b, 0xae, 0x3f, 0x50, 0x07, 0x80, 0x3e, 
  0x28, 0xc2, 0x30, 0xc0, 0x9e, 0x7b, 0x6e, 0xc0, 0x44, 0x24, 0x4e, 0xc0, 
  0x40, 0x14, 0x39, 0x3d, 0x4d, 0x29, 0x12, 0x3d, 0x39, 0xaa, 0xef, 0xbe, 
  0x13, 0x83, 0x38, 0xbf, 0x55, 0xcf, 0x22, 0x3e, 0x02, 0x36, 0x87, 0xbf, 
  0xca, 0xfe, 0xff, 0xff, 0x04, 0x00, 0x00, 0x00, 0x3c, 0x00, 0x00, 0x00, 
  0xda, 0xc8, 0x2e, 0xbf, 0x45, 0x8a, 0xca, 0xbe, 0x78, 0x51, 0xd7, 0xbe, 
  0x42, 0xc1, 0xb9, 0xbe, 0xad, 0x6b, 0xea, 0x3d, 0x35, 0xf5, 0x09, 0xbf, 
  0x81, 0xe2, 0x77, 0x3e, 0xb9, 0x40, 0x62, 0xbd, 0xe8, 0xc5, 0x50, 0xbe, 
  0xa3, 0x8d, 0x7a, 0x3e, 0x00, 0x00, 0x00, 0x00, 0x71, 0x97, 0xba, 0x3e, 
  0x66, 0x2d, 0x25, 0x3d, 0x27, 0xbe, 0x85, 0x3e, 0x2b, 0x96, 0xa2, 0xbe, 
  0x12, 0xff, 0xff, 0xff, 0x04, 0x00, 0x00, 0x00, 0x18, 0x00, 0x00, 0x00, 
  0x6b, 0xe1, 0x39, 0xbf, 0xb5, 0xef, 0xc9, 0xbf, 0x0c, 0x13, 0xa9, 0x3f, 
  0xa0, 0x5b, 0xb9, 0x3f, 0x15, 0x3b, 0x67, 0xbf, 0x78, 0x5a, 0xef, 0xbe, 
  0x36, 0xff, 0xff, 0xff, 0x04, 0x00, 0x00, 0x00, 0x28, 0x00, 0x00, 0x00, 
  0xc7, 0x8c, 0x96, 0xbd, 0x09, 0x41, 0x3d, 0x3e, 0x51, 0xb5, 0x9f, 0xbe, 
  0x4f, 0xd2, 0x51, 0x3e, 0x00, 0x00, 0x00, 0x00, 0x00, 0x00, 0x00, 0x00, 
  0x81, 0x3d, 0x80, 0x3d, 0x25, 0x2e, 0x01, 0xbf, 0x3b, 0x1c, 0x80, 0x3e, 
  0xdf, 0x86, 0x03, 0xbf, 0x94, 0xfa, 0xff, 0xff, 0x98, 0xfa, 0xff, 0xff, 
  0x0f, 0x00, 0x00, 0x00, 0x4d, 0x4c, 0x49, 0x52, 0x20, 0x43, 0x6f, 0x6e, 
  0x76, 0x65, 0x72, 0x74, 0x65, 0x64, 0x2e, 0x00, 0x01, 0x00, 0x00, 0x00, 
  0x14, 0x00, 0x00, 0x00, 0x00, 0x00, 0x0e, 0x00, 0x18, 0x00, 0x14, 0x00, 
  0x10, 0x00, 0x0c, 0x00, 0x08, 0x00, 0x04, 0x00, 0x0e, 0x00, 0x00, 0x00, 
  0x14, 0x00, 0x00, 0x00, 0x1c, 0x00, 0x00, 0x00, 0x24, 0x01, 0x00, 0x00, 
  0x28, 0x01, 0x00, 0x00, 0x2c, 0x01, 0x00, 0x00, 0x04, 0x00, 0x00, 0x00, 
  0x6d, 0x61, 0x69, 0x6e, 0x00, 0x00, 0x00, 0x00, 0x04, 0x00, 0x00, 0x00, 
  0xcc, 0x00, 0x00, 0x00, 0x84, 0x00, 0x00, 0x00, 0x50, 0x00, 0x00, 0x00, 
  0x14, 0x00, 0x00, 0x00, 0x00, 0x00, 0x0e, 0x00, 0x1a, 0x00, 0x14, 0x00, 
  0x10, 0x00, 0x0c, 0x00, 0x0b, 0x00, 0x04, 0x00, 0x0e, 0x00, 0x00, 0x00, 
  0x1c, 0x00, 0x00, 0x00, 0x00, 0x00, 0x00, 0x09, 0x1c, 0x00, 0x00, 0x00, 
  0x20, 0x00, 0x00, 0x00, 0x01, 0x00, 0x00, 0x00, 0x00, 0x00, 0x06, 0x00, 
  0x08, 0x00, 0x04, 0x00, 0x06, 0x00, 0x00, 0x00, 0x00, 0x00, 0x80, 0x3f, 
  0x01, 0x00, 0x00, 0x00, 0x0a, 0x00, 0x00, 0x00, 0x01, 0x00, 0x00, 0x00, 
  0x09, 0x00, 0x00, 0x00, 0x9a, 0xff, 0xff, 0xff, 0x10, 0x00, 0x00, 0x00, 
  0x00, 0x00, 0x00, 0x08, 0x0c, 0x00, 0x00, 0x00, 0x10, 0x00, 0x00, 0x00, 
  0x5c, 0xfb, 0xff, 0xff, 0x01, 0x00, 0x00, 0x00, 0x09, 0x00, 0x00, 0x00, 
  0x03, 0x00, 0x00, 0x00, 0x08, 0x00, 0x00, 0x00, 0x06, 0x00, 0x00, 0x00, 
  0x02, 0x00, 0x00, 0x00, 0xca, 0xff, 0xff, 0xff, 0x10, 0x00, 0x00, 0x00, 
  0x00, 0x00, 0x00, 0x08, 0x10, 0x00, 0x00, 0x00, 0x14, 0x00, 0x00, 0x00, 
  0xba, 0xff, 0xff, 0xff, 0x00, 0x00, 0x00, 0x01, 0x01, 0x00, 0x00, 0x00, 
  0x08, 0x00, 0x00, 0x00, 0x03, 0x00, 0x00, 0x00, 0x07, 0x00, 0x00, 0x00, 
  0x05, 0x00, 0x00, 0x00, 0x03, 0x00, 0x00, 0x00, 0x00, 0x00, 0x0e, 0x00, 
  0x16, 0x00, 0x00, 0x00, 0x10, 0x00, 0x0c, 0x00, 0x0b, 0x00, 0x04, 0x00, 
  0x0e, 0x00, 0x00, 0x00, 0x18, 0x00, 0x00, 0x00, 0x00, 0x00, 0x00, 0x08, 
  0x18, 0x00, 0x00, 0x00, 0x1c, 0x00, 0x00, 0x00, 0x00, 0x00, 0x06, 0x00, 
  0x08, 0x00, 0x07, 0x00, 0x06, 0x00, 0x00, 0x00, 0x00, 0x00, 0x00, 0x01, 
  0x01, 0x00, 0x00, 0x00, 0x07, 0x00, 0x00, 0x00, 0x03, 0x00, 0x00, 0x00, 
  0x00, 0x00, 0x00, 0x00, 0x04, 0x00, 0x00, 0x00, 0x01, 0x00, 0x00, 0x00, 
  0x01, 0x00, 0x00, 0x00, 0x0a, 0x00, 0x00, 0x00, 0x01, 0x00, 0x00, 0x00, 
  0x00, 0x00, 0x00, 0x00, 0x0b, 0x00, 0x00, 0x00, 0xd0, 0x03, 0x00, 0x00, 
  0x6c, 0x03, 0x00, 0x00, 0x08, 0x03, 0x00, 0x00, 0xb4, 0x02, 0x00, 0x00, 
  0x70, 0x02, 0x00, 0x00, 0x28, 0x02, 0x00, 0x00, 0xe0, 0x01, 0x00, 0x00, 
  0x5c, 0x01, 0x00, 0x00, 0xd0, 0x00, 0x00, 0x00, 0x5c, 0x00, 0x00, 0x00, 
  0x04, 0x00, 0x00, 0x00, 0x70, 0xfc, 0xff, 0xff, 0x14, 0x00, 0x00, 0x00, 
  0x1c, 0x00, 0x00, 0x00, 0x1c, 0x00, 0x00, 0x00, 0x0b, 0x00, 0x00, 0x00, 
  0x34, 0x00, 0x00, 0x00, 0x02, 0x00, 0x00, 0x00, 0xff, 0xff, 0xff, 0xff, 
  0x06, 0x00, 0x00, 0x00, 0x5c, 0xfc, 0xff, 0xff, 0x19, 0x00, 0x00, 0x00, 
  0x53, 0x74, 0x61, 0x74, 0x65, 0x66, 0x75, 0x6c, 0x50, 0x61, 0x72, 0x74, 
  0x69, 0x74, 0x69, 0x6f, 0x6e, 0x65, 0x64, 0x43, 0x61, 0x6c, 0x6c, 0x3a, 
  0x30, 0x00, 0x00, 0x00, 0x02, 0x00, 0x00, 0x00, 0x01, 0x00, 0x00, 0x00, 
  0x06, 0x00, 0x00, 0x00, 0xc4, 0xfc, 0xff, 0xff, 0x14, 0x00, 0x00, 0x00, 
  0x1c, 0x00, 0x00, 0x00, 0x1c, 0x00, 0x00, 0x00, 0x0a, 0x00, 0x00, 0x00, 
  0x50, 0x00, 0x00, 0x00, 0x02, 0x00, 0x00, 0x00, 0xff, 0xff, 0xff, 0xff, 
  0x06, 0x00, 0x00, 0x00, 0xb0, 0xfc, 0xff, 0xff, 0x34, 0x00, 0x00, 0x00, 
  0x73, 0x65, 0x71, 0x75, 0x65, 0x6e, 0x74, 0x69, 0x61, 0x6c, 0x2f, 0x64, 
  0x65, 0x6e, 0x73, 0x65, 0x5f, 0x32, 0x2f, 0x4d, 0x61, 0x74, 0x4d, 0x75, 
  0x6c, 0x3b, 0x73, 0x65, 0x71, 0x75, 0x65, 0x6e, 0x74, 0x69, 0x61, 0x6c, 
  0x2f, 0x64, 0x65, 0x6e, 0x73, 0x65, 0x5f, 0x32, 0x2f, 0x42, 0x69, 0x61, 
  0x73, 0x41, 0x64, 0x64, 0x00, 0x00, 0x00, 0x00, 0x02, 0x00, 0x00, 0x00, 
  0x01, 0x00, 0x00, 0x00, 0x06, 0x00, 0x00, 0x00, 0x34, 0xfd, 0xff, 0xff, 
  0x14, 0x00, 0x00, 0x00, 0x1c, 0x00, 0x00, 0x00, 0x1c, 0x00, 0x00, 0x00, 
  0x09, 0x00, 0x00, 0x00, 0x68, 0x00, 0x00, 0x00, 0x02, 0x00, 0x00, 0x00, 
  0xff, 0xff, 0xff, 0xff, 0x0f, 0x00, 0x00, 0x00, 0x20, 0xfd, 0xff, 0xff, 
  0x4c, 0x00, 0x00, 0x00, 0x73, 0x65, 0x71, 0x75, 0x65, 0x6e, 0x74, 0x69, 
  0x61, 0x6c, 0x2f, 0x64, 0x65, 0x6e, 0x73, 0x65, 0x5f, 0x31, 0x2f, 0x4d, 
  0x61, 0x74, 0x4d, 0x75, 0x6c, 0x3b, 0x73, 0x65, 0x71, 0x75, 0x65, 0x6e, 
  0x74, 0x69, 0x61, 0x6c, 0x2f, 0x64, 0x65, 0x6e, 0x73, 0x65, 0x5f, 0x31, 
  0x2f, 0x52, 0x65, 0x6c, 0x75, 0x3b, 0x73, 0x65, 0x71, 0x75, 0x65, 0x6e, 
  0x74, 0x69, 0x61, 0x6c, 0x2f, 0x64, 0x65, 0x6e, 0x73, 0x65, 0x5f, 0x31, 
  0x2f, 0x42, 0x69, 0x61, 0x73, 0x41, 0x64, 0x64, 0x00, 0x00, 0x00, 0x00, 
  0x02, 0x00, 0x00, 0x00, 0x01, 0x00, 0x00, 0x00, 0x0f, 0x00, 0x00, 0x00, 
  0xbc, 0xfd, 0xff, 0xff, 0x14, 0x00, 0x00, 0x00, 0x1c, 0x00, 0x00, 0x00, 
  0x1c, 0x00, 0x00, 0x00, 0x08, 0x00, 0x00, 0x00, 0x60, 0x00, 0x00, 0x00, 
  0x02, 0x00, 0x00, 0x00, 0xff, 0xff, 0xff, 0xff, 0x0a, 0x00, 0x00, 0x00, 
  0xa8, 0xfd, 0xff, 0xff, 0x46, 0x00, 0x00, 0x00, 0x73, 0x65, 0x71, 0x75, 
  0x65, 0x6e, 0x74, 0x69, 0x61, 0x6c, 0x2f, 0x64, 0x65, 0x6e, 0x73, 0x65, 
  0x2f, 0x4d, 0x61, 0x74, 0x4d, 0x75, 0x6c, 0x3b, 0x73, 0x65, 0x71, 0x75, 
  0x65, 0x6e, 0x74, 0x69, 0x61, 0x6c, 0x2f, 0x64, 0x65, 0x6e, 0x73, 0x65, 
  0x2f, 0x52, 0x65, 0x6c, 0x75, 0x3b, 0x73, 0x65, 0x71, 0x75, 0x65, 0x6e, 
  0x74, 0x69, 0x61, 0x6c, 0x2f, 0x64, 0x65, 0x6e, 0x73, 0x65, 0x2f, 0x42, 
  0x69, 0x61, 0x73, 0x41, 0x64, 0x64, 0x00, 0x00, 0x02, 0x00, 0x00, 0x00, 
  0x01, 0x00, 0x00, 0x00, 0x0a, 0x00, 0x00, 0x00, 0x96, 0xfe, 0xff, 0xff, 
  0x10, 0x00, 0x00, 0x00, 0x10, 0x00, 0x00, 0x00, 0x07, 0x00, 0x00, 0x00, 
  0x28, 0x00, 0x00, 0x00, 0x18, 0xfe, 0xff, 0xff, 0x19, 0x00, 0x00, 0x00, 
  0x73, 0x65, 0x71, 0x75, 0x65, 0x6e, 0x74, 0x69, 0x61, 0x6c, 0x2f, 0x64, 
  0x65, 0x6e, 0x73, 0x65, 0x5f, 0x32, 0x2f, 0x4d, 0x61, 0x74, 0x4d, 0x75, 
  0x6c, 0x00, 0x00, 0x00, 0x02, 0x00, 0x00, 0x00, 0x06, 0x00, 0x00, 0x00, 
  0x0f, 0x00, 0x00, 0x00, 0xda, 0xfe, 0xff, 0xff, 0x10, 0x00, 0x00, 0x00, 
  0x10, 0x00, 0x00, 0x00, 0x06, 0x00, 0x00, 0x00, 0x28, 0x00, 0x00, 0x00, 
  0x5c, 0xfe, 0xff, 0xff, 0x19, 0x00, 0x00, 0x00, 0x73, 0x65, 0x71, 0x75, 
  0x65, 0x6e, 0x74, 0x69, 0x61, 0x6c, 0x2f, 0x64, 0x65, 0x6e, 0x73, 0x65, 
  0x5f, 0x31, 0x2f, 0x4d, 0x61, 0x74, 0x4d, 0x75, 0x6c, 0x00, 0x00, 0x00, 
  0x02, 0x00, 0x00, 0x00, 0x0f, 0x00, 0x00, 0x00, 0x0a, 0x00, 0x00, 0x00, 
  0x1e, 0xff, 0xff, 0xff, 0x10, 0x00, 0x00, 0x00, 0x10, 0x00, 0x00, 0x00, 
  0x05, 0x00, 0x00, 0x00, 0x24, 0x00, 0x00, 0x00, 0xa0, 0xfe, 0xff, 0xff, 
  0x17, 0x00, 0x00, 0x00, 0x73, 0x65, 0x71, 0x75, 0x65, 0x6e, 0x74, 0x69, 
  0x61, 0x6c, 0x2f, 0x64, 0x65, 0x6e, 0x73, 0x65, 0x2f, 0x4d, 0x61, 0x74, 
  0x4d, 0x75, 0x6c, 0x00, 0x02, 0x00, 0x00, 0x00, 0x0a, 0x00, 0x00, 0x00, 
  0x06, 0x00, 0x00, 0x00, 0x5e, 0xff, 0xff, 0xff, 0x10, 0x00, 0x00, 0x00, 
  0x10, 0x00, 0x00, 0x00, 0x04, 0x00, 0x00, 0x00, 0x38, 0x00, 0x00, 0x00, 
  0xe0, 0xfe, 0xff, 0xff, 0x29, 0x00, 0x00, 0x00, 0x73, 0x65, 0x71, 0x75, 
  0x65, 0x6e, 0x74, 0x69, 0x61, 0x6c, 0x2f, 0x64, 0x65, 0x6e, 0x73, 0x65, 
  0x5f, 0x31, 0x2f, 0x42, 0x69, 0x61, 0x73, 0x41, 0x64, 0x64, 0x2f, 0x52, 
  0x65, 0x61, 0x64, 0x56, 0x61, 0x72, 0x69, 0x61, 0x62, 0x6c, 0x65, 0x4f, 
  0x70, 0x00, 0x00, 0x00, 0x01, 0x00, 0x00, 0x00, 0x0f, 0x00, 0x00, 0x00, 
  0xae, 0xff, 0xff, 0xff, 0x10, 0x00, 0x00, 0x00, 0x10, 0x00, 0x00, 0x00, 
  0x03, 0x00, 0x00, 0x00, 0x38, 0x00, 0x00, 0x00, 0x30, 0xff, 0xff, 0xff, 
  0x29, 0x00, 0x00, 0x00, 0x73, 0x65, 0x71, 0x75, 0x65, 0x6e, 0x74, 0x69, 
  0x61, 0x6c, 0x2f, 0x64, 0x65, 0x6e, 0x73, 0x65, 0x5f, 0x32, 0x2f, 0x42, 
  0x69, 0x61, 0x73, 0x41, 0x64, 0x64, 0x2f, 0x52, 0x65, 0x61, 0x64, 0x56, 
  0x61, 0x72, 0x69, 0x61, 0x62, 0x6c, 0x65, 0x4f, 0x70, 0x00, 0x00, 0x00, 
  0x01, 0x00, 0x00, 0x00, 0x06, 0x00, 0x00, 0x00, 0x00, 0x00, 0x0e, 0x00, 
  0x14, 0x00, 0x10, 0x00, 0x00, 0x00, 0x0c, 0x00, 0x08, 0x00, 0x04, 0x00, 
  0x0e, 0x00, 0x00, 0x00, 0x10, 0x00, 0x00, 0x00, 0x10, 0x00, 0x00, 0x00, 
  0x02, 0x00, 0x00, 0x00, 0x34, 0x00, 0x00, 0x00, 0x90, 0xff, 0xff, 0xff, 
  0x27, 0x00, 0x00, 0x00, 0x73, 0x65, 0x71, 0x75, 0x65, 0x6e, 0x74, 0x69, 
  0x61, 0x6c, 0x2f, 0x64, 0x65, 0x6e, 0x73, 0x65, 0x2f, 0x42, 0x69, 0x61, 
  0x73, 0x41, 0x64, 0x64, 0x2f, 0x52, 0x65, 0x61, 0x64, 0x56, 0x61, 0x72, 
  0x69, 0x61, 0x62, 0x6c, 0x65, 0x4f, 0x70, 0x00, 0x01, 0x00, 0x00, 0x00, 
  0x0a, 0x00, 0x00, 0x00, 0x14, 0x00, 0x18, 0x00, 0x14, 0x00, 0x00, 0x00, 
  0x10, 0x00, 0x0c, 0x00, 0x08, 0x00, 0x00, 0x00, 0x00, 0x00, 0x04, 0x00, 
  0x14, 0x00, 0x00, 0x00, 0x14, 0x00, 0x00, 0x00, 0x20, 0x00, 0x00, 0x00, 
  0x20, 0x00, 0x00, 0x00, 0x01, 0x00, 0x00, 0x00, 0x38, 0x00, 0x00, 0x00, 
  0x02, 0x00, 0x00, 0x00, 0xff, 0xff, 0xff, 0xff, 0x06, 0x00, 0x00, 0x00, 
  0x04, 0x00, 0x04, 0x00, 0x04, 0x00, 0x00, 0x00, 0x19, 0x00, 0x00, 0x00, 
  0x73, 0x65, 0x72, 0x76, 0x69, 0x6e, 0x67, 0x5f, 0x64, 0x65, 0x66, 0x61, 
  0x75, 0x6c, 0x74, 0x5f, 0x69, 0x6e, 0x70, 0x75, 0x74, 0x5f, 0x31, 0x3a, 
  0x30, 0x00, 0x00, 0x00, 0x02, 0x00, 0x00, 0x00, 0x01, 0x00, 0x00, 0x00, 
  0x06, 0x00, 0x00, 0x00, 0x02, 0x00, 0x00, 0x00, 0x20, 0x00, 0x00, 0x00, 
  0x04, 0x00, 0x00, 0x00, 0xf4, 0xff, 0xff, 0xff, 0x19, 0x00, 0x00, 0x00, 
  0x00, 0x00, 0x00, 0x19, 0x0c, 0x00, 0x0c, 0x00, 0x0b, 0x00, 0x00, 0x00, 
  0x00, 0x00, 0x04, 0x00, 0x0c, 0x00, 0x00, 0x00, 0x09, 0x00, 0x00, 0x00, 
  0x00, 0x00, 0x00, 0x09
};
unsigned int tflite_model_len = 3352;

// custom code
#define INPUT_TENSOR_SIZE 6
#define OUTPUT_TENSOR_SIZE 6
