unsigned char tflite_model[] = {
  0x1c, 0x00, 0x00, 0x00, 0x54, 0x46, 0x4c, 0x33, 0x14, 0x00, 0x20, 0x00, 
  0x1c, 0x00, 0x18, 0x00, 0x14, 0x00, 0x10, 0x00, 0x0c, 0x00, 0x00, 0x00, 
  0x08, 0x00, 0x04, 0x00, 0x14, 0x00, 0x00, 0x00, 0x1c, 0x00, 0x00, 0x00, 
  0x8c, 0x00, 0x00, 0x00, 0xe4, 0x00, 0x00, 0x00, 0x38, 0x11, 0x00, 0x00, 
  0x48, 0x11, 0x00, 0x00, 0x68, 0x15, 0x00, 0x00, 0x03, 0x00, 0x00, 0x00, 
  0x01, 0x00, 0x00, 0x00, 0x10, 0x00, 0x00, 0x00, 0x00, 0x00, 0x0a, 0x00, 
  0x10, 0x00, 0x0c, 0x00, 0x08, 0x00, 0x04, 0x00, 0x0a, 0x00, 0x00, 0x00, 
  0x0c, 0x00, 0x00, 0x00, 0x1c, 0x00, 0x00, 0x00, 0x38, 0x00, 0x00, 0x00, 
  0x0f, 0x00, 0x00, 0x00, 0x73, 0x65, 0x72, 0x76, 0x69, 0x6e, 0x67, 0x5f, 
  0x64, 0x65, 0x66, 0x61, 0x75, 0x6c, 0x74, 0x00, 0x01, 0x00, 0x00, 0x00, 
  0x04, 0x00, 0x00, 0x00, 0x9c, 0xff, 0xff, 0xff, 0x07, 0x00, 0x00, 0x00, 
  0x04, 0x00, 0x00, 0x00, 0x07, 0x00, 0x00, 0x00, 0x64, 0x65, 0x6e, 0x73, 
  0x65, 0x5f, 0x31, 0x00, 0x01, 0x00, 0x00, 0x00, 0x04, 0x00, 0x00, 0x00, 
  0xae, 0xee, 0xff, 0xff, 0x04, 0x00, 0x00, 0x00, 0x07, 0x00, 0x00, 0x00, 
  0x69, 0x6e, 0x70, 0x75, 0x74, 0x5f, 0x31, 0x00, 0x02, 0x00, 0x00, 0x00, 
  0x34, 0x00, 0x00, 0x00, 0x04, 0x00, 0x00, 0x00, 0xdc, 0xff, 0xff, 0xff, 
  0x0a, 0x00, 0x00, 0x00, 0x04, 0x00, 0x00, 0x00, 0x13, 0x00, 0x00, 0x00, 
  0x43, 0x4f, 0x4e, 0x56, 0x45, 0x52, 0x53, 0x49, 0x4f, 0x4e, 0x5f, 0x4d, 
  0x45, 0x54, 0x41, 0x44, 0x41, 0x54, 0x41, 0x00, 0x08, 0x00, 0x0c, 0x00, 
  0x08, 0x00, 0x04, 0x00, 0x08, 0x00, 0x00, 0x00, 0x09, 0x00, 0x00, 0x00, 
  0x04, 0x00, 0x00, 0x00, 0x13, 0x00, 0x00, 0x00, 0x6d, 0x69, 0x6e, 0x5f, 
  0x72, 0x75, 0x6e, 0x74, 0x69, 0x6d, 0x65, 0x5f, 0x76, 0x65, 0x72, 0x73, 
  0x69, 0x6f, 0x6e, 0x00, 0x0b, 0x00, 0x00, 0x00, 0x50, 0x10, 0x00, 0x00, 
  0x48, 0x10, 0x00, 0x00, 0xc8, 0x0f, 0x00, 0x00, 0xa0, 0x0f, 0x00, 0x00, 
  0x50, 0x03, 0x00, 0x00, 0xa0, 0x00, 0x00, 0x00, 0x98, 0x00, 0x00, 0x00, 
  0x90, 0x00, 0x00, 0x00, 0x88, 0x00, 0x00, 0x00, 0x68, 0x00, 0x00, 0x00, 
  0x04, 0x00, 0x00, 0x00, 0x4e, 0xef, 0xff, 0xff, 0x04, 0x00, 0x00, 0x00, 
  0x54, 0x00, 0x00, 0x00, 0x0c, 0x00, 0x00, 0x00, 0x08, 0x00, 0x0e, 0x00, 
  0x08, 0x00, 0x04, 0x00, 0x08, 0x00, 0x00, 0x00, 0x10, 0x00, 0x00, 0x00, 
  0x24, 0x00, 0x00, 0x00, 0x00, 0x00, 0x06, 0x00, 0x08, 0x00, 0x04, 0x00, 
  0x06, 0x00, 0x00, 0x00, 0x04, 0x00, 0x00, 0x00, 0x00, 0x00, 0x00, 0x00, 
  0x00, 0x00, 0x0a, 0x00, 0x10, 0x00, 0x0c, 0x00, 0x08, 0x00, 0x04, 0x00, 
  0x0a, 0x00, 0x00, 0x00, 0x02, 0x00, 0x00, 0x00, 0x02, 0x00, 0x00, 0x00, 
  0x04, 0x00, 0x00, 0x00, 0x05, 0x00, 0x00, 0x00, 0x32, 0x2e, 0x39, 0x2e, 
  0x31, 0x00, 0x00, 0x00, 0xae, 0xef, 0xff, 0xff, 0x04, 0x00, 0x00, 0x00, 
  0x10, 0x00, 0x00, 0x00, 0x31, 0x2e, 0x35, 0x2e, 0x30, 0x00, 0x00, 0x00, 
  0x00, 0x00, 0x00, 0x00, 0x00, 0x00, 0x00, 0x00, 0x50, 0xec, 0xff, 0xff, 
  0x54, 0xec, 0xff, 0xff, 0x58, 0xec, 0xff, 0xff, 0xd6, 0xef, 0xff, 0xff, 
  0x04, 0x00, 0x00, 0x00, 0xa0, 0x02, 0x00, 0x00, 0xec, 0x3c, 0xd1, 0x3e, 
  0x7e, 0xdc, 0x81, 0xbe, 0xb3, 0xab, 0x7c, 0xbf, 0x08, 0x66, 0xc7, 0xbf, 
  0x10, 0x6c, 0xc0, 0xbf, 0x95, 0xc4, 0xe5, 0x3d, 0xd7, 0x7d, 0xb4, 0xbf, 
  0xb2, 0x2d, 0xbf, 0xbe, 0x4c, 0x64, 0x70, 0x3f, 0xfe, 0xef, 0x7e, 0xbf, 
  0x29, 0x82, 0x92, 0xbf, 0x1a, 0xe4, 0x79, 0x3e, 0xcc, 0xe4, 0x4e, 0xbf, 
  0xe8, 0xc8, 0x84, 0xbe, 0xc2, 0x64, 0xd3, 0xbf, 0x1d, 0xef, 0x17, 0x3f, 
  0x27, 0xf1, 0x8c, 0xbf, 0xde, 0x84, 0x3c, 0xbf, 0xc7, 0x92, 0xfe, 0x3e, 
  0xda, 0x17, 0xed, 0xbe, 0x68, 0x4e, 0x69, 0x3e, 0xc6, 0x72, 0x51, 0x3f, 
  0xca, 0xc5, 0x87, 0xbf, 0x53, 0xde, 0x58, 0x3f, 0xa1, 0x6f, 0xc0, 0x3e, 
  0x42, 0x82, 0xf7, 0x3b, 0x7d, 0x5c, 0xbf, 0x3e, 0x63, 0xf2, 0x9b, 0xbf, 
  0x13, 0x9a, 0x2b, 0x3f, 0xac, 0xf8, 0xe6, 0xbe, 0x82, 0xd3, 0xad, 0xbd, 
  0x61, 0x0a, 0x84, 0x3f, 0x33, 0x60, 0x21, 0x3f, 0x50, 0xf6, 0x55, 0xbf, 
  0x7f, 0x26, 0x4f, 0xbe, 0xb0, 0xa1, 0xfa, 0x3e, 0xfa, 0x86, 0x48, 0x3f, 
  0x2b, 0x3b, 0x9c, 0x3e, 0x4e, 0xff, 0xe7, 0x3e, 0xb4, 0xe1, 0xa6, 0xbf, 
  0x99, 0x99, 0x72, 0x3f, 0x24, 0xcf, 0x81, 0xbe, 0xe1, 0x9e, 0xba, 0xbe, 
  0x45, 0x64, 0xc8, 0xbf, 0x81, 0xfc, 0xce, 0xbf, 0x04, 0x5a, 0xe6, 0xbf, 
  0x65, 0xbe, 0xce, 0xbf, 0xfc, 0x62, 0x9a, 0xbe, 0x51, 0x51, 0xf6, 0xbd, 
  0x89, 0x1a, 0xfb, 0xbe, 0xfb, 0x26, 0x6d, 0x3e, 0x4e, 0x0c, 0x7b, 0xbf, 
  0xc0, 0x33, 0x94, 0xbe, 0x1c, 0x01, 0x48, 0xbf, 0x0f, 0xc3, 0xe9, 0xbe, 
  0x19, 0xd5, 0x9a, 0x3f, 0xe8, 0x54, 0x95, 0xbf, 0xef, 0x22, 0xe7, 0x3d, 
  0xb2, 0xf4, 0xbe, 0xbf, 0xbf, 0x05, 0x44, 0xbf, 0xbf, 0x55, 0x40, 0xbf, 
  0xdf, 0xea, 0xa5, 0x3e, 0x7c, 0x95, 0x41, 0x3d, 0x52, 0xda, 0x20, 0xc0, 
  0xe7, 0x0a, 0x04, 0x3c, 0x9c, 0x0f, 0x14, 0xbf, 0x01, 0x6e, 0xa4, 0x3e, 
  0xb3, 0x95, 0x1b, 0x3f, 0x8a, 0x4a, 0xf2, 0xbe, 0x85, 0x70, 0xd2, 0xbf, 
  0x3d, 0xe3, 0xde, 0x3e, 0x37, 0x4c, 0xe0, 0x3e, 0xec, 0xb5, 0x6c, 0xbf, 
  0xf4, 0xba, 0xd4, 0x3e, 0x79, 0xdc, 0xf7, 0xbe, 0x15, 0xa1, 0xe1, 0xbd, 
  0x40, 0x1a, 0xc3, 0x3e, 0xa4, 0x09, 0x08, 0xc0, 0x4c, 0x54, 0x0f, 0xbf, 
  0x6d, 0xbe, 0xd8, 0xbe, 0x31, 0x93, 0xe1, 0xbe, 0x30, 0x92, 0xde, 0xbf, 
  0xe8, 0x2d, 0x65, 0xbe, 0xab, 0xa3, 0x0d, 0xbf, 0xd0, 0x65, 0xd5, 0x3e, 
  0xbf, 0x34, 0xd7, 0x3d, 0x1e, 0x75, 0x65, 0x3e, 0x20, 0x53, 0x67, 0xbc, 
  0x37, 0x58, 0xa2, 0xbe, 0x1d, 0x37, 0x0f, 0xbe, 0x25, 0x73, 0xc3, 0x3e, 
  0xee, 0xd3, 0x75, 0xbd, 0x16, 0xff, 0x09, 0x3f, 0x56, 0xc1, 0x86, 0x3c, 
  0xfe, 0x7b, 0x77, 0x3e, 0x87, 0xdd, 0x83, 0xbe, 0x5f, 0x88, 0x28, 0xbf, 
  0xfe, 0x1c, 0x90, 0xbc, 0xee, 0xfd, 0x3f, 0x3d, 0x5b, 0x30, 0x7c, 0x3e, 
  0x70, 0x22, 0x14, 0xbf, 0xfe, 0xb0, 0xa7, 0xbe, 0xd4, 0xa2, 0xab, 0x3d, 
  0x32, 0xba, 0x46, 0x3e, 0x1e, 0xa7, 0xb7, 0x3e, 0x7e, 0xdf, 0xd6, 0x3c, 
  0x67, 0x11, 0x8f, 0xbe, 0x74, 0x88, 0x4a, 0xbf, 0x7e, 0x11, 0x1b, 0xbf, 
  0xda, 0x0c, 0x87, 0x3e, 0x01, 0xfd, 0xf2, 0x3e, 0xe2, 0xf4, 0xfd, 0x3e, 
  0xfc, 0x97, 0xc2, 0xbf, 0x7e, 0x21, 0x6c, 0xbf, 0xd0, 0xfd, 0x13, 0x3f, 
  0xf0, 0x7a, 0xb3, 0xbe, 0x8a, 0x0c, 0xcd, 0x3e, 0x06, 0xaf, 0xc2, 0xbe, 
  0xf0, 0x0f, 0x7b, 0x3f, 0x24, 0x99, 0x00, 0x3f, 0xd4, 0x55, 0xb5, 0xbf, 
  0x92, 0xd7, 0x22, 0xbf, 0x2b, 0x22, 0xf8, 0xbf, 0x7c, 0xfa, 0x1c, 0xbe, 
  0xaf, 0xdc, 0x31, 0x3f, 0xf7, 0xf7, 0x10, 0x3f, 0xaf, 0xd4, 0x4c, 0x3e, 
  0xbd, 0xb7, 0x63, 0xbf, 0x13, 0x3d, 0x3b, 0x3f, 0x57, 0xa7, 0xd6, 0xbc, 
  0x7d, 0x13, 0xa5, 0xbd, 0xa2, 0xe0, 0x11, 0xc0, 0xff, 0x33, 0xa5, 0xbf, 
  0xce, 0x93, 0x48, 0x3f, 0x38, 0x30, 0xec, 0x3e, 0x96, 0x1d, 0x6e, 0x3f, 
  0xc9, 0x12, 0xc1, 0x3e, 0xfe, 0x4a, 0x16, 0x3e, 0x7f, 0x12, 0xd6, 0xbf, 
  0x20, 0x1c, 0x4e, 0xbf, 0x66, 0x00, 0xce, 0x3e, 0xfc, 0xa4, 0xf6, 0xbf, 
  0xb7, 0x79, 0x49, 0x3e, 0xfe, 0xd3, 0x5b, 0x3f, 0xc5, 0x68, 0x15, 0xbe, 
  0x4b, 0xeb, 0x39, 0x3f, 0xe5, 0x1e, 0x90, 0xbf, 0x3e, 0xb3, 0x42, 0xbe, 
  0xc6, 0x08, 0xd3, 0xbf, 0x13, 0x95, 0x14, 0x3f, 0xe0, 0x1e, 0x32, 0xbf, 
  0x9c, 0x83, 0x37, 0x3f, 0x7f, 0x8f, 0x92, 0x3e, 0x37, 0x6f, 0x0a, 0x3e, 
  0x40, 0x06, 0xdf, 0x3e, 0x76, 0x6f, 0x7f, 0xbf, 0xdc, 0x80, 0x61, 0x3e, 
  0xab, 0x6e, 0x55, 0xbd, 0x40, 0x4c, 0x3d, 0xbf, 0x3c, 0x46, 0xce, 0x3e, 
  0xfa, 0xfc, 0xc5, 0xbe, 0x32, 0x51, 0xd1, 0xbf, 0x0a, 0x42, 0x21, 0xbf, 
  0x90, 0x47, 0x26, 0xbf, 0xbd, 0x84, 0x8f, 0xbf, 0x0d, 0xc6, 0xdf, 0x3e, 
  0xee, 0xd1, 0x94, 0x3d, 0x21, 0xe4, 0xc0, 0x3e, 0x82, 0xf2, 0xff, 0xff, 
  0x04, 0x00, 0x00, 0x00, 0x40, 0x0c, 0x00, 0x00, 0x34, 0xcc, 0x0e, 0x3f, 
  0x84, 0x85, 0xad, 0xbe, 0xcc, 0x6a, 0xf9, 0xbf, 0xc5, 0x16, 0x0b, 0xbf, 
  0x5b, 0x59, 0xbb, 0xbd, 0x87, 0xf1, 0x49, 0x3f, 0x94, 0x9e, 0x73, 0xbe, 
  0x20, 0x23, 0x08, 0xbe, 0x2c, 0x5f, 0x9d, 0xbf, 0x56, 0x81, 0xef, 0xbe, 
  0x68, 0x0b, 0x91, 0xbf, 0xab, 0x90, 0xd7, 0xbe, 0xce, 0x47, 0xde, 0xbf, 
  0xfe, 0x5b, 0xf6, 0xbd, 0x32, 0x61, 0x85, 0xbf, 0x50, 0x38, 0x9b, 0xbf, 
  0x54, 0x17, 0x24, 0x3e, 0x8b, 0x27, 0x54, 0xbe, 0x8d, 0x86, 0xcf, 0x3d, 
  0xf1, 0xa5, 0x62, 0xbf, 0x7f, 0x9a, 0x4f, 0x3d, 0x1d, 0x2d, 0xd4, 0xbc, 
  0x1b, 0xed, 0xac, 0xbd, 0x79, 0x11, 0x31, 0x3e, 0x61, 0x66, 0xe7, 0x3d, 
  0x5b, 0x08, 0x82, 0x3e, 0x65, 0xc1, 0x46, 0xbe, 0x36, 0xd3, 0x51, 0xbf, 
  0x34, 0x30, 0x09, 0xbf, 0x06, 0xa6, 0x9f, 0xbe, 0x77, 0xa6, 0xb3, 0x3e, 
  0xb2, 0x0b, 0x9f, 0xbc, 0x8e, 0x5f, 0x5a, 0x3e, 0x33, 0x6b, 0xff, 0x3e, 
  0x25, 0x38, 0x65, 0x3f, 0x3b, 0x1e, 0x86, 0x3f, 0xe7, 0x65, 0x66, 0xbf, 
  0x83, 0x21, 0x91, 0x3e, 0x46, 0x4d, 0xf8, 0x3e, 0xe1, 0xe1, 0xdd, 0x3e, 
  0x3a, 0x1f, 0x40, 0xbe, 0xb5, 0xac, 0xcc, 0x3d, 0xe9, 0x79, 0x03, 0xbf, 
  0xfc, 0xc7, 0xe2, 0xbd, 0x3e, 0x8f, 0x2e, 0x3e, 0x3e, 0x60, 0x14, 0xbe, 
  0xd7, 0xbc, 0x2c, 0x3d, 0xff, 0xe7, 0x4d, 0x3e, 0xe2, 0x4b, 0x54, 0xbe, 
  0xa0, 0xcf, 0x0c, 0xbe, 0x61, 0x88, 0x40, 0x3e, 0xe6, 0xa5, 0x39, 0xbd, 
  0xbf, 0x97, 0x8a, 0xbe, 0x8f, 0x1a, 0x56, 0x3f, 0xfe, 0x9d, 0x97, 0x3d, 
  0x83, 0xe6, 0xce, 0x3e, 0x1e, 0x2a, 0x39, 0xbf, 0xec, 0x7a, 0x76, 0x3f, 
  0xb7, 0xe7, 0xce, 0xbe, 0x47, 0x9a, 0x03, 0xc0, 0x88, 0x07, 0x85, 0x3f, 
  0x17, 0xa9, 0x89, 0xbe, 0x0c, 0xd4, 0x32, 0x3d, 0xca, 0xa9, 0x20, 0x3f, 
  0x09, 0x32, 0x58, 0x3f, 0x88, 0xc7, 0xab, 0x3d, 0x66, 0xa1, 0x92, 0xbe, 
  0x58, 0x54, 0xb2, 0xbf, 0xf3, 0x99, 0x6b, 0xbf, 0x4a, 0xb9, 0x29, 0xbf, 
  0xa9, 0x7c, 0x21, 0xbf, 0x70, 0x8f, 0x14, 0xbf, 0x26, 0x17, 0x40, 0xbe, 
  0x3c, 0xf8, 0xb1, 0x3d, 0x4f, 0xa8, 0x15, 0xbf, 0xbc, 0x9b, 0x1e, 0xbf, 
  0x2a, 0x68, 0x0f, 0x3e, 0xc7, 0x61, 0xec, 0x3d, 0x1e, 0xe6, 0xd3, 0xbd, 
  0x81, 0xd3, 0x01, 0x3f, 0xc6, 0xaa, 0xad, 0xbd, 0x80, 0x02, 0x6c, 0xbe, 
  0x9b, 0x33, 0x8c, 0xbf, 0x89, 0x39, 0x38, 0xbf, 0x9b, 0x7a, 0x6f, 0xbe, 
  0x09, 0x3a, 0x11, 0x40, 0xe6, 0xd7, 0x8d, 0xbf, 0x16, 0x6f, 0x3d, 0xbf, 
  0x21, 0xee, 0xda, 0xbd, 0xe5, 0x6c, 0x7b, 0x3e, 0x28, 0xa9, 0x14, 0x3e, 
  0x69, 0x9a, 0x36, 0xbe, 0x31, 0xc5, 0xb2, 0xbd, 0x4a, 0x15, 0x01, 0xbf, 
  0x7d, 0x87, 0x6c, 0x3f, 0xcb, 0x0e, 0x7b, 0x3f, 0x62, 0x6e, 0x19, 0xbf, 
  0x3c, 0xbd, 0x0a, 0xbf, 0x6a, 0xdc, 0x95, 0xbf, 0xda, 0x3a, 0x2a, 0xbf, 
  0x4f, 0x84, 0x78, 0xbe, 0x78, 0x8c, 0x86, 0x3e, 0x8a, 0xbc, 0x07, 0xbe, 
  0xb4, 0x1c, 0xa1, 0xbe, 0x7a, 0xd0, 0x08, 0xbd, 0x5e, 0x6f, 0x72, 0xbd, 
  0xab, 0xa0, 0x67, 0x3e, 0x24, 0xe8, 0x58, 0xbe, 0xda, 0xfe, 0x8a, 0x3e, 
  0x3a, 0x5f, 0x8b, 0xbd, 0xcb, 0x0a, 0x56, 0x3f, 0x6e, 0xc0, 0x0b, 0xbe, 
  0x5d, 0xba, 0x26, 0xbf, 0x13, 0x0c, 0xe4, 0x3f, 0xdb, 0x0f, 0x4f, 0xbe, 
  0x14, 0x73, 0xcd, 0x3d, 0x3e, 0x79, 0xcc, 0xbc, 0x0a, 0x08, 0x9c, 0xbe, 
  0x30, 0xcc, 0xac, 0x3e, 0x6e, 0xe8, 0x00, 0x3f, 0x46, 0x1f, 0xd6, 0x3e, 
  0x8b, 0x19, 0x96, 0xbd, 0xa4, 0x08, 0x91, 0x3f, 0xc9, 0xbf, 0x13, 0xbf, 
  0xc2, 0x75, 0xc3, 0xbd, 0x65, 0x91, 0x26, 0x3d, 0xd0, 0x1d, 0xda, 0x3e, 
  0x83, 0xba, 0x99, 0x3f, 0x6c, 0xa3, 0xe8, 0x3e, 0x26, 0xe6, 0x41, 0xbe, 
  0xd1, 0xa4, 0x07, 0xbe, 0x9f, 0x12, 0x86, 0x3e, 0xfe, 0x68, 0x56, 0x3e, 
  0x57, 0xd2, 0xd5, 0x3d, 0x66, 0x52, 0x05, 0xbe, 0x7b, 0xa1, 0x09, 0xbe, 
  0xff, 0xf6, 0xa3, 0xbe, 0x20, 0x8b, 0xb3, 0xbe, 0xf8, 0xfd, 0x5d, 0xbe, 
  0x53, 0x09, 0x20, 0xbf, 0x12, 0x2d, 0xa6, 0x3f, 0x43, 0xa6, 0x58, 0xbf, 
  0xd5, 0x0b, 0x29, 0x3f, 0xd3, 0xe5, 0x73, 0x3f, 0x61, 0x6d, 0x9f, 0xbe, 
  0x21, 0xe1, 0x57, 0x3f, 0xb4, 0x7a, 0xf4, 0x3e, 0x82, 0x54, 0xee, 0x3e, 
  0x4a, 0x9b, 0xc1, 0xbe, 0xc5, 0x18, 0x14, 0xbf, 0x79, 0xf7, 0x08, 0x3e, 
  0x74, 0x63, 0x0f, 0x3f, 0xc5, 0x71, 0x2b, 0x3d, 0x4e, 0x38, 0x28, 0xbf, 
  0x85, 0x22, 0xf6, 0xbd, 0xdd, 0x64, 0x6f, 0x3e, 0xe1, 0xfe, 0x47, 0x3e, 
  0x45, 0xaa, 0x71, 0x3e, 0xc8, 0x44, 0x89, 0xbe, 0xf5, 0x2f, 0x1f, 0x3e, 
  0x1d, 0x5d, 0x39, 0xbf, 0x95, 0x72, 0xd7, 0xbd, 0x05, 0x20, 0xd1, 0x3c, 
  0x27, 0xe7, 0x35, 0x3c, 0x45, 0x6e, 0x86, 0x3e, 0x2d, 0x70, 0x4f, 0x3c, 
  0xfe, 0x9b, 0x2a, 0xbd, 0xb0, 0xf0, 0xd8, 0xbd, 0x6c, 0xdc, 0xf6, 0xbf, 
  0x9b, 0x58, 0xe5, 0xbe, 0x5f, 0x8f, 0x66, 0x3f, 0xe1, 0x2a, 0x92, 0xbf, 
  0x50, 0xbd, 0xb2, 0xbb, 0x2a, 0x83, 0x39, 0x3f, 0xfb, 0x3e, 0xae, 0x3e, 
  0x5f, 0x14, 0x15, 0x3f, 0x04, 0xc4, 0xa9, 0xbe, 0xeb, 0x1e, 0xbf, 0x3e, 
  0x78, 0xa8, 0x8d, 0x3f, 0x32, 0xea, 0x8a, 0x3e, 0x40, 0xc8, 0x30, 0xbf, 
  0x95, 0x67, 0xa5, 0xbd, 0xef, 0x1f, 0x6e, 0x3e, 0x89, 0xaf, 0x1a, 0xbe, 
  0xa5, 0x04, 0x9e, 0xbd, 0xcf, 0xff, 0xbf, 0xbd, 0x0c, 0xd9, 0x9b, 0xbd, 
  0x1d, 0xe8, 0x08, 0x3f, 0xa6, 0xd9, 0xe4, 0xbd, 0x23, 0xba, 0xfb, 0xbe, 
  0x24, 0xa9, 0xd0, 0xbe, 0xd7, 0x5c, 0xf6, 0x3d, 0x60, 0x0b, 0x04, 0x3f, 
  0xfd, 0x4e, 0x19, 0x3f, 0x4c, 0x63, 0x0b, 0xbf, 0xe4, 0xe8, 0x17, 0xbe, 
  0xfa, 0x75, 0xa8, 0x3e, 0x90, 0x8d, 0x9e, 0x3f, 0xbf, 0xed, 0xc4, 0xbe, 
  0xf3, 0x80, 0x0c, 0x3e, 0xb4, 0xed, 0x8c, 0x3e, 0x99, 0xfc, 0x96, 0xbf, 
  0xbc, 0x62, 0x0d, 0x3f, 0x77, 0x81, 0x24, 0xbc, 0x00, 0xfc, 0xab, 0x3e, 
  0x86, 0x89, 0x40, 0x3d, 0x69, 0x6b, 0x25, 0x3e, 0xc7, 0x67, 0x23, 0xbe, 
  0xa6, 0x4f, 0xcc, 0xbe, 0x4d, 0xcc, 0x43, 0x3d, 0xdb, 0xed, 0x32, 0x3d, 
  0x10, 0x92, 0x59, 0x3f, 0x6d, 0x9c, 0xc1, 0x3d, 0x73, 0x0d, 0x19, 0x3d, 
  0xe0, 0x8e, 0x85, 0xbc, 0xe7, 0x67, 0xb6, 0xbe, 0x8d, 0x05, 0x33, 0x3e, 
  0xe8, 0x62, 0x46, 0x3d, 0x9f, 0xde, 0xa4, 0xbe, 0xc9, 0x09, 0x12, 0xbe, 
  0x37, 0xff, 0x05, 0xbf, 0xbe, 0x43, 0xa5, 0x3e, 0x33, 0x0c, 0x73, 0xbe, 
  0x63, 0x9c, 0x07, 0xbf, 0x35, 0x5c, 0x7f, 0x3e, 0x8f, 0x32, 0xfd, 0xbe, 
  0x0a, 0x0f, 0xbc, 0xbf, 0xc1, 0x1c, 0x8e, 0xbe, 0xe6, 0x25, 0xee, 0xbe, 
  0x92, 0xec, 0x9c, 0x3e, 0x52, 0x5f, 0xa2, 0x3f, 0xf8, 0x4d, 0x85, 0x3f, 
  0x89, 0x32, 0xf8, 0xbf, 0x43, 0x1f, 0x71, 0xbe, 0x5a, 0xfa, 0x97, 0xbe, 
  0x06, 0x35, 0x8f, 0x3f, 0xa9, 0x79, 0x95, 0xbd, 0xa6, 0x60, 0xbe, 0x3e, 
  0xfd, 0x87, 0x71, 0xbf, 0xd1, 0x09, 0xe9, 0xbe, 0x35, 0xaa, 0xf6, 0xbd, 
  0x73, 0x09, 0x87, 0x3e, 0x67, 0xb7, 0x83, 0xbe, 0xae, 0xe4, 0x85, 0xbf, 
  0x61, 0xad, 0xc6, 0xbd, 0x2c, 0xdd, 0xe0, 0x3d, 0x5b, 0x02, 0x04, 0xbf, 
  0x76, 0x37, 0x3d, 0x3e, 0xc5, 0x2e, 0xd5, 0xbe, 0xf3, 0xfc, 0x2c, 0x3f, 
  0x62, 0xbc, 0x33, 0x3f, 0xbe, 0x1a, 0xfb, 0x3e, 0x60, 0x4c, 0x58, 0x3e, 
  0x5f, 0x77, 0x04, 0x3f, 0xbf, 0x82, 0xdd, 0x3e, 0x0f, 0x46, 0x1a, 0x3f, 
  0xad, 0xaf, 0xf8, 0x3e, 0xa7, 0x5a, 0xc1, 0x3f, 0x5e, 0xd4, 0xb9, 0xbe, 
  0x73, 0x95, 0x4d, 0x3e, 0xa8, 0x06, 0xf7, 0xbe, 0x13, 0x4c, 0xbd, 0xbe, 
  0xa7, 0x8c, 0x3d, 0x3f, 0x7f, 0xc9, 0x03, 0x3f, 0xd6, 0x05, 0x62, 0xbf, 
  0x02, 0xe1, 0x90, 0xbf, 0xa0, 0x02, 0x12, 0xbd, 0xe2, 0x9f, 0x81, 0xbe, 
  0x5d, 0x45, 0xf0, 0x3d, 0xbe, 0xc9, 0x60, 0x3e, 0x50, 0x02, 0x46, 0x3e, 
  0xa6, 0xb7, 0x0b, 0xbe, 0x16, 0x2e, 0x09, 0x3e, 0xdf, 0x48, 0x5a, 0x3e, 
  0x21, 0x43, 0x1e, 0xbf, 0x14, 0xea, 0x60, 0xbe, 0x9d, 0xc9, 0xb2, 0xbd, 
  0xb7, 0xfe, 0x36, 0xbe, 0x37, 0x5f, 0x10, 0xbf, 0x00, 0x7b, 0xc6, 0xbe, 
  0x15, 0xf0, 0x86, 0xbe, 0xdb, 0x8e, 0x8a, 0x3f, 0xf7, 0xb3, 0x01, 0xbd, 
  0x8c, 0xa9, 0xf7, 0x3d, 0x19, 0xc4, 0x3e, 0xbd, 0xbe, 0x75, 0x99, 0x3e, 
  0x10, 0xae, 0x1e, 0x3d, 0x36, 0xd4, 0x50, 0x3f, 0xc5, 0xfe, 0xd0, 0x3e, 
  0x02, 0xde, 0xaa, 0x3e, 0x10, 0x18, 0xb3, 0x3e, 0x3b, 0x5e, 0x3d, 0x3e, 
  0x7e, 0x5e, 0x98, 0xbe, 0xf7, 0x85, 0xc5, 0xbe, 0xa1, 0x13, 0xdb, 0xbe, 
  0xb0, 0xde, 0x67, 0xbe, 0x2e, 0xbe, 0x61, 0x3f, 0xf9, 0xf7, 0x55, 0x3c, 
  0x5e, 0x6e, 0x35, 0xbe, 0xcf, 0xfe, 0x58, 0xbf, 0x8d, 0xf7, 0x5d, 0xbe, 
  0x54, 0xfe, 0x56, 0xbe, 0x6d, 0x97, 0x89, 0x3e, 0xcc, 0xab, 0xa4, 0x3e, 
  0x63, 0x0c, 0x82, 0x3f, 0x5e, 0xc6, 0x30, 0x3f, 0x0f, 0x4e, 0x2f, 0x3e, 
  0x23, 0xf6, 0xa2, 0x3d, 0xf5, 0x4b, 0xc0, 0x3f, 0xa8, 0x9c, 0x85, 0xbf, 
  0xb8, 0x4d, 0xe8, 0x3d, 0x20, 0xfb, 0xc4, 0x3f, 0xc9, 0x5d, 0xeb, 0xbd, 
  0xe9, 0x55, 0x8e, 0x3e, 0x5e, 0xba, 0x70, 0x3e, 0x31, 0xc8, 0xf5, 0xbd, 
  0x04, 0x05, 0x8b, 0xbc, 0x53, 0xef, 0x79, 0xbf, 0x9c, 0x5a, 0x45, 0xbf, 
  0x98, 0x5e, 0x22, 0xbf, 0xd9, 0x1f, 0x08, 0xbe, 0x0d, 0xad, 0xa3, 0xbe, 
  0xd1, 0x80, 0xfc, 0x3c, 0x5e, 0xe5, 0x9b, 0xbe, 0x73, 0x0b, 0x06, 0x3e, 
  0x42, 0x5e, 0x09, 0x3f, 0x30, 0x5c, 0x92, 0xbc, 0x30, 0x96, 0xa5, 0x3e, 
  0x8a, 0x7b, 0x5c, 0xbf, 0x37, 0xda, 0x08, 0xbe, 0xb8, 0x7c, 0x53, 0xbf, 
  0x5d, 0x3e, 0x15, 0xbf, 0x13, 0x63, 0x3e, 0x3e, 0xb6, 0xd9, 0x36, 0xbe, 
  0x4b, 0x80, 0x66, 0x3e, 0xcf, 0xd8, 0x34, 0xbc, 0x23, 0xbe, 0x69, 0xbf, 
  0xf3, 0x9a, 0x0a, 0x40, 0x84, 0xc1, 0x7b, 0xbf, 0x3e, 0x73, 0x27, 0xbf, 
  0xfd, 0x40, 0xe4, 0x3e, 0xb7, 0x8b, 0xbd, 0x3d, 0x54, 0x3c, 0x37, 0x3c, 
  0xf5, 0x9a, 0x31, 0x3d, 0xa7, 0xcf, 0xc4, 0xbf, 0x21, 0xe7, 0x2f, 0x3c, 
  0x07, 0x00, 0x4a, 0x3f, 0xce, 0xb7, 0xf1, 0x3d, 0xf1, 0x64, 0x0f, 0xbf, 
  0x8e, 0xac, 0x0d, 0xbe, 0x83, 0x8b, 0x25, 0xbe, 0x36, 0x1c, 0x3e, 0xbe, 
  0x0b, 0xdd, 0x6a, 0x3e, 0xe7, 0x63, 0xee, 0xbd, 0xb6, 0x84, 0x2c, 0x3d, 
  0x17, 0xf9, 0xa5, 0xbe, 0x51, 0x13, 0x74, 0xbd, 0xba, 0x6b, 0x7b, 0xbe, 
  0xcb, 0x20, 0x7f, 0xbe, 0xf9, 0x60, 0x3b, 0x3e, 0xc1, 0x4b, 0xfe, 0x3d, 
  0x6a, 0xfd, 0xba, 0x3d, 0x76, 0x24, 0xa0, 0x3c, 0xb8, 0x7a, 0xc6, 0xbe, 
  0xbf, 0xd6, 0x36, 0xbf, 0xa0, 0xcc, 0x47, 0x3e, 0xa6, 0xc9, 0x22, 0x3f, 
  0x52, 0x19, 0x72, 0x3e, 0xe2, 0x46, 0xee, 0xba, 0xa1, 0x34, 0xda, 0xbe, 
  0xcb, 0x3e, 0x87, 0x3e, 0x9d, 0x1c, 0xe2, 0x3e, 0xd0, 0x57, 0x2d, 0x3f, 
  0xb1, 0x24, 0x42, 0x3e, 0x4f, 0xfb, 0xc1, 0x3d, 0xc1, 0x70, 0x4c, 0xbf, 
  0x36, 0xdc, 0xfb, 0xbe, 0xc6, 0xfe, 0xe8, 0xbe, 0xa1, 0xeb, 0x31, 0x3f, 
  0x97, 0x83, 0x73, 0x3f, 0xa7, 0xd1, 0xfb, 0x3e, 0xd9, 0x6c, 0xd3, 0xbe, 
  0x46, 0xad, 0x03, 0x3d, 0x64, 0xce, 0xca, 0x3d, 0x99, 0x82, 0x76, 0x3d, 
  0x5c, 0x9f, 0x16, 0xbf, 0xee, 0x88, 0x79, 0xbe, 0x88, 0x10, 0x13, 0x3e, 
  0x4e, 0x97, 0x5e, 0xbf, 0xf6, 0xb6, 0x65, 0x3e, 0x00, 0x8b, 0xf7, 0xbe, 
  0x91, 0xdc, 0x3f, 0xbf, 0x9f, 0x97, 0x04, 0x3f, 0x37, 0x35, 0x55, 0x3e, 
  0x6f, 0x45, 0x08, 0x40, 0x9f, 0xa2, 0xe8, 0x3d, 0xcf, 0x27, 0xc5, 0xbe, 
  0xd4, 0xcb, 0x01, 0x3f, 0x3e, 0x3e, 0xe5, 0xbe, 0xd9, 0x52, 0x8b, 0xbe, 
  0xbc, 0xc8, 0xcf, 0xbe, 0x44, 0x43, 0xc0, 0xbc, 0xdf, 0xc6, 0xc5, 0xbd, 
  0x63, 0xd9, 0xa2, 0xbd, 0x82, 0x02, 0x48, 0x3f, 0x35, 0x42, 0xc2, 0xbe, 
  0x21, 0xae, 0xf6, 0x3e, 0xfe, 0xfd, 0xa3, 0x3e, 0xf3, 0x67, 0xe6, 0x3e, 
  0x31, 0xc3, 0x79, 0x3e, 0x6d, 0xb1, 0xd1, 0x3e, 0x1b, 0xc4, 0xc4, 0x3e, 
  0xf0, 0xad, 0xd1, 0x3e, 0x8a, 0x27, 0x91, 0x3d, 0x9e, 0xcd, 0x2c, 0x3e, 
  0x78, 0x91, 0xa5, 0xbe, 0x6f, 0xc7, 0xa2, 0xbe, 0x84, 0xa3, 0xfc, 0xbe, 
  0x0c, 0xbd, 0x0e, 0x3e, 0xe0, 0xd6, 0xf5, 0x3c, 0x43, 0xb1, 0x3d, 0xbf, 
  0x38, 0xdc, 0x7d, 0xbf, 0x1d, 0xdd, 0x7d, 0x3f, 0xec, 0x79, 0x36, 0x3f, 
  0x63, 0xdf, 0x3b, 0x3f, 0xe0, 0x4f, 0xb5, 0x3e, 0x0c, 0x8d, 0xf1, 0xbd, 
  0x80, 0x30, 0x75, 0x38, 0x5a, 0x77, 0xe3, 0x3e, 0x7d, 0xcf, 0xcc, 0xbe, 
  0x01, 0x29, 0xde, 0x3e, 0x4a, 0xe0, 0xea, 0xbc, 0x9d, 0x5e, 0x7b, 0xbd, 
  0x58, 0xe1, 0x0c, 0xbf, 0x3d, 0xef, 0xda, 0x3e, 0x5d, 0xf5, 0x16, 0x3f, 
  0xde, 0x28, 0x5b, 0xbc, 0x5a, 0xe1, 0x37, 0xbf, 0xf6, 0xcd, 0x97, 0x3e, 
  0x47, 0xdf, 0xdd, 0x3e, 0x7e, 0xf9, 0xc3, 0x3e, 0x41, 0x56, 0x00, 0x3d, 
  0xa1, 0x53, 0xb2, 0x3c, 0xbe, 0xf9, 0xb1, 0xbc, 0x83, 0xde, 0x64, 0x3f, 
  0x67, 0xd3, 0x17, 0x3f, 0x87, 0xeb, 0x82, 0x3e, 0x6c, 0x11, 0xd7, 0x3e, 
  0x97, 0xaa, 0x31, 0x40, 0xd0, 0x8e, 0x58, 0x3d, 0x70, 0x4f, 0x9f, 0x3e, 
  0xd1, 0x08, 0xe1, 0x3e, 0x1b, 0xa6, 0x18, 0xbf, 0x4f, 0xb8, 0x6b, 0xbe, 
  0xa2, 0x6a, 0x24, 0xbf, 0x74, 0xc4, 0x05, 0xbd, 0xb6, 0x6b, 0x53, 0xbe, 
  0x61, 0x31, 0x01, 0x3e, 0x55, 0x93, 0x4b, 0xbf, 0x6b, 0xd3, 0x61, 0xbf, 
  0x53, 0x0c, 0x12, 0xbf, 0x9d, 0xa9, 0x81, 0xbf, 0x96, 0x2e, 0xf4, 0xbd, 
  0xdf, 0xca, 0x2b, 0x3d, 0x86, 0x55, 0xb3, 0x3e, 0x0f, 0x13, 0x1e, 0x3e, 
  0x26, 0x55, 0x0d, 0xbf, 0x53, 0x95, 0x9b, 0xbe, 0xd6, 0x93, 0x1d, 0xbf, 
  0x75, 0x72, 0xcd, 0x3e, 0x3b, 0x11, 0x58, 0xbe, 0xd1, 0xee, 0x38, 0xbe, 
  0x97, 0x0e, 0x4b, 0xbf, 0xf5, 0xee, 0x5a, 0xbd, 0x82, 0xa0, 0x8b, 0xbd, 
  0x8a, 0xa3, 0x3c, 0xbe, 0x3b, 0xf0, 0x3c, 0x3f, 0x55, 0x1c, 0xee, 0xbd, 
  0x7d, 0xcf, 0xb1, 0x3f, 0x34, 0xb1, 0xe2, 0x3f, 0x15, 0x5b, 0xe8, 0xbe, 
  0x16, 0x6d, 0x4d, 0x3f, 0x43, 0xd5, 0x2e, 0x3f, 0xb0, 0x44, 0xb5, 0x3d, 
  0x00, 0xf8, 0xcd, 0xbe, 0xb4, 0xc4, 0x94, 0xbb, 0x01, 0xaf, 0x54, 0x3d, 
  0x23, 0x00, 0xf5, 0xbe, 0x95, 0x27, 0x2e, 0x3f, 0x01, 0xec, 0xbf, 0x3d, 
  0x97, 0xc9, 0x63, 0x3f, 0xcd, 0x8b, 0xd1, 0x3e, 0xc6, 0x59, 0x25, 0x3f, 
  0xd7, 0x13, 0xbb, 0xbe, 0xb5, 0xfd, 0xfd, 0x3e, 0xde, 0x25, 0x6b, 0x3e, 
  0x9b, 0x72, 0x51, 0x3d, 0x05, 0x5b, 0xb3, 0x3d, 0x32, 0x6c, 0x90, 0x3e, 
  0xd8, 0x39, 0xd3, 0x3d, 0x8a, 0xc7, 0x86, 0x3e, 0xd5, 0x9a, 0xda, 0xbe, 
  0xd6, 0xc9, 0x16, 0x3e, 0xbb, 0x56, 0x46, 0x3e, 0xa9, 0xe7, 0x1c, 0xbf, 
  0x68, 0xc8, 0x05, 0xc0, 0xed, 0x6e, 0x11, 0x3f, 0xd3, 0xd9, 0x82, 0xbf, 
  0x81, 0x03, 0xf8, 0xbe, 0x51, 0x28, 0xbd, 0x3e, 0xd0, 0xb4, 0xc3, 0xbd, 
  0x2a, 0x5f, 0x72, 0x3e, 0x51, 0x60, 0x1e, 0xbf, 0xcb, 0x14, 0x9e, 0x3e, 
  0x20, 0x61, 0x14, 0x3f, 0xb1, 0x3c, 0x22, 0x3f, 0x04, 0x7d, 0x0c, 0xbf, 
  0x50, 0x80, 0x23, 0xbf, 0xc5, 0x5a, 0x25, 0xbe, 0x4e, 0x8d, 0x11, 0x3e, 
  0x70, 0x7a, 0xce, 0xbd, 0x55, 0x4b, 0xce, 0xbe, 0xf5, 0x97, 0xf8, 0x3e, 
  0xc0, 0x68, 0xd1, 0xbe, 0x4a, 0x28, 0x1c, 0x3e, 0xb3, 0xb0, 0x5d, 0xbe, 
  0x1d, 0xc2, 0x21, 0xbf, 0xd3, 0x69, 0x66, 0xbf, 0xb2, 0x26, 0xbf, 0x3e, 
  0xca, 0x0b, 0x0a, 0x3f, 0x56, 0x2d, 0xa4, 0x3e, 0x6a, 0xd0, 0x2a, 0xbe, 
  0x81, 0x29, 0x43, 0xbe, 0x16, 0x5b, 0x2d, 0xbe, 0x71, 0xd0, 0xf4, 0x3e, 
  0x43, 0x4a, 0xb2, 0xbe, 0x90, 0x60, 0x02, 0x3f, 0x4d, 0x13, 0xe0, 0x3f, 
  0xa2, 0xfa, 0x04, 0xbf, 0xb9, 0x67, 0x7b, 0xbe, 0x9a, 0x41, 0xb9, 0xbe, 
  0x06, 0x83, 0x10, 0xbf, 0x70, 0x59, 0x47, 0x3f, 0xdc, 0xe6, 0x40, 0x3d, 
  0xbc, 0xb2, 0x81, 0xbf, 0xf1, 0x3e, 0x9e, 0xbf, 0xfd, 0x1b, 0x25, 0xbf, 
  0x67, 0xa0, 0x4d, 0xbf, 0x26, 0x46, 0x1b, 0xbe, 0x0e, 0x04, 0x60, 0x3e, 
  0x7c, 0x89, 0x1d, 0xbe, 0xca, 0x67, 0x8a, 0xbc, 0x56, 0xe7, 0x75, 0xbc, 
  0x94, 0x39, 0x82, 0xbd, 0xf3, 0x67, 0x80, 0xbe, 0x83, 0xe2, 0x61, 0xbe, 
  0xda, 0xc4, 0xb7, 0xbe, 0xf6, 0x5c, 0xd1, 0x3e, 0xea, 0x68, 0xd2, 0xbd, 
  0xd8, 0xa3, 0x90, 0xbe, 0xfb, 0x06, 0x90, 0x3c, 0xcc, 0x2a, 0x1f, 0xbe, 
  0x7f, 0xb5, 0x19, 0x3f, 0x7e, 0xa5, 0x4f, 0x3d, 0xb7, 0x44, 0x90, 0x3f, 
  0x16, 0x35, 0xf8, 0xbc, 0x29, 0xfd, 0x1f, 0x3f, 0x64, 0x8a, 0x01, 0x3e, 
  0xbc, 0x93, 0x88, 0x3f, 0x17, 0xa2, 0x1e, 0xbf, 0x55, 0x23, 0x6a, 0x3e, 
  0x67, 0x2c, 0x25, 0xbe, 0x7a, 0xf2, 0x6b, 0x3f, 0xd0, 0x29, 0x27, 0x3d, 
  0x6b, 0xf8, 0x0d, 0xbc, 0x35, 0x8d, 0x04, 0x3d, 0x30, 0xef, 0xb9, 0xbe, 
  0xfc, 0x39, 0x9c, 0xbe, 0x56, 0x4e, 0xb1, 0x3e, 0x10, 0x1f, 0xa5, 0x3e, 
  0x06, 0x20, 0xae, 0x3e, 0xf8, 0x38, 0x88, 0x3d, 0x8f, 0x20, 0xd7, 0x3e, 
  0x6d, 0x87, 0x25, 0x3e, 0x48, 0x17, 0x80, 0x3f, 0xa2, 0xe7, 0xcc, 0x3e, 
  0x9a, 0xb0, 0xb7, 0x3e, 0x38, 0x40, 0x18, 0x3f, 0x9b, 0x56, 0x9f, 0xbf, 
  0xed, 0xea, 0xf3, 0xbf, 0x78, 0x74, 0xdb, 0xbf, 0xf3, 0x1f, 0x9d, 0x3f, 
  0x5e, 0xcf, 0xc7, 0x3d, 0xb2, 0x49, 0xde, 0x3e, 0xc8, 0x22, 0x24, 0x3f, 
  0x7b, 0xba, 0x4f, 0x3e, 0x84, 0x45, 0x94, 0x3c, 0xb7, 0x91, 0x22, 0x3c, 
  0x84, 0xb8, 0x11, 0x3f, 0xf0, 0x6c, 0xf9, 0x3e, 0xc1, 0x66, 0x0a, 0xbf, 
  0x37, 0x77, 0xe8, 0x3d, 0xef, 0xb8, 0x77, 0x3c, 0x57, 0x02, 0xb2, 0x3e, 
  0xc7, 0xf0, 0x8e, 0x3e, 0x81, 0x13, 0x4c, 0x3e, 0x8e, 0xc9, 0xab, 0xbe, 
  0x23, 0x64, 0x13, 0x3f, 0x8c, 0x41, 0xb7, 0xbd, 0x2f, 0xfa, 0x07, 0xbf, 
  0x05, 0xec, 0x45, 0xbf, 0xd6, 0x64, 0xd5, 0xbf, 0x26, 0xe2, 0x36, 0x3f, 
  0x66, 0x0e, 0x2a, 0xbe, 0x49, 0x00, 0x57, 0x3f, 0x83, 0x7e, 0xed, 0xbd, 
  0xa2, 0x29, 0x91, 0xbe, 0xbf, 0x9d, 0xc3, 0x3f, 0xd4, 0x24, 0x09, 0xbd, 
  0x86, 0x87, 0xf3, 0x3e, 0x2a, 0x2f, 0xc0, 0xbd, 0x66, 0xff, 0x37, 0x3f, 
  0x44, 0x59, 0x4e, 0x3e, 0xbb, 0x53, 0xbc, 0xbe, 0x8a, 0x59, 0x9a, 0x3d, 
  0xd0, 0x0e, 0x9a, 0x3b, 0x1d, 0xe4, 0x01, 0x3f, 0xf6, 0xf9, 0xe6, 0xbd, 
  0xe6, 0xfd, 0xba, 0xbd, 0xc2, 0x51, 0xb7, 0xbd, 0x37, 0x26, 0xe8, 0x3e, 
  0x41, 0xe4, 0xaf, 0x3f, 0x1b, 0xfb, 0xbc, 0xbe, 0x2e, 0xd4, 0xa8, 0x3c, 
  0xdd, 0x6a, 0xd6, 0x3e, 0x9f, 0x2a, 0x93, 0x3e, 0x64, 0x9c, 0x69, 0xbe, 
  0xe5, 0x7f, 0x96, 0x3e, 0x5d, 0x2d, 0xaf, 0xbd, 0x7e, 0xec, 0x50, 0x3e, 
  0x11, 0x77, 0xaa, 0xbe, 0x64, 0x35, 0x6b, 0x3f, 0x91, 0xdb, 0x1d, 0xbf, 
  0x5d, 0x97, 0x0c, 0xbf, 0xe4, 0xa1, 0x81, 0x3c, 0xb3, 0x53, 0xfe, 0xbf, 
  0xac, 0x42, 0x83, 0xbf, 0xc3, 0x94, 0x57, 0x3f, 0xed, 0xf8, 0xeb, 0x3d, 
  0x6d, 0x42, 0x44, 0xbe, 0x0f, 0x21, 0xb1, 0x3f, 0x58, 0xaa, 0x6a, 0xbe, 
  0x07, 0xc2, 0xe7, 0xbe, 0xff, 0x5a, 0xa1, 0x3e, 0x19, 0x97, 0x45, 0x3d, 
  0xa1, 0xd8, 0x90, 0x3e, 0xda, 0x84, 0x76, 0x3e, 0x7f, 0x7a, 0x73, 0x3f, 
  0x24, 0x03, 0x94, 0x3e, 0x88, 0xac, 0x7f, 0x3f, 0xc6, 0x7c, 0xea, 0xbd, 
  0xe4, 0xe9, 0x8b, 0x3f, 0x4a, 0x0e, 0x54, 0xbe, 0x03, 0xba, 0x6d, 0xbe, 
  0x00, 0x88, 0x3e, 0x3d, 0x69, 0x1e, 0x0f, 0xbe, 0x65, 0xc3, 0x75, 0x3d, 
  0x83, 0x63, 0x4a, 0xbf, 0x30, 0xb7, 0x82, 0xbd, 0x98, 0x35, 0xe7, 0x3b, 
  0xcb, 0x20, 0x03, 0x3f, 0xd1, 0x30, 0x53, 0xbf, 0x98, 0x33, 0xba, 0xbe, 
  0x01, 0xcf, 0xc6, 0xbf, 0x78, 0x99, 0x7c, 0xbf, 0x33, 0x2e, 0xdc, 0x3d, 
  0x25, 0xf7, 0xb5, 0x3e, 0xcc, 0x73, 0xbe, 0xbd, 0xea, 0xde, 0x56, 0x3f, 
  0xd8, 0x0e, 0xf2, 0x3d, 0xa7, 0x59, 0x88, 0x3e, 0x57, 0x60, 0x30, 0x3f, 
  0x6c, 0x24, 0xe0, 0x3d, 0x44, 0x74, 0x3e, 0xbf, 0x08, 0x07, 0xe2, 0xbe, 
  0x90, 0x84, 0x2c, 0x3e, 0xf5, 0x40, 0x0a, 0x3f, 0x47, 0x5e, 0xcb, 0x3f, 
  0x2b, 0xde, 0xa5, 0x3e, 0x07, 0x68, 0x30, 0x3d, 0x57, 0xfa, 0x0e, 0xbf, 
  0x7c, 0xf8, 0xe5, 0xbe, 0xa4, 0xa3, 0xee, 0x3e, 0x56, 0x76, 0x9e, 0xbe, 
  0x8a, 0x3d, 0xeb, 0x3c, 0x9c, 0x10, 0x3f, 0xbe, 0xbf, 0x45, 0x9c, 0xbe, 
  0x36, 0x05, 0x63, 0x3e, 0x4c, 0x65, 0xf7, 0xbe, 0x88, 0x75, 0x83, 0xbf, 
  0x80, 0xec, 0xc5, 0x3e, 0x33, 0xec, 0x29, 0xbf, 0x92, 0x59, 0x9b, 0x3f, 
  0x5d, 0x1d, 0xb3, 0x3e, 0x0a, 0x36, 0x09, 0xbf, 0x1c, 0xaf, 0xcb, 0xbe, 
  0x4a, 0x6a, 0x42, 0xbf, 0x58, 0x58, 0x95, 0x3e, 0xe1, 0x1f, 0x97, 0x3e, 
  0xbe, 0x98, 0xb1, 0xbe, 0x23, 0x65, 0x1d, 0xbf, 0x4a, 0xda, 0xb3, 0xbe, 
  0xb9, 0xfb, 0x0e, 0x3f, 0xbb, 0xa5, 0x27, 0xbe, 0x0c, 0xfb, 0x6e, 0x3d, 
  0xe2, 0x88, 0xf3, 0xbe, 0x07, 0xbf, 0x6a, 0x3f, 0x69, 0x67, 0xca, 0xbd, 
  0x3c, 0xbc, 0x98, 0x3e, 0x86, 0xc6, 0x3a, 0x3f, 0x58, 0x41, 0xb9, 0xbd, 
  0xeb, 0xc5, 0x1e, 0xbe, 0x24, 0x30, 0x7b, 0xbf, 0x25, 0x55, 0x23, 0xbf, 
  0x4c, 0xcb, 0x13, 0xbe, 0x4c, 0xbc, 0x58, 0xbe, 0x24, 0xbe, 0x3c, 0xbf, 
  0x1c, 0xa3, 0x97, 0xbe, 0x43, 0x3f, 0x10, 0x3f, 0xa1, 0x4e, 0x6f, 0xbf, 
  0x11, 0x49, 0xad, 0x3e, 0x36, 0xda, 0x19, 0xbf, 0x07, 0x87, 0x8f, 0xbf, 
  0x51, 0x36, 0x0e, 0x3f, 0xe0, 0xfa, 0x66, 0xbf, 0xb5, 0xfd, 0xa7, 0xbe, 
  0xbf, 0x26, 0x9d, 0xbe, 0x29, 0x0b, 0x36, 0x3f, 0xa5, 0x90, 0x0a, 0xbe, 
  0x52, 0x26, 0xa4, 0x3f, 0xb0, 0xc4, 0x22, 0xbe, 0xd1, 0x29, 0x02, 0x3f, 
  0xdd, 0xee, 0x3b, 0xbf, 0x4d, 0xf2, 0x90, 0xbf, 0xe3, 0x80, 0x38, 0xbf, 
  0xc2, 0x23, 0x33, 0xbe, 0x84, 0x4e, 0x9a, 0xbe, 0x1c, 0x52, 0xd7, 0xbe, 
  0x4e, 0x48, 0x9a, 0xbd, 0x03, 0x5d, 0xa4, 0x3d, 0xdb, 0xa9, 0x80, 0xbd, 
  0x9c, 0x02, 0xf1, 0xbd, 0xfe, 0x96, 0xa9, 0x3f, 0xc8, 0x61, 0x02, 0x3e, 
  0x20, 0x5c, 0x34, 0x3e, 0xef, 0x00, 0x15, 0x3f, 0x70, 0xef, 0x09, 0x3c, 
  0x6b, 0xad, 0x14, 0x40, 0xe9, 0xf5, 0xfb, 0xbe, 0xf7, 0xc6, 0x95, 0xbf, 
  0x3a, 0xc3, 0xfa, 0xbe, 0x2b, 0x37, 0x16, 0xbf, 0xf2, 0x0b, 0x04, 0xbf, 
  0x6c, 0x03, 0x0f, 0xbd, 0x4b, 0x02, 0x85, 0xbe, 0x76, 0x43, 0x16, 0xbf, 
  0x0d, 0xb6, 0x3c, 0x3f, 0x55, 0xa6, 0xaa, 0x3f, 0xc6, 0x79, 0xb8, 0xbe, 
  0x08, 0x5d, 0x1c, 0xbf, 0x78, 0xcf, 0x39, 0xbf, 0x40, 0x98, 0x49, 0xbf, 
  0x26, 0x5b, 0x59, 0x3d, 0xe0, 0x8e, 0x04, 0x3e, 0x13, 0xbb, 0x48, 0xbe, 
  0x60, 0x3d, 0xc6, 0xbe, 0xa9, 0xa7, 0x1e, 0xbe, 0x30, 0xb5, 0x54, 0xbf, 
  0xb9, 0x4b, 0x3b, 0xbe, 0x1c, 0xc7, 0x70, 0xbe, 0x82, 0xc4, 0x1b, 0x3f, 
  0x5b, 0xa7, 0x96, 0x3e, 0xcf, 0x6a, 0x4d, 0x3f, 0x22, 0x25, 0x6c, 0xbc, 
  0xce, 0xfe, 0xff, 0xff, 0x04, 0x00, 0x00, 0x00, 0x18, 0x00, 0x00, 0x00, 
  0x37, 0x9d, 0x63, 0xbf, 0x20, 0x36, 0x5a, 0xbf, 0xc6, 0x1f, 0x2e, 0x3e, 
  0x1f, 0xea, 0xe8, 0x3c, 0xbf, 0x43, 0xa4, 0xbd, 0x6c, 0xdd, 0x40, 0x3f, 
  0xf2, 0xfe, 0xff, 0xff, 0x04, 0x00, 0x00, 0x00, 0x70, 0x00, 0x00, 0x00, 
  0xa4, 0x2b, 0x8e, 0xbf, 0x7b, 0x43, 0x7e, 0xbf, 0xa6, 0x22, 0x50, 0x3d, 
  0x59, 0xf7, 0x14, 0xbf, 0x8b, 0xad, 0x87, 0xbc, 0x8d, 0xe8, 0x22, 0xbf, 
  0xbb, 0xe8, 0x5d, 0xbf, 0x7c, 0x6f, 0xe3, 0xbe, 0x2d, 0x00, 0x15, 0xbf, 
  0x4b, 0xeb, 0xa2, 0xbf, 0x32, 0xce, 0x19, 0xbe, 0xaa, 0xd0, 0x17, 0x3d, 
  0x0f, 0x95, 0x97, 0xbf, 0x89, 0x72, 0x38, 0xbe, 0x94, 0x29, 0x17, 0xbc, 
  0x85, 0x65, 0x1f, 0xbf, 0xae, 0x22, 0x37, 0xbf, 0x6d, 0x15, 0x29, 0xbf, 
  0x31, 0x64, 0x41, 0xbf, 0x9d, 0x76, 0xa5, 0xbf, 0xd5, 0x94, 0x5f, 0xbf, 
  0xbe, 0xd7, 0x77, 0xbe, 0xc3, 0xb3, 0x48, 0xbf, 0x6d, 0x9c, 0x30, 0xbf, 
  0x41, 0x4b, 0x0c, 0xbf, 0x18, 0xb2, 0xef, 0x3d, 0x4a, 0x30, 0x07, 0xbe, 
  0xf4, 0x50, 0xc6, 0xbe, 0xf4, 0xfb, 0xff, 0xff, 0xf8, 0xfb, 0xff, 0xff, 
  0x0f, 0x00, 0x00, 0x00, 0x4d, 0x4c, 0x49, 0x52, 0x20, 0x43, 0x6f, 0x6e, 
  0x76, 0x65, 0x72, 0x74, 0x65, 0x64, 0x2e, 0x00, 0x01, 0x00, 0x00, 0x00, 
  0x14, 0x00, 0x00, 0x00, 0x00, 0x00, 0x0e, 0x00, 0x18, 0x00, 0x14, 0x00, 
  0x10, 0x00, 0x0c, 0x00, 0x08, 0x00, 0x04, 0x00, 0x0e, 0x00, 0x00, 0x00, 
  0x14, 0x00, 0x00, 0x00, 0x1c, 0x00, 0x00, 0x00, 0xec, 0x00, 0x00, 0x00, 
  0xf0, 0x00, 0x00, 0x00, 0xf4, 0x00, 0x00, 0x00, 0x04, 0x00, 0x00, 0x00, 
  0x6d, 0x61, 0x69, 0x6e, 0x00, 0x00, 0x00, 0x00, 0x03, 0x00, 0x00, 0x00, 
  0x94, 0x00, 0x00, 0x00, 0x50, 0x00, 0x00, 0x00, 0x14, 0x00, 0x00, 0x00, 
  0x00, 0x00, 0x0e, 0x00, 0x1a, 0x00, 0x14, 0x00, 0x10, 0x00, 0x0c, 0x00, 
  0x0b, 0x00, 0x04, 0x00, 0x0e, 0x00, 0x00, 0x00, 0x1c, 0x00, 0x00, 0x00, 
  0x00, 0x00, 0x00, 0x09, 0x1c, 0x00, 0x00, 0x00, 0x20, 0x00, 0x00, 0x00, 
  0x01, 0x00, 0x00, 0x00, 0x00, 0x00, 0x06, 0x00, 0x08, 0x00, 0x04, 0x00, 
  0x06, 0x00, 0x00, 0x00, 0x00, 0x00, 0x80, 0x3f, 0x01, 0x00, 0x00, 0x00, 
  0x07, 0x00, 0x00, 0x00, 0x01, 0x00, 0x00, 0x00, 0x06, 0x00, 0x00, 0x00, 
  0xce, 0xff, 0xff, 0xff, 0x10, 0x00, 0x00, 0x00, 0x00, 0x00, 0x00, 0x08, 
  0x0c, 0x00, 0x00, 0x00, 0x10, 0x00, 0x00, 0x00, 0xb8, 0xfc, 0xff, 0xff, 
  0x01, 0x00, 0x00, 0x00, 0x06, 0x00, 0x00, 0x00, 0x03, 0x00, 0x00, 0x00, 
  0x05, 0x00, 0x00, 0x00, 0x04, 0x00, 0x00, 0x00, 0x02, 0x00, 0x00, 0x00, 
  0x00, 0x00, 0x0e, 0x00, 0x16, 0x00, 0x00, 0x00, 0x10, 0x00, 0x0c, 0x00, 
  0x0b, 0x00, 0x04, 0x00, 0x0e, 0x00, 0x00, 0x00, 0x18, 0x00, 0x00, 0x00, 
  0x00, 0x00, 0x00, 0x08, 0x18, 0x00, 0x00, 0x00, 0x1c, 0x00, 0x00, 0x00, 
  0x00, 0x00, 0x06, 0x00, 0x08, 0x00, 0x07, 0x00, 0x06, 0x00, 0x00, 0x00, 
  0x00, 0x00, 0x00, 0x01, 0x01, 0x00, 0x00, 0x00, 0x05, 0x00, 0x00, 0x00, 
  0x03, 0x00, 0x00, 0x00, 0x00, 0x00, 0x00, 0x00, 0x03, 0x00, 0x00, 0x00, 
  0x01, 0x00, 0x00, 0x00, 0x01, 0x00, 0x00, 0x00, 0x07, 0x00, 0x00, 0x00, 
  0x01, 0x00, 0x00, 0x00, 0x00, 0x00, 0x00, 0x00, 0x08, 0x00, 0x00, 0x00, 
  0xa8, 0x02, 0x00, 0x00, 0x44, 0x02, 0x00, 0x00, 0xe0, 0x01, 0x00, 0x00, 
  0x9c, 0x01, 0x00, 0x00, 0x54, 0x01, 0x00, 0x00, 0xd0, 0x00, 0x00, 0x00, 
  0x5c, 0x00, 0x00, 0x00, 0x04, 0x00, 0x00, 0x00, 0x8c, 0xfd, 0xff, 0xff, 
  0x14, 0x00, 0x00, 0x00, 0x1c, 0x00, 0x00, 0x00, 0x1c, 0x00, 0x00, 0x00, 
  0x08, 0x00, 0x00, 0x00, 0x34, 0x00, 0x00, 0x00, 0x02, 0x00, 0x00, 0x00, 
  0xff, 0xff, 0xff, 0xff, 0x06, 0x00, 0x00, 0x00, 0x78, 0xfd, 0xff, 0xff, 
  0x19, 0x00, 0x00, 0x00, 0x53, 0x74, 0x61, 0x74, 0x65, 0x66, 0x75, 0x6c, 
  0x50, 0x61, 0x72, 0x74, 0x69, 0x74, 0x69, 0x6f, 0x6e, 0x65, 0x64, 0x43, 
  0x61, 0x6c, 0x6c, 0x3a, 0x30, 0x00, 0x00, 0x00, 0x02, 0x00, 0x00, 0x00, 
  0x01, 0x00, 0x00, 0x00, 0x06, 0x00, 0x00, 0x00, 0xe0, 0xfd, 0xff, 0xff, 
  0x14, 0x00, 0x00, 0x00, 0x1c, 0x00, 0x00, 0x00, 0x1c, 0x00, 0x00, 0x00, 
  0x07, 0x00, 0x00, 0x00, 0x50, 0x00, 0x00, 0x00, 0x02, 0x00, 0x00, 0x00, 
  0xff, 0xff, 0xff, 0xff, 0x06, 0x00, 0x00, 0x00, 0xcc, 0xfd, 0xff, 0xff, 
  0x34, 0x00, 0x00, 0x00, 0x73, 0x65, 0x71, 0x75, 0x65, 0x6e, 0x74, 0x69, 
  0x61, 0x6c, 0x2f, 0x64, 0x65, 0x6e, 0x73, 0x65, 0x5f, 0x31, 0x2f, 0x4d, 
  0x61, 0x74, 0x4d, 0x75, 0x6c, 0x3b, 0x73, 0x65, 0x71, 0x75, 0x65, 0x6e, 
  0x74, 0x69, 0x61, 0x6c, 0x2f, 0x64, 0x65, 0x6e, 0x73, 0x65, 0x5f, 0x31, 
  0x2f, 0x42, 0x69, 0x61, 0x73, 0x41, 0x64, 0x64, 0x00, 0x00, 0x00, 0x00, 
  0x02, 0x00, 0x00, 0x00, 0x01, 0x00, 0x00, 0x00, 0x06, 0x00, 0x00, 0x00, 
  0x50, 0xfe, 0xff, 0xff, 0x14, 0x00, 0x00, 0x00, 0x1c, 0x00, 0x00, 0x00, 
  0x1c, 0x00, 0x00, 0x00, 0x06, 0x00, 0x00, 0x00, 0x60, 0x00, 0x00, 0x00, 
  0x02, 0x00, 0x00, 0x00, 0xff, 0xff, 0xff, 0xff, 0x1c, 0x00, 0x00, 0x00, 
  0x3c, 0xfe, 0xff, 0xff, 0x46, 0x00, 0x00, 0x00, 0x73, 0x65, 0x71, 0x75, 
  0x65, 0x6e, 0x74, 0x69, 0x61, 0x6c, 0x2f, 0x64, 0x65, 0x6e, 0x73, 0x65, 
  0x2f, 0x4d, 0x61, 0x74, 0x4d, 0x75, 0x6c, 0x3b, 0x73, 0x65, 0x71, 0x75, 
  0x65, 0x6e, 0x74, 0x69, 0x61, 0x6c, 0x2f, 0x64, 0x65, 0x6e, 0x73, 0x65, 
  0x2f, 0x52, 0x65, 0x6c, 0x75, 0x3b, 0x73, 0x65, 0x71, 0x75, 0x65, 0x6e, 
  0x74, 0x69, 0x61, 0x6c, 0x2f, 0x64, 0x65, 0x6e, 0x73, 0x65, 0x2f, 0x42, 
  0x69, 0x61, 0x73, 0x41, 0x64, 0x64, 0x00, 0x00, 0x02, 0x00, 0x00, 0x00, 
  0x01, 0x00, 0x00, 0x00, 0x1c, 0x00, 0x00, 0x00, 0x2a, 0xff, 0xff, 0xff, 
  0x10, 0x00, 0x00, 0x00, 0x10, 0x00, 0x00, 0x00, 0x05, 0x00, 0x00, 0x00, 
  0x28, 0x00, 0x00, 0x00, 0xac, 0xfe, 0xff, 0xff, 0x19, 0x00, 0x00, 0x00, 
  0x73, 0x65, 0x71, 0x75, 0x65, 0x6e, 0x74, 0x69, 0x61, 0x6c, 0x2f, 0x64, 
  0x65, 0x6e, 0x73, 0x65, 0x5f, 0x31, 0x2f, 0x4d, 0x61, 0x74, 0x4d, 0x75, 
  0x6c, 0x00, 0x00, 0x00, 0x02, 0x00, 0x00, 0x00, 0x06, 0x00, 0x00, 0x00, 
  0x1c, 0x00, 0x00, 0x00, 0x6e, 0xff, 0xff, 0xff, 0x10, 0x00, 0x00, 0x00, 
  0x10, 0x00, 0x00, 0x00, 0x04, 0x00, 0x00, 0x00, 0x24, 0x00, 0x00, 0x00, 
  0xf0, 0xfe, 0xff, 0xff, 0x17, 0x00, 0x00, 0x00, 0x73, 0x65, 0x71, 0x75, 
  0x65, 0x6e, 0x74, 0x69, 0x61, 0x6c, 0x2f, 0x64, 0x65, 0x6e, 0x73, 0x65, 
  0x2f, 0x4d, 0x61, 0x74, 0x4d, 0x75, 0x6c, 0x00, 0x02, 0x00, 0x00, 0x00, 
  0x1c, 0x00, 0x00, 0x00, 0x1c, 0x00, 0x00, 0x00, 0xae, 0xff, 0xff, 0xff, 
  0x10, 0x00, 0x00, 0x00, 0x10, 0x00, 0x00, 0x00, 0x03, 0x00, 0x00, 0x00, 
  0x38, 0x00, 0x00, 0x00, 0x30, 0xff, 0xff, 0xff, 0x29, 0x00, 0x00, 0x00, 
  0x73, 0x65, 0x71, 0x75, 0x65, 0x6e, 0x74, 0x69, 0x61, 0x6c, 0x2f, 0x64, 
  0x65, 0x6e, 0x73, 0x65, 0x5f, 0x31, 0x2f, 0x42, 0x69, 0x61, 0x73, 0x41, 
  0x64, 0x64, 0x2f, 0x52, 0x65, 0x61, 0x64, 0x56, 0x61, 0x72, 0x69, 0x61, 
  0x62, 0x6c, 0x65, 0x4f, 0x70, 0x00, 0x00, 0x00, 0x01, 0x00, 0x00, 0x00, 
  0x06, 0x00, 0x00, 0x00, 0x00, 0x00, 0x0e, 0x00, 0x14, 0x00, 0x10, 0x00, 
  0x00, 0x00, 0x0c, 0x00, 0x08, 0x00, 0x04, 0x00, 0x0e, 0x00, 0x00, 0x00, 
  0x10, 0x00, 0x00, 0x00, 0x10, 0x00, 0x00, 0x00, 0x02, 0x00, 0x00, 0x00, 
  0x34, 0x00, 0x00, 0x00, 0x90, 0xff, 0xff, 0xff, 0x27, 0x00, 0x00, 0x00, 
  0x73, 0x65, 0x71, 0x75, 0x65, 0x6e, 0x74, 0x69, 0x61, 0x6c, 0x2f, 0x64, 
  0x65, 0x6e, 0x73, 0x65, 0x2f, 0x42, 0x69, 0x61, 0x73, 0x41, 0x64, 0x64, 
  0x2f, 0x52, 0x65, 0x61, 0x64, 0x56, 0x61, 0x72, 0x69, 0x61, 0x62, 0x6c, 
  0x65, 0x4f, 0x70, 0x00, 0x01, 0x00, 0x00, 0x00, 0x1c, 0x00, 0x00, 0x00, 
  0x14, 0x00, 0x18, 0x00, 0x14, 0x00, 0x00, 0x00, 0x10, 0x00, 0x0c, 0x00, 
  0x08, 0x00, 0x00, 0x00, 0x00, 0x00, 0x04, 0x00, 0x14, 0x00, 0x00, 0x00, 
  0x14, 0x00, 0x00, 0x00, 0x20, 0x00, 0x00, 0x00, 0x20, 0x00, 0x00, 0x00, 
  0x01, 0x00, 0x00, 0x00, 0x38, 0x00, 0x00, 0x00, 0x02, 0x00, 0x00, 0x00, 
  0xff, 0xff, 0xff, 0xff, 0x1c, 0x00, 0x00, 0x00, 0x04, 0x00, 0x04, 0x00, 
  0x04, 0x00, 0x00, 0x00, 0x19, 0x00, 0x00, 0x00, 0x73, 0x65, 0x72, 0x76, 
  0x69, 0x6e, 0x67, 0x5f, 0x64, 0x65, 0x66, 0x61, 0x75, 0x6c, 0x74, 0x5f, 
  0x69, 0x6e, 0x70, 0x75, 0x74, 0x5f, 0x31, 0x3a, 0x30, 0x00, 0x00, 0x00, 
  0x02, 0x00, 0x00, 0x00, 0x01, 0x00, 0x00, 0x00, 0x1c, 0x00, 0x00, 0x00, 
  0x02, 0x00, 0x00, 0x00, 0x20, 0x00, 0x00, 0x00, 0x04, 0x00, 0x00, 0x00, 
  0xf4, 0xff, 0xff, 0xff, 0x19, 0x00, 0x00, 0x00, 0x00, 0x00, 0x00, 0x19, 
  0x0c, 0x00, 0x0c, 0x00, 0x0b, 0x00, 0x00, 0x00, 0x00, 0x00, 0x04, 0x00, 
  0x0c, 0x00, 0x00, 0x00, 0x09, 0x00, 0x00, 0x00, 0x00, 0x00, 0x00, 0x09, 
};
unsigned int tflite_model_len = 5580;

#define INPUT_TENSOR_SIZE 28
#define OUTPUT_TENSOR_SIZE 6

const float input_scale[] = {
  0.692582, 2.231693, 0.702220, 0.258938, 
  1.559882, 2.374101, 2.379522, 1.231006, 
  1.242539, 2.700350, 1.715937, 1.707398, 
  0.603913, 1.097814, 0.988188, 0.704666, 
  0.427562, 0.342492, 0.456117, 0.465718, 
  3.594610, 4.003855, 8.777803, 8.629785, 
  0.868463, 0.784147, 0.823736, 0.817208, 
};

const float input_offset[] = {
  -0.230114, 0.242098, 9.434460, 9.931700, 
  -1.625557, -1.384691, 7.967785, 8.626723, 
  0.915479, 1.994338, 11.068144, 11.415728, 
  0.666032, 1.001816, 0.748544, 0.630038, 
  3.363699, 3.418161, 3.377091, 3.360219, 
  2.081202, 2.153907, 5.912726, 6.070255, 
  2.020223, 2.084787, 2.241065, 2.261216, 
};
