unsigned char tflite_model[] = {
  0x1c, 0x00, 0x00, 0x00, 0x54, 0x46, 0x4c, 0x33, 0x14, 0x00, 0x20, 0x00, 
  0x1c, 0x00, 0x18, 0x00, 0x14, 0x00, 0x10, 0x00, 0x0c, 0x00, 0x00, 0x00, 
  0x08, 0x00, 0x04, 0x00, 0x14, 0x00, 0x00, 0x00, 0x1c, 0x00, 0x00, 0x00, 
  0x8c, 0x00, 0x00, 0x00, 0xe4, 0x00, 0x00, 0x00, 0x38, 0x11, 0x00, 0x00, 
  0x48, 0x11, 0x00, 0x00, 0x68, 0x15, 0x00, 0x00, 0x03, 0x00, 0x00, 0x00, 
  0x01, 0x00, 0x00, 0x00, 0x10, 0x00, 0x00, 0x00, 0x00, 0x00, 0x0a, 0x00, 
  0x10, 0x00, 0x0c, 0x00, 0x08, 0x00, 0x04, 0x00, 0x0a, 0x00, 0x00, 0x00, 
  0x0c, 0x00, 0x00, 0x00, 0x1c, 0x00, 0x00, 0x00, 0x38, 0x00, 0x00, 0x00, 
  0x0f, 0x00, 0x00, 0x00, 0x73, 0x65, 0x72, 0x76, 0x69, 0x6e, 0x67, 0x5f, 
  0x64, 0x65, 0x66, 0x61, 0x75, 0x6c, 0x74, 0x00, 0x01, 0x00, 0x00, 0x00, 
  0x04, 0x00, 0x00, 0x00, 0x9c, 0xff, 0xff, 0xff, 0x07, 0x00, 0x00, 0x00, 
  0x04, 0x00, 0x00, 0x00, 0x07, 0x00, 0x00, 0x00, 0x64, 0x65, 0x6e, 0x73, 
  0x65, 0x5f, 0x31, 0x00, 0x01, 0x00, 0x00, 0x00, 0x04, 0x00, 0x00, 0x00, 
  0xae, 0xee, 0xff, 0xff, 0x04, 0x00, 0x00, 0x00, 0x07, 0x00, 0x00, 0x00, 
  0x69, 0x6e, 0x70, 0x75, 0x74, 0x5f, 0x31, 0x00, 0x02, 0x00, 0x00, 0x00, 
  0x34, 0x00, 0x00, 0x00, 0x04, 0x00, 0x00, 0x00, 0xdc, 0xff, 0xff, 0xff, 
  0x0a, 0x00, 0x00, 0x00, 0x04, 0x00, 0x00, 0x00, 0x13, 0x00, 0x00, 0x00, 
  0x43, 0x4f, 0x4e, 0x56, 0x45, 0x52, 0x53, 0x49, 0x4f, 0x4e, 0x5f, 0x4d, 
  0x45, 0x54, 0x41, 0x44, 0x41, 0x54, 0x41, 0x00, 0x08, 0x00, 0x0c, 0x00, 
  0x08, 0x00, 0x04, 0x00, 0x08, 0x00, 0x00, 0x00, 0x09, 0x00, 0x00, 0x00, 
  0x04, 0x00, 0x00, 0x00, 0x13, 0x00, 0x00, 0x00, 0x6d, 0x69, 0x6e, 0x5f, 
  0x72, 0x75, 0x6e, 0x74, 0x69, 0x6d, 0x65, 0x5f, 0x76, 0x65, 0x72, 0x73, 
  0x69, 0x6f, 0x6e, 0x00, 0x0b, 0x00, 0x00, 0x00, 0x50, 0x10, 0x00, 0x00, 
  0x48, 0x10, 0x00, 0x00, 0xc8, 0x0f, 0x00, 0x00, 0xa0, 0x0f, 0x00, 0x00, 
  0x50, 0x03, 0x00, 0x00, 0xa0, 0x00, 0x00, 0x00, 0x98, 0x00, 0x00, 0x00, 
  0x90, 0x00, 0x00, 0x00, 0x88, 0x00, 0x00, 0x00, 0x68, 0x00, 0x00, 0x00, 
  0x04, 0x00, 0x00, 0x00, 0x4e, 0xef, 0xff, 0xff, 0x04, 0x00, 0x00, 0x00, 
  0x54, 0x00, 0x00, 0x00, 0x0c, 0x00, 0x00, 0x00, 0x08, 0x00, 0x0e, 0x00, 
  0x08, 0x00, 0x04, 0x00, 0x08, 0x00, 0x00, 0x00, 0x10, 0x00, 0x00, 0x00, 
  0x24, 0x00, 0x00, 0x00, 0x00, 0x00, 0x06, 0x00, 0x08, 0x00, 0x04, 0x00, 
  0x06, 0x00, 0x00, 0x00, 0x04, 0x00, 0x00, 0x00, 0x00, 0x00, 0x00, 0x00, 
  0x00, 0x00, 0x0a, 0x00, 0x10, 0x00, 0x0c, 0x00, 0x08, 0x00, 0x04, 0x00, 
  0x0a, 0x00, 0x00, 0x00, 0x02, 0x00, 0x00, 0x00, 0x02, 0x00, 0x00, 0x00, 
  0x04, 0x00, 0x00, 0x00, 0x05, 0x00, 0x00, 0x00, 0x32, 0x2e, 0x39, 0x2e, 
  0x31, 0x00, 0x00, 0x00, 0xae, 0xef, 0xff, 0xff, 0x04, 0x00, 0x00, 0x00, 
  0x10, 0x00, 0x00, 0x00, 0x31, 0x2e, 0x35, 0x2e, 0x30, 0x00, 0x00, 0x00, 
  0x00, 0x00, 0x00, 0x00, 0x00, 0x00, 0x00, 0x00, 0x50, 0xec, 0xff, 0xff, 
  0x54, 0xec, 0xff, 0xff, 0x58, 0xec, 0xff, 0xff, 0xd6, 0xef, 0xff, 0xff, 
  0x04, 0x00, 0x00, 0x00, 0xa0, 0x02, 0x00, 0x00, 0x46, 0x5d, 0xa9, 0xbf, 
  0xe1, 0x5b, 0x12, 0x3f, 0xb1, 0x58, 0x18, 0xbf, 0x44, 0x3f, 0xc0, 0xbf, 
  0x7f, 0xb9, 0xca, 0x3e, 0xf6, 0x98, 0xc6, 0x3e, 0x99, 0x77, 0x30, 0x3e, 
  0x1f, 0x17, 0xe6, 0xbe, 0x30, 0xd0, 0xa2, 0xbe, 0x97, 0x8c, 0x26, 0xbf, 
  0x9a, 0xfa, 0x8b, 0xbf, 0xb8, 0x07, 0x1f, 0x3f, 0x4b, 0xe3, 0xa2, 0xbe, 
  0xd1, 0xc3, 0x42, 0x3f, 0x7f, 0x00, 0x8d, 0x3e, 0xfb, 0xc8, 0x74, 0xbe, 
  0x68, 0xc8, 0x2c, 0xbf, 0x35, 0x06, 0x20, 0xbf, 0x30, 0x01, 0x5a, 0x3f, 
  0x8e, 0xf9, 0x18, 0x3f, 0xde, 0x42, 0xad, 0xbf, 0x51, 0x44, 0xa2, 0xbf, 
  0xcd, 0xf0, 0x1d, 0x3c, 0xed, 0xdd, 0xf9, 0xbe, 0x02, 0x06, 0x25, 0x3f, 
  0x57, 0xae, 0x56, 0x3d, 0x28, 0xac, 0xb8, 0x3e, 0x99, 0xdb, 0xc7, 0xbe, 
  0xb8, 0x1e, 0x3f, 0x3f, 0x5b, 0x5c, 0xb2, 0xbd, 0xfc, 0xf9, 0x46, 0xbf, 
  0x0c, 0xb4, 0xf9, 0x3d, 0xfd, 0x90, 0xb1, 0xbf, 0x7a, 0xe7, 0xce, 0xbf, 
  0x5e, 0x59, 0xad, 0xbd, 0x99, 0x03, 0x2e, 0xbe, 0x9c, 0xa2, 0xaf, 0xbe, 
  0xcb, 0xf1, 0x6e, 0x3f, 0xc3, 0xd8, 0x31, 0x3f, 0x4b, 0x0e, 0x5e, 0xbf, 
  0x2b, 0x66, 0x1f, 0xbe, 0xad, 0xdd, 0x51, 0xbf, 0x10, 0x60, 0xad, 0x3e, 
  0x86, 0x94, 0xf3, 0x3e, 0xae, 0x3a, 0xeb, 0x3e, 0xe3, 0x9f, 0x36, 0x3e, 
  0x4b, 0x3f, 0xeb, 0xbe, 0x0c, 0x07, 0x04, 0x3f, 0x38, 0xca, 0x67, 0xbf, 
  0xd7, 0xc6, 0xc8, 0x3e, 0xf6, 0x5b, 0x01, 0xbe, 0xce, 0x0c, 0x99, 0xbd, 
  0xd3, 0xb4, 0x05, 0xbe, 0x4b, 0x07, 0x01, 0xbf, 0x21, 0x85, 0x0f, 0xbf, 
  0xcd, 0xe1, 0x72, 0xbf, 0x5e, 0x58, 0xef, 0xbe, 0xd8, 0x9d, 0xba, 0xbf, 
  0x5a, 0xe3, 0x44, 0xbe, 0x2c, 0x2e, 0x9f, 0xbe, 0xab, 0xbe, 0x20, 0xbf, 
  0x3b, 0x8e, 0xb1, 0xbf, 0xe3, 0xd4, 0x05, 0x3f, 0xe6, 0x6f, 0x2c, 0xbf, 
  0x76, 0x7c, 0x5c, 0xbf, 0xfe, 0x53, 0xd6, 0xbe, 0xd0, 0x8e, 0xe5, 0x3e, 
  0xfc, 0x85, 0x3b, 0x3f, 0xb6, 0xf6, 0xf6, 0xbe, 0x91, 0x55, 0x05, 0xbf, 
  0xf0, 0x9f, 0x28, 0xbd, 0xa5, 0xde, 0x0d, 0xbe, 0xac, 0x44, 0x96, 0xbe, 
  0x3f, 0xb6, 0x25, 0x3f, 0xeb, 0xcb, 0x3f, 0x3f, 0xcc, 0xf2, 0x41, 0xbf, 
  0x04, 0xf8, 0x44, 0xbf, 0xdd, 0x7b, 0x4f, 0xbf, 0xc8, 0xf1, 0x22, 0x3d, 
  0xe5, 0x53, 0xc4, 0xbe, 0xb7, 0xf9, 0xb5, 0x3d, 0x70, 0x83, 0xb3, 0x3e, 
  0xb6, 0x09, 0x63, 0xbf, 0x51, 0x57, 0x78, 0x3e, 0xeb, 0x47, 0x99, 0xbf, 
  0x6e, 0x95, 0xf2, 0xbe, 0x7c, 0x17, 0x61, 0x3f, 0xbe, 0x64, 0xcc, 0x3e, 
  0x9c, 0xc7, 0xf9, 0x3e, 0x8d, 0x1a, 0x86, 0x3c, 0xab, 0x17, 0xe5, 0x3e, 
  0x75, 0xea, 0xb9, 0x3e, 0x49, 0x07, 0xf2, 0x3c, 0x41, 0xb4, 0x39, 0xbf, 
  0x1a, 0xe1, 0xef, 0x3d, 0x50, 0x6a, 0x81, 0x3e, 0x33, 0xd2, 0xdc, 0x3e, 
  0x0d, 0xb1, 0x3a, 0xbd, 0x2f, 0xc4, 0x55, 0xbf, 0x14, 0x77, 0x0e, 0x3f, 
  0x3c, 0x03, 0xba, 0xbf, 0x09, 0x0f, 0xd5, 0xbd, 0xad, 0xaa, 0xc1, 0x3e, 
  0xe2, 0x46, 0xa9, 0x3e, 0xf9, 0xe7, 0x2d, 0xbf, 0x93, 0xd0, 0xdb, 0x3e, 
  0xc9, 0x5b, 0xa0, 0xbe, 0x9b, 0x53, 0x85, 0x3d, 0xc1, 0x72, 0x9a, 0xbf, 
  0x36, 0x0f, 0x07, 0xbe, 0x48, 0x1c, 0x88, 0x3e, 0xd5, 0xd0, 0x93, 0xbe, 
  0xdc, 0x02, 0x25, 0x3f, 0x90, 0x8e, 0x14, 0x3f, 0xfd, 0xb9, 0x35, 0x3f, 
  0x50, 0x8c, 0xfa, 0x3e, 0x4b, 0x2a, 0x35, 0x3e, 0x7c, 0xce, 0xa1, 0x3d, 
  0xf8, 0x2e, 0x68, 0xbe, 0xbf, 0x2b, 0x16, 0x3f, 0xd4, 0x1b, 0x1d, 0x3f, 
  0x89, 0x6e, 0x3e, 0xbe, 0xe2, 0xbc, 0xb6, 0xbf, 0xa3, 0xb0, 0x94, 0xbf, 
  0x61, 0x68, 0x52, 0xbe, 0x53, 0xd1, 0x00, 0x3e, 0xc0, 0x11, 0x28, 0x3f, 
  0x10, 0x7a, 0xb4, 0xbf, 0xee, 0xad, 0x93, 0x3e, 0x78, 0x72, 0xcb, 0xbf, 
  0x9f, 0xc3, 0x62, 0xbf, 0x83, 0x9f, 0x63, 0xbe, 0x2c, 0x78, 0x1c, 0x3f, 
  0xe8, 0x60, 0x62, 0xbd, 0xaf, 0x5c, 0x42, 0x3f, 0xc7, 0x0e, 0x2a, 0x3f, 
  0xe2, 0x6b, 0x31, 0x3f, 0xde, 0x1d, 0x5a, 0xbf, 0x83, 0x99, 0x1d, 0xbf, 
  0xd2, 0xd4, 0x1b, 0xbf, 0x27, 0x0b, 0xae, 0x3d, 0x21, 0x47, 0xaf, 0xbf, 
  0xdd, 0x14, 0x19, 0x3e, 0xd1, 0x75, 0x03, 0x3f, 0x23, 0xf8, 0x4b, 0xbe, 
  0x19, 0xaa, 0x2c, 0x3e, 0xcd, 0x98, 0xa1, 0xbf, 0x41, 0x3b, 0x12, 0xbf, 
  0x1a, 0x9b, 0xf5, 0xbe, 0xa7, 0x51, 0xd3, 0x3d, 0xf1, 0x2c, 0x65, 0xbf, 
  0x47, 0x24, 0x25, 0x3e, 0x1a, 0x56, 0xd3, 0x3e, 0xd0, 0x03, 0x3d, 0xbe, 
  0x3e, 0x41, 0x92, 0xbe, 0xac, 0x82, 0xe2, 0x3d, 0x8a, 0x27, 0x30, 0x3e, 
  0xd2, 0xba, 0x7f, 0x3e, 0x22, 0x0b, 0x24, 0x3f, 0x37, 0xe2, 0xad, 0xbf, 
  0x40, 0x97, 0x05, 0x3f, 0x79, 0xc6, 0x90, 0x3e, 0x41, 0xa6, 0xc2, 0xbe, 
  0x6e, 0x93, 0xb8, 0xbe, 0xdd, 0xc9, 0x45, 0xbf, 0xa8, 0xe3, 0xef, 0xbe, 
  0x90, 0x8a, 0x2f, 0x3f, 0x28, 0x88, 0x0f, 0x3f, 0x82, 0xf2, 0xff, 0xff, 
  0x04, 0x00, 0x00, 0x00, 0x40, 0x0c, 0x00, 0x00, 0xbd, 0x86, 0xca, 0xbf, 
  0x8a, 0xa0, 0xdc, 0x3f, 0x9e, 0x35, 0x29, 0xbf, 0x0b, 0x39, 0x84, 0xbe, 
  0x1c, 0x29, 0x57, 0x3c, 0x46, 0x77, 0xa4, 0xbe, 0x09, 0xa4, 0x53, 0x3f, 
  0x7b, 0x5b, 0xd5, 0xbd, 0xe9, 0xbb, 0xe0, 0x3d, 0x4c, 0xeb, 0x06, 0xbf, 
  0xf1, 0x0b, 0xa7, 0x3f, 0xad, 0x42, 0x9d, 0xbf, 0xff, 0x41, 0x83, 0xbe, 
  0xa5, 0xd7, 0x1d, 0x3e, 0xaa, 0xcc, 0xb8, 0x3e, 0x06, 0x14, 0xb7, 0x3e, 
  0x6e, 0x04, 0x27, 0xbd, 0x17, 0x48, 0xb5, 0x3c, 0x4f, 0x55, 0xba, 0x3e, 
  0xfe, 0x72, 0x0a, 0x3f, 0x27, 0x10, 0x16, 0x3f, 0x2b, 0x1c, 0x81, 0xbe, 
  0xa6, 0x65, 0xa6, 0xbd, 0x19, 0x78, 0xa7, 0x3c, 0x31, 0x75, 0xc8, 0x3d, 
  0x1d, 0xd8, 0x76, 0xbe, 0x38, 0x6b, 0xc4, 0xbd, 0xb4, 0x2b, 0x6a, 0x3e, 
  0x16, 0xeb, 0x94, 0xbf, 0xf9, 0x07, 0x52, 0xbf, 0x3c, 0x65, 0xbe, 0xbf, 
  0xf2, 0x2e, 0x4e, 0xbe, 0xee, 0x68, 0x10, 0x3d, 0xae, 0x04, 0xe4, 0x3d, 
  0x88, 0x4b, 0xa0, 0x3e, 0x9b, 0x27, 0xfe, 0x3d, 0x00, 0x65, 0x5d, 0x3f, 
  0x9e, 0xd8, 0x8f, 0x3d, 0x06, 0x3f, 0xb4, 0x3e, 0x07, 0xde, 0xbd, 0xbe, 
  0x83, 0x89, 0xda, 0xbe, 0xc7, 0x96, 0x87, 0xbe, 0x6e, 0x37, 0x38, 0xbf, 
  0x00, 0x93, 0x82, 0xbe, 0x41, 0xad, 0xa5, 0xbe, 0xd8, 0x4f, 0x69, 0xbe, 
  0xcf, 0xb2, 0xcb, 0xbe, 0x23, 0xa9, 0x95, 0x3e, 0x0c, 0x18, 0x64, 0x3e, 
  0x80, 0x35, 0xc4, 0xbd, 0x00, 0x86, 0x58, 0xbd, 0xaa, 0x54, 0x83, 0xbf, 
  0xf6, 0xf1, 0x3b, 0x3f, 0x50, 0xb7, 0x10, 0x3d, 0x0b, 0xbd, 0xe4, 0x3e, 
  0x8c, 0xff, 0x08, 0x3e, 0x7a, 0xdb, 0x53, 0xbf, 0x43, 0xe5, 0x13, 0xbe, 
  0x63, 0x13, 0x8d, 0x3f, 0x9d, 0x75, 0x1c, 0xbf, 0xee, 0x49, 0x02, 0xbd, 
  0xc9, 0xdb, 0x99, 0x3f, 0x5a, 0x33, 0x21, 0xbe, 0xde, 0x4c, 0x10, 0xbd, 
  0x9b, 0x17, 0x12, 0x3f, 0x0a, 0x43, 0x3c, 0x3f, 0x7c, 0xb8, 0x75, 0x3e, 
  0x3f, 0x0c, 0xa3, 0xbd, 0x19, 0x1f, 0xb8, 0x3e, 0xfb, 0xce, 0x10, 0xbe, 
  0xbb, 0x09, 0xd4, 0x3e, 0x7d, 0xc8, 0xd3, 0xbc, 0x2e, 0x84, 0xcf, 0x3e, 
  0xa7, 0x95, 0x9d, 0xbf, 0x86, 0x95, 0x52, 0x3f, 0x7f, 0xcf, 0xf4, 0xbc, 
  0x87, 0xab, 0x08, 0xbf, 0x70, 0x2e, 0x19, 0x3f, 0xbf, 0xff, 0xc7, 0xbe, 
  0x5c, 0xf5, 0xb5, 0xbd, 0xd4, 0x59, 0x9c, 0xbe, 0x45, 0x68, 0x21, 0xbd, 
  0x1c, 0xe6, 0xe9, 0xbe, 0xe5, 0xed, 0xa1, 0x3e, 0x67, 0x46, 0xf1, 0xbe, 
  0x1f, 0x64, 0x2f, 0x3f, 0x6e, 0xbe, 0xb3, 0x3f, 0x0d, 0x68, 0xa0, 0xbe, 
  0xee, 0x6f, 0xdd, 0xbe, 0xf9, 0xe6, 0x9c, 0x3f, 0xa6, 0x19, 0x40, 0x3e, 
  0x40, 0xd4, 0xbc, 0xb9, 0xd0, 0xab, 0x7b, 0x3e, 0xd4, 0x63, 0x73, 0xbe, 
  0xdb, 0x22, 0xec, 0x3e, 0x52, 0x7f, 0xd4, 0xbd, 0x70, 0x81, 0x23, 0x3e, 
  0xae, 0x51, 0x32, 0xbf, 0x87, 0x82, 0x84, 0x3d, 0xe9, 0x25, 0x20, 0xbe, 
  0x10, 0xc9, 0x90, 0xbd, 0xdd, 0x4b, 0x9b, 0x3e, 0xd1, 0xfa, 0x92, 0x3e, 
  0x94, 0x3a, 0x5b, 0xbe, 0x09, 0x9e, 0x8c, 0x3e, 0xf5, 0xc6, 0x4a, 0xbd, 
  0x2b, 0x62, 0x36, 0xbf, 0x1b, 0x86, 0x25, 0xbf, 0xb4, 0xd6, 0xa4, 0xbe, 
  0x6a, 0x13, 0xee, 0x3e, 0x1e, 0x02, 0x8e, 0xbd, 0xd4, 0x2f, 0x80, 0xbe, 
  0x52, 0x5e, 0x1f, 0xbf, 0xbd, 0x59, 0xba, 0xbf, 0x9e, 0x44, 0x88, 0xbd, 
  0x62, 0xfc, 0x5a, 0xbe, 0x95, 0x09, 0x2a, 0x3e, 0x0e, 0xf5, 0x43, 0xbd, 
  0xc9, 0xb1, 0x28, 0xbd, 0x6f, 0xb2, 0x98, 0xbe, 0xda, 0xbe, 0x8a, 0xbf, 
  0xc3, 0xa6, 0x05, 0xbf, 0x45, 0x53, 0xfd, 0x3d, 0x95, 0xa6, 0xa7, 0x3d, 
  0x02, 0x09, 0xe3, 0xbe, 0x42, 0xe7, 0x73, 0xbe, 0x3a, 0xf3, 0x74, 0xbe, 
  0xd1, 0x90, 0x9b, 0xbc, 0x5f, 0x29, 0xca, 0xbc, 0x42, 0x90, 0x1c, 0xbb, 
  0xad, 0x2b, 0x62, 0x3e, 0x7b, 0xb8, 0x09, 0xbe, 0x13, 0x3c, 0x30, 0x3e, 
  0x86, 0x2f, 0x15, 0xbd, 0x6b, 0x00, 0x73, 0xbf, 0x7d, 0x71, 0x90, 0xbf, 
  0x4a, 0xa1, 0x2c, 0x3f, 0xeb, 0x2b, 0x31, 0x3f, 0xa2, 0x86, 0xd4, 0x3d, 
  0x8f, 0x7a, 0x20, 0xbf, 0x5f, 0x2c, 0x1d, 0xbd, 0x4d, 0xdb, 0x0b, 0xc0, 
  0xf3, 0x0f, 0x2a, 0x3f, 0xe2, 0x4a, 0x16, 0xbf, 0xb4, 0x8f, 0x85, 0xbe, 
  0xb6, 0xa5, 0x26, 0x3f, 0xdd, 0x4e, 0xac, 0xbe, 0x0e, 0x3b, 0x76, 0xbc, 
  0xab, 0xfd, 0xa9, 0x3e, 0x3b, 0x46, 0x3e, 0x3f, 0xa3, 0x59, 0x23, 0x3e, 
  0x2f, 0x17, 0x90, 0xbe, 0x5e, 0x99, 0xd1, 0x3d, 0xaa, 0x3b, 0x62, 0xbe, 
  0xce, 0xb1, 0x17, 0x3d, 0x83, 0x9c, 0xdc, 0xbe, 0xce, 0x41, 0x02, 0xbe, 
  0x54, 0x1a, 0xd2, 0x3e, 0xa9, 0x60, 0xf2, 0xbc, 0x84, 0x35, 0x35, 0x3e, 
  0x21, 0x80, 0x1a, 0x3e, 0xc1, 0xdc, 0x05, 0xbf, 0xba, 0x2c, 0x4d, 0xbf, 
  0x5f, 0x37, 0x77, 0xbf, 0x2f, 0xb6, 0x05, 0x3e, 0xcb, 0xd2, 0xab, 0xbd, 
  0xe7, 0x74, 0x8c, 0xbe, 0xbe, 0xc4, 0x01, 0xbf, 0xfc, 0x4d, 0xbe, 0xbf, 
  0xaa, 0xa7, 0x06, 0xbe, 0x08, 0xbf, 0x2b, 0x3d, 0xea, 0x3c, 0xe0, 0xbe, 
  0x5e, 0xb8, 0x00, 0x3f, 0xaf, 0xc1, 0x0a, 0xbe, 0x96, 0x83, 0xfa, 0x3e, 
  0x96, 0xe6, 0x4f, 0x3f, 0x05, 0xad, 0xc5, 0xbe, 0x42, 0x98, 0xf0, 0xbe, 
  0xfe, 0x20, 0x90, 0x3c, 0x82, 0x77, 0x80, 0xbe, 0xfc, 0x90, 0x0c, 0xbe, 
  0xad, 0x19, 0xf8, 0xbd, 0xd1, 0x87, 0xab, 0xbe, 0xcf, 0x5a, 0x8a, 0x3d, 
  0x1a, 0x40, 0x8b, 0xbe, 0xa1, 0xff, 0x57, 0x3e, 0x02, 0x69, 0xf9, 0xbe, 
  0x0e, 0xd1, 0xc6, 0xbe, 0x3b, 0xc8, 0x82, 0x3e, 0x16, 0xda, 0x12, 0xbf, 
  0x32, 0x2f, 0x71, 0x3f, 0xbb, 0x59, 0x5f, 0x3f, 0x87, 0x5a, 0xfe, 0x3e, 
  0xf7, 0x13, 0xbd, 0x3f, 0x18, 0x61, 0x82, 0x3e, 0x7e, 0x3b, 0x87, 0xbe, 
  0x4a, 0x31, 0x89, 0xbd, 0x4e, 0xfd, 0xbd, 0x3e, 0x7b, 0xae, 0xb2, 0x3e, 
  0x18, 0x74, 0x04, 0xbe, 0x50, 0xe6, 0x05, 0x3f, 0x58, 0x1a, 0xb2, 0xbf, 
  0x02, 0x12, 0x19, 0x3f, 0x57, 0x28, 0xd8, 0x3e, 0xb5, 0x8a, 0xed, 0x3e, 
  0x1a, 0x36, 0x1c, 0x3f, 0xfa, 0x14, 0xda, 0xbe, 0x21, 0x88, 0xff, 0xbe, 
  0xd1, 0x94, 0x9d, 0x3e, 0xb0, 0x21, 0x95, 0xbe, 0x26, 0x8f, 0x7b, 0x3e, 
  0xdc, 0x3e, 0x9a, 0x3f, 0xb9, 0x0a, 0xb1, 0x3d, 0x5a, 0x0b, 0x33, 0xbe, 
  0x3a, 0x44, 0xb8, 0x3c, 0x51, 0xea, 0x31, 0xbd, 0x5b, 0x14, 0x76, 0x3d, 
  0x5b, 0x46, 0x51, 0x3f, 0x25, 0x49, 0x4f, 0xbd, 0x2e, 0xe7, 0x13, 0xbf, 
  0x52, 0x6e, 0x20, 0xbf, 0xe6, 0xc3, 0x7c, 0x3e, 0xc0, 0xa4, 0x1b, 0xbf, 
  0xf9, 0xb9, 0xf6, 0xbe, 0x59, 0x57, 0x15, 0x3e, 0xf3, 0x88, 0x62, 0x3e, 
  0x49, 0x63, 0x71, 0xbd, 0xcf, 0xb4, 0xcb, 0xbe, 0xaa, 0x90, 0x7e, 0x3d, 
  0x65, 0xc7, 0x09, 0x3e, 0x80, 0x0e, 0xcc, 0x3e, 0x3a, 0xb1, 0x01, 0x3e, 
  0x54, 0x86, 0x70, 0x3e, 0xa5, 0x28, 0x1f, 0x3f, 0x4c, 0x0e, 0x23, 0x3d, 
  0xa4, 0xba, 0x3e, 0xbe, 0x7c, 0x12, 0x45, 0x3e, 0xad, 0x0c, 0x87, 0x3e, 
  0x99, 0xdf, 0x36, 0x3e, 0xc9, 0xeb, 0x9f, 0x3f, 0x50, 0xd5, 0xbb, 0x3e, 
  0x7b, 0x7e, 0x1d, 0xbf, 0xb2, 0x06, 0x20, 0x3e, 0xd9, 0xeb, 0x03, 0xbf, 
  0x0c, 0x8f, 0x81, 0x3d, 0xb1, 0x51, 0xdb, 0xbc, 0x05, 0x49, 0x46, 0x3f, 
  0x72, 0x7e, 0x49, 0x3e, 0x83, 0x0a, 0x6c, 0xbf, 0x2c, 0x67, 0x7a, 0x3e, 
  0x86, 0xb7, 0xa3, 0xbe, 0x97, 0x76, 0x12, 0xbf, 0xb8, 0xa4, 0xc6, 0x3e, 
  0x6b, 0x52, 0xfe, 0x3f, 0xb9, 0xba, 0x55, 0xbf, 0x80, 0x1d, 0x59, 0x3e, 
  0x1c, 0x90, 0x4c, 0xbd, 0x8e, 0xfc, 0x89, 0xbe, 0x61, 0xec, 0x99, 0xbc, 
  0xee, 0xe7, 0xed, 0x3d, 0x21, 0x51, 0xba, 0xbe, 0x0e, 0x74, 0xe6, 0xbe, 
  0xfd, 0x10, 0x51, 0x3f, 0x23, 0xcd, 0x47, 0x3f, 0xdf, 0xb1, 0x01, 0xbe, 
  0xf8, 0xb3, 0x60, 0xbe, 0x03, 0xb3, 0xb0, 0xbe, 0x4c, 0x05, 0x25, 0xbe, 
  0x53, 0x09, 0x39, 0x3e, 0x2c, 0x29, 0xb5, 0x3e, 0x67, 0xde, 0x1b, 0xbf, 
  0xca, 0xfa, 0x80, 0x3e, 0x49, 0x5a, 0x51, 0xbd, 0xd8, 0xc2, 0xda, 0xbc, 
  0x19, 0x55, 0xe4, 0xbd, 0xb0, 0x4b, 0x82, 0x3e, 0x0f, 0x6c, 0xd5, 0x3e, 
  0x06, 0x24, 0x0f, 0xbf, 0x9f, 0x4e, 0x79, 0x3e, 0x7d, 0xcd, 0xdd, 0xbd, 
  0x4e, 0x86, 0x54, 0xbe, 0x78, 0x51, 0xa0, 0x3f, 0xeb, 0x2f, 0x73, 0xbf, 
  0x32, 0x11, 0x54, 0xbf, 0xc2, 0x9f, 0x02, 0x3f, 0x6e, 0x93, 0x80, 0xbe, 
  0xcc, 0x93, 0xeb, 0xbd, 0x3b, 0xb2, 0x99, 0x3d, 0x8a, 0x1f, 0xd4, 0x3e, 
  0xbc, 0x19, 0x87, 0xbe, 0xb5, 0x01, 0xd8, 0xbe, 0x6d, 0x15, 0x0d, 0x3f, 
  0xc1, 0xe1, 0x6c, 0xbf, 0x22, 0xe8, 0xe7, 0xbd, 0x72, 0xbb, 0x90, 0xbe, 
  0x84, 0x96, 0xda, 0x3d, 0xb8, 0x0a, 0xb6, 0x3e, 0x7c, 0xa9, 0x84, 0xbe, 
  0x57, 0x95, 0x07, 0x3e, 0xc8, 0xc3, 0x4e, 0xbf, 0xe0, 0x27, 0x44, 0xbe, 
  0xf9, 0xc8, 0x22, 0xbe, 0xc3, 0x57, 0x64, 0x3e, 0xaa, 0x77, 0x8c, 0x3f, 
  0xba, 0xda, 0x89, 0x3f, 0xb1, 0x39, 0x17, 0xbe, 0xf1, 0x86, 0x04, 0x3f, 
  0x03, 0x2f, 0x0b, 0x3e, 0x45, 0x9c, 0xd0, 0xbe, 0xcd, 0x8e, 0x60, 0xbf, 
  0x2d, 0xaf, 0xff, 0x3e, 0xee, 0xc8, 0x52, 0x3f, 0x0a, 0xc1, 0x91, 0xbe, 
  0x74, 0xd8, 0x77, 0xbd, 0x61, 0x17, 0x7b, 0x3e, 0xd6, 0xcd, 0xbc, 0x3e, 
  0xbe, 0xd2, 0xac, 0x3e, 0xb0, 0x8e, 0xea, 0xbe, 0x7f, 0x87, 0x40, 0x3e, 
  0x59, 0x24, 0x01, 0x3e, 0xc8, 0x72, 0xa0, 0x3d, 0x2a, 0xaa, 0x23, 0xbe, 
  0x40, 0x69, 0x54, 0xbe, 0x88, 0xf4, 0x09, 0x3d, 0x8c, 0x1e, 0x81, 0x3e, 
  0x43, 0xfc, 0x4c, 0xbe, 0x79, 0x42, 0x9a, 0x3d, 0x67, 0xcb, 0x1e, 0xbe, 
  0xae, 0x8c, 0x4c, 0xbe, 0x25, 0xf5, 0x6c, 0x3e, 0x47, 0xf5, 0x44, 0x3f, 
  0x7f, 0xf5, 0x4b, 0x3f, 0x03, 0xe9, 0x81, 0x3f, 0x00, 0x68, 0x9b, 0x3f, 
  0xa9, 0xdd, 0x8f, 0x3e, 0x3f, 0x82, 0x7f, 0x3e, 0x9f, 0xff, 0x1d, 0x3f, 
  0x5a, 0x9c, 0xc0, 0x3b, 0xf7, 0x6b, 0x69, 0x3f, 0x4e, 0x49, 0x8f, 0xbe, 
  0xf8, 0x9c, 0xe9, 0x3e, 0x2a, 0x2b, 0x6a, 0x3f, 0x60, 0x45, 0xad, 0xbe, 
  0xe6, 0x06, 0x8b, 0xbe, 0xd6, 0xaa, 0xcf, 0x3e, 0xc5, 0xc7, 0x4b, 0xbd, 
  0xfe, 0xf5, 0xd9, 0x3e, 0x3e, 0x4b, 0x78, 0x3e, 0x63, 0x78, 0x64, 0xbe, 
  0xe7, 0x49, 0xb2, 0xbe, 0x41, 0x8b, 0x05, 0x3e, 0x30, 0x3c, 0x41, 0xbf, 
  0x2a, 0x67, 0x41, 0x3d, 0x8e, 0x40, 0xa4, 0xbd, 0x04, 0x37, 0x34, 0xbe, 
  0xff, 0xc8, 0xff, 0x3e, 0x2c, 0x1c, 0xb8, 0x3e, 0x02, 0x7d, 0x9d, 0xbe, 
  0x17, 0x80, 0xb0, 0xbe, 0xfc, 0x05, 0xe8, 0xbe, 0xb3, 0xdd, 0x98, 0x3e, 
  0x22, 0xa6, 0x88, 0xbd, 0x85, 0x8b, 0x12, 0xbf, 0x2d, 0x3e, 0xb9, 0x3e, 
  0x0a, 0x22, 0xf2, 0xbe, 0x0a, 0x43, 0x77, 0xbf, 0x41, 0x83, 0xa8, 0x3e, 
  0x90, 0x6c, 0x57, 0x3c, 0x0b, 0xfe, 0xd9, 0xbd, 0x9d, 0xcc, 0xd2, 0x3e, 
  0xeb, 0x97, 0x02, 0x3f, 0x49, 0x4f, 0x93, 0xbe, 0x23, 0x6b, 0xc2, 0x3e, 
  0xa7, 0xeb, 0x3f, 0x3f, 0x19, 0xb0, 0x65, 0xbe, 0x22, 0x19, 0xff, 0xbe, 
  0x16, 0xb8, 0x10, 0x3d, 0xcc, 0xbc, 0xc4, 0x3e, 0x8a, 0xf5, 0x8b, 0x3e, 
  0x6c, 0xb6, 0xe6, 0x3e, 0xf6, 0xf8, 0x2a, 0x3e, 0xef, 0xb6, 0x82, 0xbe, 
  0x33, 0xaf, 0x06, 0x3f, 0x8e, 0x75, 0xb4, 0xbd, 0xce, 0x06, 0xc4, 0x3e, 
  0x9b, 0xce, 0x52, 0xbe, 0xc8, 0xb0, 0x1f, 0xbe, 0xcc, 0xd8, 0x95, 0xbc, 
  0xf1, 0x6e, 0xb3, 0xbe, 0x17, 0xfa, 0x75, 0xbe, 0x02, 0x19, 0xef, 0xbd, 
  0x3e, 0x6c, 0xf6, 0xbe, 0x79, 0xfd, 0xa1, 0xbf, 0x30, 0x12, 0xa4, 0xbd, 
  0x9f, 0x40, 0xc1, 0x3d, 0xe0, 0xd0, 0x27, 0x3f, 0x77, 0xd6, 0x18, 0x3e, 
  0x18, 0xb7, 0x19, 0xbf, 0xbc, 0xdf, 0x36, 0x3f, 0x68, 0x0e, 0xd8, 0xbe, 
  0x56, 0x94, 0x25, 0x3e, 0xbf, 0x30, 0xaf, 0xbd, 0x18, 0x34, 0x00, 0x3f, 
  0x1d, 0xc5, 0x94, 0xbe, 0x9c, 0xe5, 0x20, 0xbf, 0x1d, 0xec, 0x1d, 0x3f, 
  0x49, 0x77, 0x08, 0x3f, 0x52, 0xb6, 0x33, 0x3f, 0x14, 0x83, 0xc6, 0x3d, 
  0xc6, 0x5e, 0x07, 0x3f, 0xb0, 0x80, 0x4b, 0x3e, 0xa5, 0x8f, 0xba, 0x3e, 
  0x69, 0x82, 0xc1, 0x3e, 0x03, 0x67, 0x19, 0xbf, 0x07, 0x31, 0x79, 0x3e, 
  0xa6, 0x89, 0xae, 0xbe, 0x88, 0xa5, 0xad, 0xbd, 0x74, 0xeb, 0x7f, 0xbe, 
  0xb9, 0xf5, 0x89, 0xbf, 0x67, 0xb0, 0x03, 0xbf, 0x7b, 0x8d, 0x64, 0x3d, 
  0x9a, 0x1b, 0x47, 0x3f, 0xcd, 0x95, 0x7e, 0xbe, 0xd7, 0xa8, 0x8a, 0xbd, 
  0x7a, 0x00, 0x92, 0x3e, 0x93, 0x52, 0x87, 0x3f, 0x03, 0xaf, 0xcb, 0x3e, 
  0xd2, 0x74, 0x01, 0x3f, 0xb8, 0xf5, 0x8f, 0xbf, 0xc3, 0x60, 0xee, 0xbe, 
  0x49, 0xc7, 0xad, 0x3e, 0xd8, 0xf7, 0x4c, 0x3f, 0x27, 0x98, 0xca, 0xbe, 
  0x43, 0x6e, 0x86, 0xbf, 0xa3, 0x68, 0x9d, 0xbe, 0x72, 0x54, 0x63, 0x3d, 
  0xb4, 0xc2, 0x04, 0xbe, 0xb5, 0x97, 0x6b, 0xbe, 0xc1, 0x7b, 0x38, 0x3e, 
  0x84, 0x05, 0x0f, 0xbf, 0x1c, 0xd8, 0x00, 0x3f, 0x32, 0xce, 0xa6, 0x3e, 
  0x41, 0x0b, 0x49, 0x3c, 0x96, 0x19, 0x97, 0xbe, 0x89, 0xe1, 0x02, 0xbe, 
  0xf4, 0xa1, 0x0e, 0x3f, 0xe1, 0x13, 0x90, 0xbe, 0x3c, 0x5e, 0x9a, 0xbe, 
  0xe0, 0x70, 0xa8, 0x3f, 0x6d, 0xfd, 0x0d, 0x40, 0xa9, 0x47, 0x16, 0xbf, 
  0x85, 0xb5, 0x21, 0xbf, 0x10, 0xe7, 0x17, 0xbf, 0x53, 0xf0, 0x36, 0x3f, 
  0x10, 0xae, 0x4d, 0xbe, 0xeb, 0xad, 0x18, 0x3f, 0x05, 0x1e, 0xa5, 0xbc, 
  0x1f, 0x47, 0x36, 0xbf, 0x3e, 0xa4, 0x16, 0x3e, 0x42, 0x3e, 0xcc, 0xbe, 
  0x32, 0x76, 0xdb, 0x3d, 0xff, 0x5f, 0xd6, 0xbe, 0xfd, 0x91, 0x6a, 0x3e, 
  0x0b, 0x9c, 0x20, 0x3e, 0xb2, 0x58, 0x3d, 0x3c, 0x4e, 0xb8, 0x1e, 0xbe, 
  0x68, 0x4a, 0x49, 0xbf, 0xa9, 0xce, 0x23, 0xbe, 0x69, 0x57, 0x9b, 0xbe, 
  0x27, 0x45, 0xbd, 0xbc, 0x88, 0x45, 0xfe, 0x3d, 0x9d, 0x42, 0xc9, 0x3e, 
  0x54, 0xdc, 0x19, 0xbe, 0x57, 0xc9, 0x20, 0x3e, 0x39, 0xea, 0x62, 0xbe, 
  0xbf, 0xe4, 0x17, 0x3e, 0x04, 0xe8, 0x23, 0x3f, 0x1a, 0x2f, 0x81, 0x3f, 
  0xd7, 0x10, 0x00, 0x3f, 0x18, 0x4e, 0x23, 0xbf, 0x55, 0xc2, 0x80, 0xbf, 
  0x9d, 0xb2, 0x09, 0xbf, 0x02, 0xd3, 0x1d, 0xbf, 0xc3, 0xc5, 0x52, 0xbe, 
  0x7c, 0x2e, 0xef, 0x3e, 0x24, 0x0b, 0x3a, 0x3e, 0x72, 0xca, 0x7d, 0xbd, 
  0xb7, 0xbc, 0x18, 0x3f, 0xf1, 0x62, 0x2e, 0x3f, 0xcc, 0x4c, 0x8d, 0xbe, 
  0x05, 0xe6, 0xd5, 0xbe, 0x3b, 0xd6, 0x94, 0xbe, 0xe1, 0xd2, 0xb1, 0xbe, 
  0x1e, 0x76, 0xb1, 0x3d, 0xb0, 0xc1, 0xbb, 0xbe, 0x26, 0x35, 0xf0, 0x3d, 
  0xfd, 0x5b, 0x98, 0x3e, 0x4a, 0x5c, 0xa5, 0x3e, 0x42, 0xe4, 0x2f, 0x3f, 
  0x3e, 0xbd, 0x60, 0x3f, 0x8a, 0x09, 0x88, 0x3f, 0x38, 0x3e, 0x21, 0xbe, 
  0x3c, 0x7e, 0x11, 0x3f, 0x20, 0x54, 0xf2, 0x3e, 0x0d, 0x4d, 0x83, 0x3e, 
  0x12, 0x32, 0x8d, 0xbf, 0xb5, 0xb9, 0x19, 0xbd, 0xda, 0x70, 0xcc, 0xbe, 
  0x71, 0x89, 0xfe, 0x3e, 0x60, 0x1f, 0x4b, 0x3f, 0x9f, 0x60, 0x9d, 0x3e, 
  0xc9, 0xce, 0x8f, 0xbe, 0x6d, 0x92, 0x86, 0xbd, 0x08, 0x43, 0x76, 0xbf, 
  0xc9, 0x76, 0x91, 0x3f, 0x02, 0xa8, 0x63, 0x3f, 0xd0, 0xd3, 0x5c, 0xbc, 
  0x0f, 0xe2, 0x19, 0xbe, 0x0a, 0x92, 0xdd, 0xbe, 0x7e, 0x17, 0x1a, 0xbf, 
  0x98, 0xf8, 0x2b, 0xbf, 0xf9, 0xec, 0xcb, 0xbe, 0x28, 0xb4, 0xf6, 0xbe, 
  0xc2, 0x40, 0xed, 0xbe, 0x4c, 0x6c, 0xe7, 0x3d, 0xd0, 0xde, 0xcb, 0x3e, 
  0xc0, 0xbc, 0x51, 0x3f, 0xce, 0x28, 0x34, 0x3f, 0x78, 0x38, 0x35, 0x3e, 
  0x5a, 0x2e, 0x00, 0xbe, 0x67, 0x28, 0x03, 0x3f, 0x02, 0x02, 0x9b, 0x3e, 
  0x25, 0x10, 0xa2, 0xbe, 0x9a, 0x75, 0x8e, 0xbe, 0xae, 0x41, 0xf9, 0xbf, 
  0xa9, 0x29, 0x54, 0xbe, 0xfc, 0xa0, 0x69, 0xbe, 0xb6, 0x62, 0x9a, 0x3d, 
  0x7f, 0xd7, 0x42, 0x3f, 0xb3, 0x67, 0xbe, 0x3e, 0xae, 0x01, 0xed, 0xbf, 
  0x65, 0x72, 0xbe, 0xbe, 0xc8, 0xf3, 0x92, 0xbf, 0x98, 0x89, 0xfd, 0x3e, 
  0x22, 0x5d, 0xbe, 0x3d, 0x24, 0x1d, 0xca, 0x3e, 0xe5, 0x66, 0x5d, 0xbf, 
  0xbf, 0x2c, 0x9e, 0xbe, 0x9b, 0xdc, 0x9d, 0x3e, 0xf3, 0xee, 0x77, 0x3d, 
  0xd0, 0xc9, 0x28, 0xbe, 0x7e, 0xec, 0xfe, 0xbe, 0x11, 0x75, 0xf3, 0x3d, 
  0x8f, 0x4a, 0x10, 0xbd, 0x7f, 0xb5, 0x7e, 0xbe, 0x0a, 0x24, 0x28, 0xbf, 
  0xd9, 0x7c, 0xc5, 0x3e, 0x47, 0x39, 0x33, 0x3e, 0xce, 0x39, 0x05, 0x3f, 
  0xd0, 0xc8, 0xa1, 0xbd, 0x96, 0xe8, 0xe4, 0x3f, 0x89, 0xd4, 0xdd, 0x3e, 
  0x07, 0x98, 0xe8, 0x3e, 0x69, 0xac, 0xc0, 0xbe, 0x28, 0x81, 0x5d, 0xbd, 
  0x35, 0x9d, 0x4e, 0xbf, 0x1b, 0xe4, 0x6f, 0xbe, 0x44, 0x50, 0x6c, 0x3e, 
  0x2b, 0x17, 0xb6, 0xbd, 0x82, 0x51, 0x81, 0xbe, 0x8d, 0xf7, 0x76, 0xbe, 
  0xf1, 0xa5, 0xd7, 0xbe, 0x6e, 0x7b, 0x51, 0xbf, 0x6f, 0xac, 0x55, 0xbf, 
  0x9c, 0x50, 0x2b, 0x3d, 0xf1, 0x4c, 0x83, 0x3e, 0x3f, 0x52, 0x04, 0x3f, 
  0x81, 0x6c, 0x1d, 0xbd, 0x01, 0x7f, 0x2d, 0xbf, 0x66, 0xa5, 0x05, 0x3f, 
  0x50, 0x8a, 0x56, 0xbf, 0xd4, 0xbc, 0x71, 0x3e, 0xad, 0xb5, 0x22, 0x3f, 
  0x99, 0x4f, 0x26, 0xbe, 0xaf, 0xa3, 0x5f, 0xbf, 0x81, 0xce, 0x13, 0xbf, 
  0x0b, 0x87, 0x09, 0xbd, 0x0e, 0xd4, 0x6f, 0x3e, 0x4c, 0x30, 0xed, 0xbe, 
  0xb8, 0x03, 0x90, 0x3f, 0xf4, 0x55, 0x5a, 0x3f, 0x90, 0xdf, 0xc4, 0xbe, 
  0x1a, 0x3d, 0x8f, 0x3e, 0x8c, 0x88, 0xfe, 0x3e, 0x5c, 0xe4, 0x87, 0x3d, 
  0xb1, 0x90, 0x3e, 0x3d, 0x57, 0xb5, 0x99, 0xbf, 0x2e, 0x84, 0xc8, 0x3e, 
  0xc6, 0x92, 0xe8, 0xbd, 0x39, 0x8e, 0xb1, 0x3e, 0xe4, 0xd5, 0x00, 0xbf, 
  0x88, 0xec, 0xef, 0xbd, 0xb2, 0xfd, 0xce, 0xbd, 0x40, 0x4e, 0x4b, 0xbe, 
  0x29, 0xfb, 0x81, 0x3d, 0x63, 0x67, 0xed, 0x3d, 0x89, 0x37, 0x64, 0xbd, 
  0x6c, 0xf0, 0x66, 0xbb, 0xcb, 0xf7, 0xf9, 0xbd, 0xac, 0x8a, 0xf1, 0xbd, 
  0xad, 0xb7, 0x89, 0xbf, 0x20, 0xbf, 0x14, 0xbf, 0xce, 0x58, 0x7c, 0x3e, 
  0x6a, 0x93, 0x92, 0x3e, 0x15, 0x73, 0x5b, 0xbe, 0x12, 0x95, 0x30, 0xbe, 
  0x6d, 0xd7, 0x22, 0x3d, 0xca, 0x32, 0x85, 0x3e, 0x45, 0xb7, 0x5f, 0xbe, 
  0xb8, 0x66, 0x1a, 0xbf, 0x65, 0x51, 0xc7, 0xbe, 0x68, 0xb9, 0xa6, 0x3d, 
  0xa6, 0xfc, 0x84, 0x3f, 0x7e, 0x3f, 0xe8, 0x3d, 0xcb, 0x86, 0xd4, 0x3e, 
  0xef, 0x9d, 0x42, 0x3f, 0x12, 0x8d, 0x33, 0x3e, 0x13, 0x42, 0x10, 0xbf, 
  0xe6, 0x0f, 0x88, 0xbd, 0x04, 0xf7, 0x36, 0x3e, 0x82, 0x46, 0xca, 0x3e, 
  0xa1, 0x50, 0x94, 0x3f, 0xc3, 0xd2, 0xd8, 0x3d, 0x2e, 0x1b, 0xf1, 0xbd, 
  0x03, 0x63, 0x40, 0x3d, 0xbe, 0xac, 0x19, 0xbf, 0xa3, 0xc9, 0xed, 0x3d, 
  0xd9, 0xdb, 0x85, 0x3d, 0x60, 0x4a, 0x12, 0x3e, 0x64, 0x98, 0xf3, 0x3d, 
  0xcc, 0xc0, 0x60, 0xbf, 0xad, 0xfc, 0x6a, 0x3e, 0x03, 0x46, 0x02, 0x3d, 
  0x34, 0x57, 0x2b, 0xbf, 0xd4, 0x0a, 0x9d, 0xbf, 0xbb, 0x99, 0xbf, 0x3e, 
  0x66, 0x62, 0x5a, 0x3f, 0x9d, 0x46, 0xa2, 0xbe, 0x3d, 0x7d, 0x0d, 0x3e, 
  0x56, 0x95, 0x3d, 0xbf, 0x69, 0x66, 0xfa, 0x3e, 0x8a, 0x83, 0x7f, 0xbd, 
  0xad, 0x76, 0x6a, 0x3e, 0xe0, 0x35, 0xe7, 0x3d, 0x85, 0x0f, 0x03, 0x3f, 
  0x09, 0x9e, 0x3a, 0xbf, 0x27, 0xf2, 0xae, 0xbe, 0x85, 0x1b, 0x13, 0xbe, 
  0xb5, 0xa8, 0xd2, 0x3e, 0xeb, 0x35, 0x0f, 0x3f, 0xf3, 0x3f, 0x0e, 0xbd, 
  0xfd, 0xff, 0x1f, 0x3e, 0x09, 0x7c, 0xc2, 0x3e, 0x72, 0x19, 0x90, 0x3d, 
  0xc1, 0x7a, 0x31, 0x3e, 0x05, 0xef, 0x40, 0xbe, 0x75, 0x0b, 0x1c, 0xbd, 
  0x9e, 0xad, 0x34, 0xbe, 0xf3, 0x70, 0x91, 0xbe, 0x97, 0xbc, 0xc1, 0x3e, 
  0x3a, 0xb5, 0x1b, 0xbf, 0x2f, 0x20, 0xf8, 0xbd, 0x8b, 0x67, 0x4b, 0xbe, 
  0x44, 0x84, 0xfa, 0xbf, 0x5d, 0xa0, 0x89, 0xbf, 0xd1, 0xf8, 0x84, 0x3f, 
  0xa4, 0x83, 0xea, 0xbc, 0x22, 0xde, 0x0c, 0xbf, 0x51, 0x45, 0x88, 0x3e, 
  0xac, 0xb2, 0x7a, 0xbe, 0x3b, 0x5e, 0xa7, 0xbe, 0x3f, 0xd3, 0x0e, 0x3d, 
  0xc4, 0x74, 0x29, 0x3d, 0xf3, 0x09, 0x63, 0x3f, 0x72, 0x43, 0xfa, 0xbe, 
  0xb1, 0x8a, 0xad, 0x3e, 0x18, 0xe4, 0xaa, 0xbe, 0x17, 0x64, 0x1c, 0x3f, 
  0x0f, 0x85, 0x96, 0xbd, 0x99, 0x07, 0x88, 0x3f, 0xe5, 0xe9, 0x8a, 0xbe, 
  0x1b, 0x2a, 0xd9, 0x3e, 0x85, 0x72, 0x01, 0x3f, 0x74, 0x2f, 0x02, 0xbe, 
  0xea, 0x75, 0x89, 0x3e, 0xd0, 0x2d, 0x1d, 0xbf, 0x72, 0x1b, 0xc8, 0xba, 
  0xf5, 0x68, 0x00, 0xbd, 0xf6, 0x29, 0xdd, 0x3e, 0xf4, 0x43, 0x33, 0xbf, 
  0x64, 0x0c, 0x20, 0xbf, 0x90, 0xba, 0xbd, 0xbe, 0xce, 0x37, 0x8f, 0x3e, 
  0xc1, 0x69, 0x89, 0x3e, 0xf0, 0xff, 0x55, 0xbd, 0xe6, 0x57, 0x42, 0xbf, 
  0x8a, 0x98, 0xa7, 0x3d, 0xdb, 0x6a, 0xf4, 0xbd, 0xa0, 0xce, 0x8a, 0xbe, 
  0xd8, 0xcb, 0xb9, 0xbe, 0x5d, 0x5a, 0x6d, 0x3e, 0x48, 0x3d, 0x87, 0x3e, 
  0xb5, 0x9c, 0xec, 0xbe, 0xf5, 0x0c, 0x60, 0xbe, 0xaa, 0xc0, 0x2b, 0x3e, 
  0x83, 0x6b, 0x83, 0x3e, 0x5f, 0xeb, 0xe4, 0xbe, 0x3a, 0x32, 0xa8, 0x3c, 
  0x76, 0xaa, 0xed, 0x3d, 0xc4, 0x4e, 0x46, 0x3e, 0xe3, 0x22, 0x7e, 0xbe, 
  0x84, 0x4b, 0x04, 0x3f, 0x05, 0x54, 0x1a, 0x3f, 0x46, 0x8e, 0x1f, 0x3f, 
  0xcc, 0xdd, 0x6d, 0x3f, 0x3f, 0x36, 0x6f, 0x3f, 0x3f, 0x64, 0x8d, 0x3e, 
  0xd8, 0xbb, 0xd1, 0x3e, 0x5e, 0x58, 0x11, 0x3f, 0x5f, 0x1d, 0x83, 0xbf, 
  0xc2, 0x34, 0x2a, 0x3d, 0xd5, 0x2e, 0x4c, 0x3f, 0x6c, 0x35, 0x58, 0xbe, 
  0x18, 0xd1, 0x49, 0x3f, 0x0b, 0x02, 0x90, 0x3d, 0x6b, 0x3f, 0x20, 0x3f, 
  0xa5, 0x98, 0xb7, 0x3c, 0x28, 0xa1, 0x98, 0x3f, 0x38, 0xc9, 0x05, 0xbf, 
  0xc6, 0xc6, 0x00, 0x3f, 0x0d, 0x76, 0x30, 0x3f, 0x37, 0x4f, 0xc4, 0x3e, 
  0xa6, 0xe8, 0x80, 0xbf, 0x9d, 0x4d, 0x2d, 0xbf, 0xe3, 0x21, 0xea, 0x3d, 
  0xdd, 0x77, 0x33, 0x3f, 0xcc, 0x65, 0xe8, 0xbb, 0xd1, 0x5e, 0xc3, 0x3e, 
  0x1b, 0x04, 0xdd, 0x3d, 0x5b, 0x81, 0x85, 0xbe, 0xfa, 0x03, 0xd6, 0xbe, 
  0xd2, 0x10, 0xaf, 0xbc, 0x06, 0xc2, 0x64, 0x3e, 0xac, 0x5d, 0x25, 0x3d, 
  0x60, 0x32, 0x6f, 0xbc, 0xec, 0x8c, 0xee, 0xbe, 0xac, 0xcc, 0xc4, 0x3f, 
  0xa9, 0xa3, 0x8c, 0xbd, 0xcf, 0xc0, 0x8d, 0x3f, 0x27, 0x3c, 0x94, 0x3e, 
  0xfa, 0xdc, 0x2e, 0xbe, 0x20, 0xa7, 0x2b, 0x3e, 0x9d, 0xfb, 0x57, 0xbe, 
  0x26, 0xde, 0x8e, 0x3e, 0xcd, 0xae, 0xb9, 0x3e, 0xf6, 0x87, 0xae, 0xbd, 
  0x55, 0x19, 0x49, 0xbe, 0xfd, 0x79, 0x2d, 0xbf, 0xfe, 0x32, 0x26, 0xbe, 
  0xfc, 0x40, 0x5d, 0xbd, 0xcc, 0x46, 0x79, 0x3c, 0x7b, 0x69, 0x20, 0xbf, 
  0x15, 0x38, 0xbd, 0x3d, 0x1f, 0xfa, 0xd0, 0x3e, 0x05, 0x72, 0xa3, 0x3f, 
  0x57, 0xcd, 0x0c, 0x3f, 0x26, 0xfa, 0x28, 0x3e, 0x6c, 0xd9, 0x02, 0x3f, 
  0x7a, 0x1c, 0x24, 0x3f, 0xf2, 0x73, 0x4b, 0x3f, 0xb7, 0x20, 0x1f, 0xbf, 
  0xc1, 0x7f, 0x2b, 0xbe, 0x9e, 0x4a, 0x04, 0xbf, 0xfe, 0xc0, 0x92, 0xbd, 
  0xce, 0xfe, 0xff, 0xff, 0x04, 0x00, 0x00, 0x00, 0x18, 0x00, 0x00, 0x00, 
  0xdb, 0xeb, 0x94, 0xbe, 0x8a, 0x23, 0xc8, 0xbd, 0x0b, 0x9f, 0xa2, 0xbe, 
  0x03, 0xe3, 0xb2, 0xbd, 0x2f, 0x67, 0x4e, 0xbd, 0x23, 0xe2, 0x34, 0x3f, 
  0xf2, 0xfe, 0xff, 0xff, 0x04, 0x00, 0x00, 0x00, 0x70, 0x00, 0x00, 0x00, 
  0xdb, 0x75, 0xae, 0x3e, 0x0f, 0xc6, 0x5c, 0x3e, 0x07, 0xab, 0x4e, 0xbf, 
  0x2c, 0x71, 0xf1, 0x3c, 0x23, 0x8d, 0x11, 0xbf, 0x8a, 0x9e, 0x37, 0x3f, 
  0x69, 0x03, 0x74, 0xbf, 0x01, 0x8a, 0xe5, 0xbe, 0x56, 0x4e, 0x55, 0xbf, 
  0x4d, 0xd3, 0x9d, 0x3e, 0x7b, 0x1e, 0xf9, 0xbd, 0x53, 0xa9, 0x05, 0xbf, 
  0x96, 0x38, 0xce, 0xbe, 0x20, 0x2c, 0xfc, 0x3b, 0x9a, 0xcd, 0xb4, 0xbe, 
  0x70, 0x00, 0x2e, 0xbf, 0x9f, 0xb8, 0x13, 0xbf, 0xd3, 0x70, 0x65, 0x3e, 
  0xd6, 0xa4, 0x8b, 0xbf, 0x17, 0x8a, 0x71, 0xbf, 0xe5, 0xe9, 0x11, 0xbf, 
  0x96, 0xd4, 0xa5, 0xbd, 0xf8, 0xfb, 0x75, 0xbf, 0x2f, 0x24, 0x1e, 0xbe, 
  0xc9, 0xe0, 0xf7, 0xbe, 0xbf, 0xc8, 0x10, 0xbf, 0xf0, 0x0d, 0xc3, 0xbe, 
  0x07, 0x8c, 0x9f, 0xbe, 0xf4, 0xfb, 0xff, 0xff, 0xf8, 0xfb, 0xff, 0xff, 
  0x0f, 0x00, 0x00, 0x00, 0x4d, 0x4c, 0x49, 0x52, 0x20, 0x43, 0x6f, 0x6e, 
  0x76, 0x65, 0x72, 0x74, 0x65, 0x64, 0x2e, 0x00, 0x01, 0x00, 0x00, 0x00, 
  0x14, 0x00, 0x00, 0x00, 0x00, 0x00, 0x0e, 0x00, 0x18, 0x00, 0x14, 0x00, 
  0x10, 0x00, 0x0c, 0x00, 0x08, 0x00, 0x04, 0x00, 0x0e, 0x00, 0x00, 0x00, 
  0x14, 0x00, 0x00, 0x00, 0x1c, 0x00, 0x00, 0x00, 0xec, 0x00, 0x00, 0x00, 
  0xf0, 0x00, 0x00, 0x00, 0xf4, 0x00, 0x00, 0x00, 0x04, 0x00, 0x00, 0x00, 
  0x6d, 0x61, 0x69, 0x6e, 0x00, 0x00, 0x00, 0x00, 0x03, 0x00, 0x00, 0x00, 
  0x94, 0x00, 0x00, 0x00, 0x50, 0x00, 0x00, 0x00, 0x14, 0x00, 0x00, 0x00, 
  0x00, 0x00, 0x0e, 0x00, 0x1a, 0x00, 0x14, 0x00, 0x10, 0x00, 0x0c, 0x00, 
  0x0b, 0x00, 0x04, 0x00, 0x0e, 0x00, 0x00, 0x00, 0x1c, 0x00, 0x00, 0x00, 
  0x00, 0x00, 0x00, 0x09, 0x1c, 0x00, 0x00, 0x00, 0x20, 0x00, 0x00, 0x00, 
  0x01, 0x00, 0x00, 0x00, 0x00, 0x00, 0x06, 0x00, 0x08, 0x00, 0x04, 0x00, 
  0x06, 0x00, 0x00, 0x00, 0x00, 0x00, 0x80, 0x3f, 0x01, 0x00, 0x00, 0x00, 
  0x07, 0x00, 0x00, 0x00, 0x01, 0x00, 0x00, 0x00, 0x06, 0x00, 0x00, 0x00, 
  0xce, 0xff, 0xff, 0xff, 0x10, 0x00, 0x00, 0x00, 0x00, 0x00, 0x00, 0x08, 
  0x0c, 0x00, 0x00, 0x00, 0x10, 0x00, 0x00, 0x00, 0xb8, 0xfc, 0xff, 0xff, 
  0x01, 0x00, 0x00, 0x00, 0x06, 0x00, 0x00, 0x00, 0x03, 0x00, 0x00, 0x00, 
  0x05, 0x00, 0x00, 0x00, 0x04, 0x00, 0x00, 0x00, 0x02, 0x00, 0x00, 0x00, 
  0x00, 0x00, 0x0e, 0x00, 0x16, 0x00, 0x00, 0x00, 0x10, 0x00, 0x0c, 0x00, 
  0x0b, 0x00, 0x04, 0x00, 0x0e, 0x00, 0x00, 0x00, 0x18, 0x00, 0x00, 0x00, 
  0x00, 0x00, 0x00, 0x08, 0x18, 0x00, 0x00, 0x00, 0x1c, 0x00, 0x00, 0x00, 
  0x00, 0x00, 0x06, 0x00, 0x08, 0x00, 0x07, 0x00, 0x06, 0x00, 0x00, 0x00, 
  0x00, 0x00, 0x00, 0x01, 0x01, 0x00, 0x00, 0x00, 0x05, 0x00, 0x00, 0x00, 
  0x03, 0x00, 0x00, 0x00, 0x00, 0x00, 0x00, 0x00, 0x03, 0x00, 0x00, 0x00, 
  0x01, 0x00, 0x00, 0x00, 0x01, 0x00, 0x00, 0x00, 0x07, 0x00, 0x00, 0x00, 
  0x01, 0x00, 0x00, 0x00, 0x00, 0x00, 0x00, 0x00, 0x08, 0x00, 0x00, 0x00, 
  0xa8, 0x02, 0x00, 0x00, 0x44, 0x02, 0x00, 0x00, 0xe0, 0x01, 0x00, 0x00, 
  0x9c, 0x01, 0x00, 0x00, 0x54, 0x01, 0x00, 0x00, 0xd0, 0x00, 0x00, 0x00, 
  0x5c, 0x00, 0x00, 0x00, 0x04, 0x00, 0x00, 0x00, 0x8c, 0xfd, 0xff, 0xff, 
  0x14, 0x00, 0x00, 0x00, 0x1c, 0x00, 0x00, 0x00, 0x1c, 0x00, 0x00, 0x00, 
  0x08, 0x00, 0x00, 0x00, 0x34, 0x00, 0x00, 0x00, 0x02, 0x00, 0x00, 0x00, 
  0xff, 0xff, 0xff, 0xff, 0x06, 0x00, 0x00, 0x00, 0x78, 0xfd, 0xff, 0xff, 
  0x19, 0x00, 0x00, 0x00, 0x53, 0x74, 0x61, 0x74, 0x65, 0x66, 0x75, 0x6c, 
  0x50, 0x61, 0x72, 0x74, 0x69, 0x74, 0x69, 0x6f, 0x6e, 0x65, 0x64, 0x43, 
  0x61, 0x6c, 0x6c, 0x3a, 0x30, 0x00, 0x00, 0x00, 0x02, 0x00, 0x00, 0x00, 
  0x01, 0x00, 0x00, 0x00, 0x06, 0x00, 0x00, 0x00, 0xe0, 0xfd, 0xff, 0xff, 
  0x14, 0x00, 0x00, 0x00, 0x1c, 0x00, 0x00, 0x00, 0x1c, 0x00, 0x00, 0x00, 
  0x07, 0x00, 0x00, 0x00, 0x50, 0x00, 0x00, 0x00, 0x02, 0x00, 0x00, 0x00, 
  0xff, 0xff, 0xff, 0xff, 0x06, 0x00, 0x00, 0x00, 0xcc, 0xfd, 0xff, 0xff, 
  0x34, 0x00, 0x00, 0x00, 0x73, 0x65, 0x71, 0x75, 0x65, 0x6e, 0x74, 0x69, 
  0x61, 0x6c, 0x2f, 0x64, 0x65, 0x6e, 0x73, 0x65, 0x5f, 0x31, 0x2f, 0x4d, 
  0x61, 0x74, 0x4d, 0x75, 0x6c, 0x3b, 0x73, 0x65, 0x71, 0x75, 0x65, 0x6e, 
  0x74, 0x69, 0x61, 0x6c, 0x2f, 0x64, 0x65, 0x6e, 0x73, 0x65, 0x5f, 0x31, 
  0x2f, 0x42, 0x69, 0x61, 0x73, 0x41, 0x64, 0x64, 0x00, 0x00, 0x00, 0x00, 
  0x02, 0x00, 0x00, 0x00, 0x01, 0x00, 0x00, 0x00, 0x06, 0x00, 0x00, 0x00, 
  0x50, 0xfe, 0xff, 0xff, 0x14, 0x00, 0x00, 0x00, 0x1c, 0x00, 0x00, 0x00, 
  0x1c, 0x00, 0x00, 0x00, 0x06, 0x00, 0x00, 0x00, 0x60, 0x00, 0x00, 0x00, 
  0x02, 0x00, 0x00, 0x00, 0xff, 0xff, 0xff, 0xff, 0x1c, 0x00, 0x00, 0x00, 
  0x3c, 0xfe, 0xff, 0xff, 0x46, 0x00, 0x00, 0x00, 0x73, 0x65, 0x71, 0x75, 
  0x65, 0x6e, 0x74, 0x69, 0x61, 0x6c, 0x2f, 0x64, 0x65, 0x6e, 0x73, 0x65, 
  0x2f, 0x4d, 0x61, 0x74, 0x4d, 0x75, 0x6c, 0x3b, 0x73, 0x65, 0x71, 0x75, 
  0x65, 0x6e, 0x74, 0x69, 0x61, 0x6c, 0x2f, 0x64, 0x65, 0x6e, 0x73, 0x65, 
  0x2f, 0x52, 0x65, 0x6c, 0x75, 0x3b, 0x73, 0x65, 0x71, 0x75, 0x65, 0x6e, 
  0x74, 0x69, 0x61, 0x6c, 0x2f, 0x64, 0x65, 0x6e, 0x73, 0x65, 0x2f, 0x42, 
  0x69, 0x61, 0x73, 0x41, 0x64, 0x64, 0x00, 0x00, 0x02, 0x00, 0x00, 0x00, 
  0x01, 0x00, 0x00, 0x00, 0x1c, 0x00, 0x00, 0x00, 0x2a, 0xff, 0xff, 0xff, 
  0x10, 0x00, 0x00, 0x00, 0x10, 0x00, 0x00, 0x00, 0x05, 0x00, 0x00, 0x00, 
  0x28, 0x00, 0x00, 0x00, 0xac, 0xfe, 0xff, 0xff, 0x19, 0x00, 0x00, 0x00, 
  0x73, 0x65, 0x71, 0x75, 0x65, 0x6e, 0x74, 0x69, 0x61, 0x6c, 0x2f, 0x64, 
  0x65, 0x6e, 0x73, 0x65, 0x5f, 0x31, 0x2f, 0x4d, 0x61, 0x74, 0x4d, 0x75, 
  0x6c, 0x00, 0x00, 0x00, 0x02, 0x00, 0x00, 0x00, 0x06, 0x00, 0x00, 0x00, 
  0x1c, 0x00, 0x00, 0x00, 0x6e, 0xff, 0xff, 0xff, 0x10, 0x00, 0x00, 0x00, 
  0x10, 0x00, 0x00, 0x00, 0x04, 0x00, 0x00, 0x00, 0x24, 0x00, 0x00, 0x00, 
  0xf0, 0xfe, 0xff, 0xff, 0x17, 0x00, 0x00, 0x00, 0x73, 0x65, 0x71, 0x75, 
  0x65, 0x6e, 0x74, 0x69, 0x61, 0x6c, 0x2f, 0x64, 0x65, 0x6e, 0x73, 0x65, 
  0x2f, 0x4d, 0x61, 0x74, 0x4d, 0x75, 0x6c, 0x00, 0x02, 0x00, 0x00, 0x00, 
  0x1c, 0x00, 0x00, 0x00, 0x1c, 0x00, 0x00, 0x00, 0xae, 0xff, 0xff, 0xff, 
  0x10, 0x00, 0x00, 0x00, 0x10, 0x00, 0x00, 0x00, 0x03, 0x00, 0x00, 0x00, 
  0x38, 0x00, 0x00, 0x00, 0x30, 0xff, 0xff, 0xff, 0x29, 0x00, 0x00, 0x00, 
  0x73, 0x65, 0x71, 0x75, 0x65, 0x6e, 0x74, 0x69, 0x61, 0x6c, 0x2f, 0x64, 
  0x65, 0x6e, 0x73, 0x65, 0x5f, 0x31, 0x2f, 0x42, 0x69, 0x61, 0x73, 0x41, 
  0x64, 0x64, 0x2f, 0x52, 0x65, 0x61, 0x64, 0x56, 0x61, 0x72, 0x69, 0x61, 
  0x62, 0x6c, 0x65, 0x4f, 0x70, 0x00, 0x00, 0x00, 0x01, 0x00, 0x00, 0x00, 
  0x06, 0x00, 0x00, 0x00, 0x00, 0x00, 0x0e, 0x00, 0x14, 0x00, 0x10, 0x00, 
  0x00, 0x00, 0x0c, 0x00, 0x08, 0x00, 0x04, 0x00, 0x0e, 0x00, 0x00, 0x00, 
  0x10, 0x00, 0x00, 0x00, 0x10, 0x00, 0x00, 0x00, 0x02, 0x00, 0x00, 0x00, 
  0x34, 0x00, 0x00, 0x00, 0x90, 0xff, 0xff, 0xff, 0x27, 0x00, 0x00, 0x00, 
  0x73, 0x65, 0x71, 0x75, 0x65, 0x6e, 0x74, 0x69, 0x61, 0x6c, 0x2f, 0x64, 
  0x65, 0x6e, 0x73, 0x65, 0x2f, 0x42, 0x69, 0x61, 0x73, 0x41, 0x64, 0x64, 
  0x2f, 0x52, 0x65, 0x61, 0x64, 0x56, 0x61, 0x72, 0x69, 0x61, 0x62, 0x6c, 
  0x65, 0x4f, 0x70, 0x00, 0x01, 0x00, 0x00, 0x00, 0x1c, 0x00, 0x00, 0x00, 
  0x14, 0x00, 0x18, 0x00, 0x14, 0x00, 0x00, 0x00, 0x10, 0x00, 0x0c, 0x00, 
  0x08, 0x00, 0x00, 0x00, 0x00, 0x00, 0x04, 0x00, 0x14, 0x00, 0x00, 0x00, 
  0x14, 0x00, 0x00, 0x00, 0x20, 0x00, 0x00, 0x00, 0x20, 0x00, 0x00, 0x00, 
  0x01, 0x00, 0x00, 0x00, 0x38, 0x00, 0x00, 0x00, 0x02, 0x00, 0x00, 0x00, 
  0xff, 0xff, 0xff, 0xff, 0x1c, 0x00, 0x00, 0x00, 0x04, 0x00, 0x04, 0x00, 
  0x04, 0x00, 0x00, 0x00, 0x19, 0x00, 0x00, 0x00, 0x73, 0x65, 0x72, 0x76, 
  0x69, 0x6e, 0x67, 0x5f, 0x64, 0x65, 0x66, 0x61, 0x75, 0x6c, 0x74, 0x5f, 
  0x69, 0x6e, 0x70, 0x75, 0x74, 0x5f, 0x31, 0x3a, 0x30, 0x00, 0x00, 0x00, 
  0x02, 0x00, 0x00, 0x00, 0x01, 0x00, 0x00, 0x00, 0x1c, 0x00, 0x00, 0x00, 
  0x02, 0x00, 0x00, 0x00, 0x20, 0x00, 0x00, 0x00, 0x04, 0x00, 0x00, 0x00, 
  0xf4, 0xff, 0xff, 0xff, 0x19, 0x00, 0x00, 0x00, 0x00, 0x00, 0x00, 0x19, 
  0x0c, 0x00, 0x0c, 0x00, 0x0b, 0x00, 0x00, 0x00, 0x00, 0x00, 0x04, 0x00, 
  0x0c, 0x00, 0x00, 0x00, 0x09, 0x00, 0x00, 0x00, 0x00, 0x00, 0x00, 0x09, 
};
unsigned int tflite_model_len = 5580;

#define INPUT_TENSOR_SIZE 28
#define OUTPUT_TENSOR_SIZE 6

const float input_scale[] = {
  0.763813, 2.325066, 0.709674, 0.260920, 
  1.686037, 2.483624, 2.173343, 1.218594, 
  1.300534, 2.816501, 1.733089, 1.693226, 
  0.627617, 1.159725, 0.941194, 0.697095, 
  0.433418, 0.334767, 0.434541, 0.442303, 
  2.920897, 3.524570, 7.169586, 7.170832, 
  0.868954, 0.759425, 0.760158, 0.744707, 
};

const float input_offset[] = {
  -0.271761, 0.320692, 9.390757, 9.943088, 
  -1.785630, -1.492248, 7.882841, 8.548902, 
  0.963141, 2.256534, 11.103216, 11.512787, 
  0.725190, 1.133705, 0.782044, 0.672577, 
  3.329193, 3.377549, 3.322912, 3.303347, 
  1.835055, 2.099727, 4.250511, 4.484773, 
  1.953448, 1.988956, 2.116512, 2.139863, 
};
