unsigned char tflite_model[] = {
  0x1c, 0x00, 0x00, 0x00, 0x54, 0x46, 0x4c, 0x33, 0x14, 0x00, 0x20, 0x00, 
  0x1c, 0x00, 0x18, 0x00, 0x14, 0x00, 0x10, 0x00, 0x0c, 0x00, 0x00, 0x00, 
  0x08, 0x00, 0x04, 0x00, 0x14, 0x00, 0x00, 0x00, 0x1c, 0x00, 0x00, 0x00, 
  0x8c, 0x00, 0x00, 0x00, 0xe4, 0x00, 0x00, 0x00, 0x38, 0x11, 0x00, 0x00, 
  0x48, 0x11, 0x00, 0x00, 0x68, 0x15, 0x00, 0x00, 0x03, 0x00, 0x00, 0x00, 
  0x01, 0x00, 0x00, 0x00, 0x10, 0x00, 0x00, 0x00, 0x00, 0x00, 0x0a, 0x00, 
  0x10, 0x00, 0x0c, 0x00, 0x08, 0x00, 0x04, 0x00, 0x0a, 0x00, 0x00, 0x00, 
  0x0c, 0x00, 0x00, 0x00, 0x1c, 0x00, 0x00, 0x00, 0x38, 0x00, 0x00, 0x00, 
  0x0f, 0x00, 0x00, 0x00, 0x73, 0x65, 0x72, 0x76, 0x69, 0x6e, 0x67, 0x5f, 
  0x64, 0x65, 0x66, 0x61, 0x75, 0x6c, 0x74, 0x00, 0x01, 0x00, 0x00, 0x00, 
  0x04, 0x00, 0x00, 0x00, 0x9c, 0xff, 0xff, 0xff, 0x07, 0x00, 0x00, 0x00, 
  0x04, 0x00, 0x00, 0x00, 0x07, 0x00, 0x00, 0x00, 0x64, 0x65, 0x6e, 0x73, 
  0x65, 0x5f, 0x31, 0x00, 0x01, 0x00, 0x00, 0x00, 0x04, 0x00, 0x00, 0x00, 
  0xae, 0xee, 0xff, 0xff, 0x04, 0x00, 0x00, 0x00, 0x07, 0x00, 0x00, 0x00, 
  0x69, 0x6e, 0x70, 0x75, 0x74, 0x5f, 0x31, 0x00, 0x02, 0x00, 0x00, 0x00, 
  0x34, 0x00, 0x00, 0x00, 0x04, 0x00, 0x00, 0x00, 0xdc, 0xff, 0xff, 0xff, 
  0x0a, 0x00, 0x00, 0x00, 0x04, 0x00, 0x00, 0x00, 0x13, 0x00, 0x00, 0x00, 
  0x43, 0x4f, 0x4e, 0x56, 0x45, 0x52, 0x53, 0x49, 0x4f, 0x4e, 0x5f, 0x4d, 
  0x45, 0x54, 0x41, 0x44, 0x41, 0x54, 0x41, 0x00, 0x08, 0x00, 0x0c, 0x00, 
  0x08, 0x00, 0x04, 0x00, 0x08, 0x00, 0x00, 0x00, 0x09, 0x00, 0x00, 0x00, 
  0x04, 0x00, 0x00, 0x00, 0x13, 0x00, 0x00, 0x00, 0x6d, 0x69, 0x6e, 0x5f, 
  0x72, 0x75, 0x6e, 0x74, 0x69, 0x6d, 0x65, 0x5f, 0x76, 0x65, 0x72, 0x73, 
  0x69, 0x6f, 0x6e, 0x00, 0x0b, 0x00, 0x00, 0x00, 0x50, 0x10, 0x00, 0x00, 
  0x48, 0x10, 0x00, 0x00, 0xc8, 0x0f, 0x00, 0x00, 0xa0, 0x0f, 0x00, 0x00, 
  0x50, 0x03, 0x00, 0x00, 0xa0, 0x00, 0x00, 0x00, 0x98, 0x00, 0x00, 0x00, 
  0x90, 0x00, 0x00, 0x00, 0x88, 0x00, 0x00, 0x00, 0x68, 0x00, 0x00, 0x00, 
  0x04, 0x00, 0x00, 0x00, 0x4e, 0xef, 0xff, 0xff, 0x04, 0x00, 0x00, 0x00, 
  0x54, 0x00, 0x00, 0x00, 0x0c, 0x00, 0x00, 0x00, 0x08, 0x00, 0x0e, 0x00, 
  0x08, 0x00, 0x04, 0x00, 0x08, 0x00, 0x00, 0x00, 0x10, 0x00, 0x00, 0x00, 
  0x24, 0x00, 0x00, 0x00, 0x00, 0x00, 0x06, 0x00, 0x08, 0x00, 0x04, 0x00, 
  0x06, 0x00, 0x00, 0x00, 0x04, 0x00, 0x00, 0x00, 0x00, 0x00, 0x00, 0x00, 
  0x00, 0x00, 0x0a, 0x00, 0x10, 0x00, 0x0c, 0x00, 0x08, 0x00, 0x04, 0x00, 
  0x0a, 0x00, 0x00, 0x00, 0x02, 0x00, 0x00, 0x00, 0x02, 0x00, 0x00, 0x00, 
  0x04, 0x00, 0x00, 0x00, 0x05, 0x00, 0x00, 0x00, 0x32, 0x2e, 0x39, 0x2e, 
  0x31, 0x00, 0x00, 0x00, 0xae, 0xef, 0xff, 0xff, 0x04, 0x00, 0x00, 0x00, 
  0x10, 0x00, 0x00, 0x00, 0x31, 0x2e, 0x35, 0x2e, 0x30, 0x00, 0x00, 0x00, 
  0x00, 0x00, 0x00, 0x00, 0x00, 0x00, 0x00, 0x00, 0x50, 0xec, 0xff, 0xff, 
  0x54, 0xec, 0xff, 0xff, 0x58, 0xec, 0xff, 0xff, 0xd6, 0xef, 0xff, 0xff, 
  0x04, 0x00, 0x00, 0x00, 0xa0, 0x02, 0x00, 0x00, 0x31, 0x95, 0x78, 0xbf, 
  0x07, 0x61, 0x7b, 0x3f, 0xda, 0x89, 0x1a, 0x3f, 0xbf, 0xdc, 0x4f, 0xbf, 
  0xec, 0x69, 0x45, 0x3f, 0x32, 0x85, 0x02, 0xbf, 0x35, 0x99, 0x08, 0xbf, 
  0xc3, 0xd6, 0x9f, 0xbf, 0x7a, 0x70, 0xe6, 0x3e, 0x60, 0x73, 0x16, 0x3f, 
  0xfb, 0x31, 0x63, 0x3f, 0xe7, 0xa5, 0xcc, 0xbe, 0x88, 0x2c, 0x6d, 0xbe, 
  0xcd, 0x62, 0x7e, 0xbf, 0x42, 0x35, 0x18, 0xbf, 0x02, 0x58, 0xdb, 0x3e, 
  0xb0, 0x76, 0x14, 0x3f, 0xa6, 0x3a, 0x4a, 0x3d, 0x80, 0x2c, 0x1b, 0xc0, 
  0x35, 0xc4, 0xc2, 0x3e, 0xa6, 0xb4, 0x16, 0x3f, 0x1d, 0xcf, 0x5c, 0xbd, 
  0x78, 0x82, 0x5d, 0xbf, 0x12, 0xb0, 0x08, 0xc0, 0x32, 0x22, 0x6c, 0xbe, 
  0x5e, 0x3a, 0x72, 0x3d, 0xd5, 0xf5, 0x26, 0xbe, 0x57, 0xf5, 0xcf, 0x3e, 
  0x73, 0x30, 0x55, 0x3f, 0xa4, 0x58, 0x06, 0xc0, 0xec, 0x41, 0x0d, 0xbf, 
  0xac, 0x75, 0xbd, 0x3e, 0x6c, 0xb2, 0x6d, 0xbf, 0xfd, 0xbe, 0x0a, 0xbf, 
  0xf1, 0x86, 0x74, 0x3f, 0xdb, 0xf5, 0x69, 0x3f, 0xbf, 0x4e, 0x70, 0xbf, 
  0x48, 0x6e, 0x86, 0xbd, 0xa6, 0x05, 0xc7, 0xbe, 0x5f, 0x2e, 0x24, 0xc0, 
  0x37, 0xc8, 0x69, 0x3e, 0x46, 0xb6, 0x1f, 0x3f, 0xbd, 0x32, 0x35, 0xbf, 
  0xa1, 0x6f, 0x49, 0xbf, 0x1f, 0x6f, 0x79, 0xbf, 0xbb, 0xcf, 0x32, 0x3e, 
  0xc2, 0x27, 0xb4, 0xbe, 0xb4, 0xac, 0xb4, 0x3e, 0x98, 0x9d, 0x9e, 0xbf, 
  0xf9, 0x4b, 0xf8, 0x3c, 0x55, 0x9f, 0x2d, 0xbf, 0xca, 0xdd, 0x27, 0x3f, 
  0xb4, 0xb1, 0x90, 0xbd, 0x55, 0x32, 0x29, 0x3f, 0xcd, 0x8a, 0x8f, 0x3c, 
  0x01, 0x9c, 0x9b, 0x3f, 0xff, 0x6a, 0x3a, 0xbf, 0x3a, 0x71, 0x04, 0xbf, 
  0xcf, 0xca, 0xd1, 0x3e, 0xa4, 0x34, 0xa2, 0x3e, 0x8c, 0xb1, 0xa7, 0xbf, 
  0xa9, 0x7f, 0x9a, 0xbf, 0x48, 0x80, 0x2c, 0xbf, 0x22, 0xc4, 0x6a, 0xbe, 
  0x24, 0x49, 0xce, 0xbf, 0x66, 0x40, 0x2e, 0x3e, 0xc0, 0x1d, 0x28, 0x3e, 
  0xea, 0x7c, 0x01, 0x3c, 0x59, 0xca, 0xa3, 0xbe, 0xa9, 0xa1, 0x38, 0x3e, 
  0xd9, 0x9e, 0x27, 0xbe, 0xa8, 0x8f, 0x13, 0x3f, 0xb6, 0x6d, 0xaa, 0xbf, 
  0x44, 0x8f, 0x55, 0xbf, 0xea, 0x1b, 0x5f, 0xbf, 0x6f, 0x5d, 0x10, 0xbe, 
  0xc8, 0x84, 0x3e, 0xbf, 0x83, 0x26, 0x9b, 0xbe, 0x8c, 0x6f, 0x7c, 0x3f, 
  0x7c, 0xf9, 0x40, 0xbf, 0x0c, 0x3b, 0x0d, 0xbf, 0x1d, 0xf9, 0x87, 0x3f, 
  0x45, 0x26, 0x10, 0x3f, 0x56, 0x49, 0xd2, 0xbe, 0x07, 0xd2, 0x81, 0xbf, 
  0xd6, 0x7f, 0xe2, 0xbd, 0x75, 0x6a, 0x96, 0x3e, 0x9f, 0x90, 0x87, 0xbf, 
  0x26, 0xc2, 0x80, 0xbe, 0x48, 0x56, 0xf7, 0x3d, 0x6b, 0x61, 0xb4, 0xbf, 
  0xe6, 0x26, 0xd8, 0xbe, 0xac, 0x66, 0xaf, 0xbe, 0x3b, 0xf5, 0xb1, 0xbf, 
  0x1e, 0x92, 0x36, 0x3e, 0x44, 0x88, 0x1e, 0x3e, 0x3a, 0x05, 0xe9, 0x3e, 
  0xe8, 0x7a, 0xd3, 0x3d, 0xa0, 0xe1, 0x90, 0xbf, 0x2a, 0xc7, 0x1b, 0x3f, 
  0x8d, 0xb1, 0xd5, 0x3e, 0xcd, 0xf6, 0xa7, 0x3e, 0x7c, 0x52, 0x02, 0x3f, 
  0xc2, 0x08, 0xa4, 0x3f, 0x7c, 0x1b, 0x94, 0x3d, 0x06, 0x1d, 0x2b, 0xbf, 
  0x64, 0x28, 0x32, 0xbe, 0x2f, 0xdf, 0x94, 0x3e, 0xa7, 0x3f, 0x82, 0x3c, 
  0x2b, 0x91, 0x42, 0x3e, 0x73, 0x92, 0x01, 0x3e, 0xcf, 0xac, 0x5d, 0x3e, 
  0x08, 0x9b, 0x2c, 0x3f, 0x82, 0x23, 0x56, 0xbf, 0x77, 0x77, 0x6b, 0xbf, 
  0x5b, 0x66, 0x58, 0x3f, 0x95, 0x22, 0x12, 0x3f, 0xdb, 0x32, 0xe8, 0x3e, 
  0x89, 0x5c, 0x11, 0x3f, 0xa3, 0xe9, 0x0d, 0x3f, 0x00, 0x94, 0xab, 0x3e, 
  0x64, 0x86, 0x9e, 0x3e, 0x52, 0x5e, 0x06, 0xbf, 0x51, 0x64, 0x7e, 0x3e, 
  0xf6, 0xa8, 0x10, 0x3f, 0x3c, 0x54, 0xc1, 0xbf, 0xc2, 0xe3, 0xe7, 0x3e, 
  0xcc, 0x8a, 0xa4, 0xbf, 0xe2, 0x56, 0xe3, 0x3e, 0x80, 0x4a, 0xee, 0xbf, 
  0xf4, 0xd4, 0xb1, 0x3e, 0x02, 0xbe, 0x23, 0xbe, 0xb0, 0x72, 0x0b, 0x3f, 
  0x14, 0x3d, 0x25, 0x3f, 0xe9, 0x56, 0x8b, 0xbe, 0x5f, 0x04, 0x01, 0xbf, 
  0x9f, 0x4b, 0x91, 0x3f, 0x09, 0xe7, 0x87, 0xbf, 0x65, 0x2d, 0xe9, 0xbf, 
  0x65, 0xba, 0x0d, 0xbf, 0xad, 0xcd, 0xa7, 0x3e, 0x0e, 0x3a, 0x53, 0x3f, 
  0xd8, 0x6b, 0x99, 0xbf, 0x0b, 0xdd, 0x0f, 0xbf, 0x90, 0x5f, 0xa7, 0xbc, 
  0xf5, 0xf8, 0x15, 0x3e, 0x95, 0xb6, 0x67, 0x3e, 0x53, 0x2b, 0x87, 0xbf, 
  0x16, 0x3b, 0x23, 0xbd, 0x7f, 0xce, 0x1c, 0xbf, 0xdb, 0x6c, 0xb3, 0xbf, 
  0x44, 0xa4, 0x94, 0x3f, 0x81, 0xce, 0x49, 0xbf, 0xd3, 0xc0, 0xab, 0x3d, 
  0x20, 0x8f, 0xb0, 0x3e, 0x35, 0xe1, 0xfe, 0x3e, 0xfb, 0x8d, 0xa8, 0xbe, 
  0xb9, 0x49, 0xe1, 0x3e, 0xf8, 0x8f, 0x82, 0x3e, 0xe7, 0xda, 0xd1, 0xbf, 
  0xe4, 0x0b, 0x97, 0xbf, 0x9e, 0x36, 0x54, 0xbe, 0xe0, 0xf7, 0x10, 0x3f, 
  0x35, 0x2a, 0xfa, 0x3e, 0x1e, 0x0c, 0x7f, 0xbf, 0xdb, 0x6f, 0xa5, 0xbf, 
  0x9a, 0x8e, 0x1c, 0x3e, 0x1c, 0x2d, 0xf7, 0xbf, 0x82, 0xf2, 0xff, 0xff, 
  0x04, 0x00, 0x00, 0x00, 0x40, 0x0c, 0x00, 0x00, 0x1b, 0xfe, 0xa9, 0xbf, 
  0x59, 0xd6, 0xee, 0x3f, 0x56, 0x8d, 0xa5, 0xbd, 0x94, 0x0f, 0x1f, 0x3e, 
  0x94, 0xa4, 0xc2, 0x3c, 0x3b, 0xc0, 0x01, 0xbf, 0xeb, 0x2e, 0xdb, 0x3e, 
  0xa9, 0x5f, 0xaf, 0xbe, 0xe6, 0x46, 0xc4, 0xbe, 0x71, 0x3d, 0x33, 0xbf, 
  0x6e, 0xe5, 0x97, 0x3f, 0xa4, 0x95, 0xac, 0xbe, 0x1a, 0x62, 0xa6, 0xbe, 
  0x40, 0x2b, 0x39, 0x3f, 0x78, 0xec, 0x03, 0x3f, 0x4b, 0x5d, 0x9f, 0x3f, 
  0x87, 0x5a, 0x86, 0x3e, 0xe6, 0x73, 0x81, 0x3f, 0x83, 0x12, 0xca, 0x3e, 
  0x0e, 0x12, 0xff, 0x3e, 0x74, 0xf0, 0xb5, 0x3e, 0x03, 0x6e, 0x78, 0xbe, 
  0x13, 0xab, 0x56, 0x3e, 0x87, 0xa9, 0x7d, 0x3e, 0x53, 0x9e, 0x3b, 0xbe, 
  0xb4, 0x37, 0x8b, 0xbe, 0xe1, 0x06, 0x14, 0xbf, 0x0b, 0x73, 0x0d, 0x3e, 
  0xcc, 0xd2, 0x6e, 0x3f, 0x74, 0xc6, 0x03, 0xc0, 0xac, 0xca, 0xf7, 0xbe, 
  0x2f, 0x56, 0x79, 0xbe, 0x45, 0x8d, 0x80, 0xbf, 0xae, 0xfd, 0x98, 0x3f, 
  0xd1, 0x39, 0x80, 0x3e, 0xee, 0xc6, 0xb5, 0xbe, 0x2e, 0xc4, 0x8f, 0xbe, 
  0x8a, 0xda, 0xf1, 0xbe, 0x43, 0x1d, 0xe7, 0x3e, 0x29, 0xfd, 0x4f, 0x3f, 
  0x52, 0x59, 0x09, 0x3f, 0x68, 0x85, 0x6e, 0xbc, 0x5a, 0x2e, 0x99, 0xbf, 
  0xda, 0xdc, 0x62, 0xbf, 0x7d, 0x17, 0xe5, 0xbe, 0x3a, 0x62, 0xfa, 0x3d, 
  0xce, 0xb6, 0x15, 0xbe, 0x4a, 0x92, 0xf8, 0xbe, 0xb5, 0x23, 0xb7, 0x3c, 
  0x75, 0xe5, 0xa3, 0xbd, 0x84, 0x64, 0x97, 0x3e, 0xca, 0xcc, 0x9d, 0x3e, 
  0xf7, 0x69, 0x95, 0x3f, 0x40, 0xd7, 0x2b, 0xbe, 0xbb, 0x30, 0xa4, 0x3d, 
  0x17, 0xe4, 0x3a, 0xbf, 0xb0, 0xa3, 0x47, 0xbf, 0x36, 0xee, 0xed, 0xbe, 
  0x6c, 0x8b, 0x02, 0xbf, 0xee, 0x39, 0x13, 0xbf, 0xb0, 0x27, 0xbc, 0xbc, 
  0xea, 0xc8, 0x12, 0xbe, 0xec, 0x6e, 0x3a, 0x3f, 0xa3, 0x1a, 0x8d, 0x3f, 
  0xc5, 0x9e, 0x4e, 0xbf, 0x5c, 0xd7, 0x8b, 0xbf, 0x30, 0xbe, 0x11, 0x3e, 
  0x40, 0x6d, 0xa5, 0x3d, 0x17, 0x40, 0xe3, 0xbc, 0x09, 0x1a, 0x4a, 0x3e, 
  0x81, 0xee, 0x07, 0x3f, 0x38, 0x2f, 0x15, 0x3e, 0x94, 0x20, 0xa7, 0xbd, 
  0xa1, 0x4f, 0x51, 0x3d, 0xd2, 0x63, 0xe8, 0xbe, 0xe8, 0xcb, 0x83, 0xbe, 
  0x9f, 0x8b, 0x83, 0xbd, 0x99, 0xdb, 0x8e, 0xbe, 0x56, 0x18, 0xd8, 0x3e, 
  0x47, 0x4d, 0xda, 0x3e, 0x26, 0x1c, 0x66, 0x3f, 0x47, 0x1a, 0x8a, 0x3f, 
  0xb4, 0xa1, 0x91, 0x3e, 0x73, 0x84, 0xdc, 0x3e, 0x92, 0xc7, 0x02, 0x3c, 
  0xf2, 0xda, 0x91, 0x3f, 0xff, 0xc7, 0x64, 0xbe, 0xc0, 0xff, 0x2f, 0x3c, 
  0xa9, 0x89, 0x8c, 0xbe, 0x47, 0x9b, 0xb8, 0xbe, 0x61, 0xb4, 0x52, 0x3f, 
  0x6f, 0xc9, 0xa6, 0xbd, 0xcb, 0x2b, 0x9c, 0x3e, 0xca, 0xa9, 0x98, 0x3e, 
  0x0b, 0xb7, 0xee, 0x3d, 0x7b, 0x6a, 0x07, 0xbf, 0x2a, 0xe7, 0xb0, 0xbe, 
  0xf9, 0xfa, 0x0b, 0x3f, 0x5b, 0xce, 0xbb, 0x3e, 0x41, 0x18, 0xaa, 0x3f, 
  0xa8, 0x9e, 0x5d, 0x3e, 0x5b, 0xf7, 0x1c, 0x3f, 0x3d, 0x1d, 0xdc, 0x3d, 
  0xad, 0xa6, 0x0c, 0xbf, 0xde, 0x2f, 0x43, 0x3e, 0xff, 0xd4, 0x35, 0x3e, 
  0xaf, 0x09, 0xc5, 0x3f, 0xb5, 0x4f, 0x3b, 0x3f, 0x1a, 0x53, 0xb2, 0xbf, 
  0x91, 0xa2, 0xf4, 0x3e, 0x1e, 0xe6, 0x06, 0x3d, 0x2b, 0x00, 0x5b, 0xbf, 
  0x4d, 0x30, 0xa1, 0xbf, 0x64, 0x30, 0xff, 0xbf, 0x3f, 0x2d, 0x38, 0xbe, 
  0xf4, 0x9a, 0xf0, 0x3d, 0x9d, 0x32, 0x34, 0xbe, 0xd4, 0x59, 0x17, 0x3f, 
  0xb6, 0x9e, 0x03, 0x3e, 0x6e, 0xc4, 0xd1, 0xbe, 0x8b, 0x17, 0x8f, 0x3e, 
  0xb4, 0x7a, 0x89, 0xbe, 0x7d, 0xa7, 0x9a, 0x3e, 0x54, 0x31, 0x9e, 0xbf, 
  0x97, 0x6a, 0x17, 0xbf, 0xb3, 0xd7, 0x03, 0x3e, 0xfa, 0xd8, 0xfd, 0x3d, 
  0x97, 0xce, 0x2c, 0x3f, 0xa3, 0x26, 0x2d, 0x3e, 0xfb, 0xb0, 0x3d, 0x3e, 
  0xdf, 0x6e, 0xe6, 0x3e, 0x7a, 0x10, 0x8d, 0x3f, 0xfe, 0x27, 0xd7, 0x3e, 
  0x5c, 0x54, 0x17, 0xbf, 0xb8, 0xa3, 0x9f, 0xbe, 0x3a, 0xd5, 0x48, 0xbf, 
  0xd9, 0xb2, 0x19, 0xbf, 0x6c, 0x39, 0x0b, 0xbe, 0xb2, 0x19, 0x01, 0x3e, 
  0x8e, 0x52, 0xd0, 0xbe, 0xbc, 0xb1, 0xb2, 0x3e, 0x83, 0x0e, 0x0d, 0x3f, 
  0x9a, 0x2d, 0xec, 0x3e, 0xd4, 0xb9, 0x3f, 0xbf, 0xef, 0xc3, 0x83, 0x3e, 
  0x17, 0xbf, 0x05, 0xbf, 0xf2, 0xaa, 0xaf, 0x3e, 0xf6, 0x7a, 0xa0, 0x3e, 
  0xfc, 0xb7, 0x18, 0x3f, 0xc9, 0x6c, 0x3e, 0xbe, 0xbd, 0x30, 0x6e, 0xbf, 
  0x7c, 0x8a, 0x11, 0xbf, 0x9d, 0xdd, 0x0e, 0xbe, 0x1e, 0x68, 0x24, 0xbf, 
  0x68, 0x89, 0x2e, 0x3d, 0x80, 0x65, 0x3c, 0x3e, 0xea, 0x72, 0x82, 0xbe, 
  0xf1, 0xdb, 0x5d, 0xbe, 0xbc, 0xd7, 0x07, 0xbe, 0xee, 0x90, 0x10, 0xbe, 
  0xd4, 0xa9, 0xd5, 0xbe, 0xc5, 0xe3, 0xfe, 0xbe, 0xc8, 0xcc, 0x19, 0x3d, 
  0xbb, 0x6b, 0xb4, 0x3c, 0x72, 0xdb, 0x23, 0xbf, 0x2a, 0x3f, 0x0c, 0x3f, 
  0x8b, 0x6d, 0xc6, 0xbe, 0x96, 0xb2, 0x35, 0xbd, 0x50, 0x7f, 0x3b, 0x3f, 
  0x4c, 0x22, 0x53, 0x40, 0xb1, 0xe3, 0x8d, 0xbf, 0xae, 0x23, 0xcb, 0xbe, 
  0x03, 0xfd, 0x31, 0xbf, 0x32, 0xf9, 0x08, 0xbf, 0x86, 0x70, 0xae, 0x3e, 
  0x3d, 0xc2, 0x08, 0x3f, 0xf8, 0xc8, 0xed, 0x3e, 0x10, 0x15, 0xfd, 0xbe, 
  0x85, 0x7b, 0x89, 0x3e, 0xdc, 0xeb, 0x0a, 0xbf, 0x40, 0x01, 0x45, 0xbf, 
  0x9c, 0x11, 0x3c, 0xbf, 0x62, 0x67, 0x0b, 0xbf, 0x5a, 0xce, 0x7e, 0xbe, 
  0xcd, 0xbd, 0xb1, 0xbe, 0x16, 0x60, 0x53, 0x3e, 0x1c, 0x5e, 0xd1, 0xbd, 
  0x4f, 0x9b, 0x86, 0xbe, 0x1c, 0x64, 0x51, 0x3f, 0xaa, 0xf4, 0xe2, 0x3d, 
  0x10, 0x35, 0xc8, 0x3e, 0x4a, 0xc5, 0xc5, 0xbd, 0x24, 0x82, 0x0a, 0xbf, 
  0x0c, 0xa7, 0x0b, 0xbf, 0x5b, 0x2c, 0xa7, 0x3e, 0x15, 0x3b, 0x39, 0xbe, 
  0xe3, 0xff, 0x56, 0xbf, 0x76, 0xdc, 0xa7, 0x3f, 0x66, 0xcb, 0xd1, 0xbf, 
  0xb6, 0xcb, 0x6a, 0xbf, 0x16, 0x13, 0xdf, 0xbd, 0xac, 0x6b, 0x5d, 0xbe, 
  0x14, 0x4b, 0xc8, 0x3f, 0xe6, 0xaa, 0xab, 0x3e, 0x69, 0x12, 0x98, 0xbe, 
  0x28, 0x31, 0xc3, 0x3c, 0x4b, 0x4b, 0xc4, 0x3e, 0xbd, 0x40, 0x6f, 0x3d, 
  0x4f, 0x15, 0x8a, 0xbe, 0xd6, 0x25, 0x51, 0x3e, 0x60, 0xb0, 0x1a, 0xbf, 
  0x5f, 0xdf, 0x79, 0xbe, 0x56, 0xb9, 0x29, 0x3f, 0xef, 0x0d, 0x77, 0xbe, 
  0xea, 0x8d, 0x14, 0x3c, 0xd8, 0x38, 0x76, 0xbe, 0x6d, 0x3c, 0x1e, 0x3c, 
  0x21, 0x1d, 0xfb, 0x3d, 0x8d, 0x6c, 0x4b, 0x3e, 0x88, 0x68, 0x1e, 0x3f, 
  0x70, 0xdb, 0x56, 0x3f, 0xe8, 0x20, 0xd5, 0xbe, 0x04, 0xf8, 0x35, 0x3e, 
  0x4f, 0xee, 0xa7, 0xbd, 0xd5, 0x05, 0x13, 0xbf, 0xa7, 0x96, 0x76, 0xbf, 
  0xbf, 0xa5, 0x08, 0x3f, 0x7b, 0x0d, 0xa5, 0xbe, 0x73, 0x94, 0xd6, 0xbe, 
  0x0f, 0x29, 0x1c, 0x3f, 0x37, 0x5a, 0xd0, 0x3e, 0x83, 0xf3, 0x37, 0x3e, 
  0x5a, 0xa0, 0xc5, 0x3e, 0x94, 0xb3, 0x54, 0x3f, 0x46, 0xdf, 0xb3, 0x3e, 
  0xb9, 0x06, 0xc8, 0xbf, 0x61, 0x39, 0x85, 0xbe, 0x53, 0xbe, 0x21, 0x3e, 
  0x28, 0xb2, 0x88, 0x3e, 0xed, 0x12, 0x23, 0x3f, 0x91, 0x24, 0x8c, 0xbc, 
  0xf0, 0xec, 0x23, 0xbf, 0x82, 0x4f, 0x5a, 0x3f, 0x5b, 0xcb, 0x0f, 0x3f, 
  0x5a, 0x71, 0x5b, 0x3e, 0x2a, 0x79, 0xc6, 0xbe, 0xea, 0x61, 0x20, 0xbe, 
  0x68, 0x13, 0x0c, 0xbe, 0xf8, 0x97, 0xfa, 0xbe, 0x06, 0xfa, 0x61, 0xbe, 
  0x68, 0x0c, 0x7e, 0xbe, 0xba, 0xce, 0xc3, 0xbc, 0xc9, 0xc5, 0x35, 0x3e, 
  0x17, 0x89, 0xcc, 0xbf, 0x81, 0xae, 0x92, 0xbf, 0x8e, 0xaa, 0xae, 0x3f, 
  0xee, 0x11, 0xb3, 0xbe, 0x76, 0x14, 0x7b, 0xbe, 0xa9, 0xbc, 0x2c, 0xbc, 
  0xe8, 0x6c, 0xc1, 0xbe, 0xed, 0x0d, 0x9d, 0x3c, 0x11, 0x8c, 0x26, 0xbe, 
  0x60, 0xf6, 0x18, 0x3e, 0xb8, 0xdd, 0x15, 0x3f, 0x66, 0xa6, 0xd0, 0x3c, 
  0xe2, 0x71, 0xc5, 0x3f, 0xad, 0x1e, 0x79, 0xbe, 0xd8, 0x7a, 0x8a, 0x3e, 
  0x8a, 0xce, 0x04, 0xbf, 0x4c, 0xdf, 0x0c, 0x3f, 0x39, 0x78, 0x58, 0x3d, 
  0x03, 0x5d, 0x1b, 0x3f, 0xef, 0xc2, 0xd4, 0x3d, 0xbd, 0x9f, 0xa0, 0x3d, 
  0x06, 0xa9, 0x64, 0x3f, 0xef, 0x19, 0x52, 0x3e, 0xce, 0x9c, 0x62, 0x3e, 
  0x13, 0xdc, 0x0c, 0x3f, 0xb0, 0x5d, 0xa9, 0x3f, 0x5e, 0x2a, 0xb8, 0x3e, 
  0xaa, 0xf6, 0x36, 0xbf, 0x08, 0x07, 0x00, 0xc0, 0x3d, 0x52, 0x39, 0xbf, 
  0xf6, 0x68, 0x48, 0xbf, 0x4a, 0xff, 0x2b, 0xbc, 0x4e, 0x79, 0x26, 0x3f, 
  0x26, 0xbc, 0xe2, 0x3e, 0x07, 0x24, 0xb5, 0xbc, 0x58, 0x3f, 0xd6, 0xbf, 
  0xe4, 0xd3, 0x03, 0x3e, 0x85, 0x8d, 0x9b, 0xbd, 0x6c, 0xfe, 0x1b, 0x3e, 
  0x5e, 0xbf, 0xd9, 0xbe, 0xda, 0x31, 0x0f, 0x3f, 0xe3, 0xce, 0xf8, 0xbe, 
  0xd1, 0xf4, 0xb5, 0xbd, 0x74, 0x38, 0x8a, 0xbd, 0xe6, 0x44, 0xe0, 0x3d, 
  0x28, 0x18, 0x33, 0xbf, 0x28, 0xbe, 0xf9, 0xbe, 0xe0, 0xef, 0x64, 0x3f, 
  0xea, 0xa4, 0xc9, 0xbb, 0x69, 0xe8, 0xa3, 0x3e, 0xfc, 0x46, 0xaa, 0x3e, 
  0xa0, 0x3b, 0xb9, 0x3e, 0x9d, 0x73, 0x07, 0x3f, 0x1c, 0xea, 0x35, 0x3f, 
  0x70, 0x28, 0xee, 0xbd, 0x5f, 0xab, 0x19, 0x40, 0x54, 0xec, 0xb0, 0xbd, 
  0x87, 0x5c, 0xa8, 0x3f, 0x17, 0xf4, 0xbc, 0x3e, 0x91, 0xef, 0x9f, 0xbe, 
  0x9c, 0x8d, 0xf2, 0xbe, 0xe4, 0x3c, 0x26, 0xbf, 0x36, 0x35, 0x15, 0x3f, 
  0xe7, 0x8e, 0x84, 0xbe, 0x9c, 0x1c, 0x24, 0x3e, 0xd3, 0x75, 0x00, 0xbf, 
  0xd7, 0x90, 0x4e, 0xbe, 0xbf, 0x29, 0xc0, 0xbe, 0xb5, 0x13, 0x41, 0xbe, 
  0x62, 0x82, 0xdc, 0x3e, 0x32, 0x5d, 0xd3, 0xbc, 0x69, 0x9f, 0x22, 0x3e, 
  0x21, 0x63, 0x53, 0x3f, 0x75, 0xc4, 0x02, 0x3f, 0x7e, 0xfe, 0x1b, 0x3f, 
  0x13, 0x1e, 0x87, 0xbd, 0xfa, 0xbe, 0x58, 0x3e, 0xfe, 0x68, 0x02, 0xbd, 
  0x6c, 0x4f, 0x20, 0x3f, 0x32, 0x01, 0x7b, 0xbe, 0x26, 0xbc, 0xbc, 0xbe, 
  0xde, 0x28, 0x5a, 0xbd, 0x90, 0x79, 0x2a, 0xbd, 0x74, 0x40, 0x49, 0xbf, 
  0x72, 0xcd, 0xc9, 0x3e, 0xa4, 0x09, 0x2a, 0xbf, 0xc0, 0xf4, 0x13, 0xbe, 
  0x9f, 0xdc, 0x35, 0x3f, 0x9f, 0x19, 0x1e, 0xbf, 0xae, 0x12, 0x49, 0x3f, 
  0x6c, 0xbf, 0x04, 0xbe, 0x6f, 0x36, 0xd6, 0x3e, 0xde, 0x85, 0xfa, 0x3e, 
  0x15, 0xe5, 0x9a, 0xbe, 0xf5, 0x3d, 0xbb, 0xbe, 0x0a, 0x1e, 0x76, 0x3e, 
  0x1c, 0x29, 0xfb, 0x3c, 0x2e, 0x17, 0x0e, 0x3f, 0x26, 0x68, 0xaf, 0x3f, 
  0x77, 0x65, 0x75, 0x3e, 0xd7, 0x3d, 0x8b, 0xbd, 0x9f, 0x6d, 0xbe, 0x3c, 
  0x96, 0x4d, 0xb3, 0x3e, 0x7d, 0x17, 0xe8, 0xbe, 0xc6, 0x9a, 0x7b, 0x3e, 
  0x79, 0xb8, 0xf3, 0xbd, 0xdc, 0x6a, 0xc1, 0xbd, 0xcc, 0x50, 0x28, 0xbf, 
  0xa3, 0x0f, 0x2a, 0x3e, 0x2c, 0x38, 0x1d, 0xbf, 0xbf, 0x4b, 0x98, 0xbe, 
  0x6e, 0x51, 0x3c, 0x3e, 0x2d, 0x7e, 0x0d, 0x40, 0xc7, 0xb6, 0x54, 0xbe, 
  0x21, 0x95, 0x92, 0xbf, 0x0c, 0x54, 0x21, 0xbe, 0xca, 0x7c, 0xa6, 0xbf, 
  0x71, 0xb5, 0x2a, 0xbe, 0x21, 0x40, 0xc4, 0xbe, 0xed, 0x95, 0xb7, 0xbe, 
  0xa0, 0x85, 0xaa, 0xbe, 0x25, 0x8e, 0xd0, 0x3e, 0xcb, 0x35, 0x2a, 0x3f, 
  0xfa, 0xc4, 0x18, 0xbf, 0x19, 0x38, 0x7b, 0xbe, 0xc2, 0x13, 0xd3, 0xbd, 
  0xd1, 0xd3, 0xeb, 0xbe, 0x03, 0x71, 0x96, 0x3e, 0x72, 0x8b, 0x54, 0xbe, 
  0x02, 0x2d, 0x42, 0x3e, 0x9c, 0xe5, 0x5a, 0xbf, 0x79, 0x3e, 0x9f, 0x3d, 
  0x90, 0x96, 0x65, 0xbe, 0x1b, 0x89, 0xd4, 0x3e, 0x3c, 0x11, 0x9a, 0x3f, 
  0x09, 0xf1, 0x9a, 0x3f, 0x0b, 0x8f, 0x93, 0xbd, 0x95, 0xc9, 0x18, 0x3f, 
  0x9e, 0x1e, 0x26, 0x3f, 0xd3, 0x6a, 0x1f, 0x40, 0x4e, 0xde, 0xf6, 0xbb, 
  0x6d, 0xe9, 0x8c, 0x3e, 0x72, 0x9a, 0x43, 0xbf, 0x03, 0xc1, 0x77, 0xbe, 
  0x9d, 0xa8, 0xbc, 0xbe, 0x5b, 0xa8, 0xce, 0x3c, 0xbb, 0x85, 0x81, 0x3d, 
  0x2f, 0xc0, 0xd6, 0xbe, 0x96, 0xa7, 0xc0, 0xbe, 0xad, 0x33, 0x00, 0xbd, 
  0x53, 0xe0, 0x8d, 0xbe, 0x7f, 0xde, 0x36, 0xbf, 0xc8, 0xf8, 0x9f, 0xbb, 
  0x27, 0x92, 0x4d, 0x3d, 0x34, 0x25, 0xc0, 0x3e, 0x1f, 0xe5, 0xb7, 0x3e, 
  0xe2, 0x7f, 0x78, 0xbe, 0xc8, 0x31, 0x6c, 0xbf, 0x81, 0x48, 0xb1, 0x3d, 
  0x4f, 0xe2, 0x92, 0xbf, 0x52, 0xca, 0x19, 0x3e, 0x3c, 0xd1, 0x0b, 0x3f, 
  0xae, 0xe1, 0xe1, 0xbd, 0x65, 0x89, 0x77, 0xbe, 0x00, 0xbd, 0x7a, 0x3d, 
  0xa1, 0x74, 0x4a, 0xbe, 0xcc, 0xd6, 0x77, 0x3d, 0x64, 0x9c, 0x4e, 0x3f, 
  0x6a, 0x80, 0xa1, 0xbe, 0x74, 0xf9, 0x9c, 0x3f, 0xfc, 0xb0, 0xda, 0x3c, 
  0x70, 0x4b, 0x99, 0x3f, 0x69, 0x48, 0x12, 0x3f, 0xbe, 0x89, 0xda, 0x3d, 
  0xd8, 0xd8, 0x6d, 0xbe, 0x17, 0xa9, 0x08, 0x3f, 0x41, 0x3b, 0xe4, 0xbe, 
  0x2d, 0x16, 0x58, 0x3f, 0xfe, 0xd5, 0xfe, 0x3c, 0xf0, 0xd2, 0x90, 0x3e, 
  0x46, 0x7c, 0xb6, 0xbf, 0x34, 0xf5, 0x9d, 0xbe, 0x6b, 0x3e, 0xbd, 0xbe, 
  0x54, 0x17, 0xd3, 0xbe, 0x44, 0x84, 0x32, 0x3e, 0x54, 0x83, 0x28, 0x3e, 
  0xa2, 0xce, 0x17, 0x3f, 0x8e, 0x8a, 0xc6, 0xbd, 0x12, 0x9c, 0x0a, 0x3f, 
  0xee, 0x6d, 0x67, 0x3e, 0xa4, 0x51, 0x0c, 0x3f, 0x8d, 0x8c, 0xd5, 0x3e, 
  0x84, 0xbb, 0x01, 0x3f, 0x33, 0xda, 0x1b, 0xbf, 0xf3, 0x1b, 0x22, 0x3f, 
  0xc7, 0x34, 0x2b, 0xbd, 0xf1, 0x22, 0x97, 0xbf, 0x63, 0x7b, 0xc5, 0x3e, 
  0xba, 0xda, 0xb1, 0x3e, 0x61, 0x9c, 0xac, 0x3e, 0x5f, 0x0c, 0xcb, 0xbe, 
  0x96, 0x46, 0x42, 0x3f, 0x19, 0x01, 0x89, 0xbe, 0x65, 0x4f, 0x0b, 0x3f, 
  0x12, 0x71, 0x8d, 0x3f, 0xb8, 0x97, 0x4b, 0xbf, 0x8a, 0xa1, 0xf0, 0xbe, 
  0xac, 0xeb, 0x65, 0xbd, 0x6e, 0x46, 0x20, 0x3d, 0xd2, 0x6d, 0xf6, 0x3e, 
  0x75, 0x0e, 0x90, 0x3f, 0x72, 0xdc, 0xc8, 0x3e, 0xda, 0x71, 0xec, 0xbe, 
  0x98, 0xcd, 0xa8, 0x3e, 0x5e, 0x95, 0x5f, 0xbe, 0x2d, 0xf4, 0x14, 0xbe, 
  0xda, 0xe7, 0x46, 0x3f, 0x83, 0x27, 0xe6, 0xbc, 0x70, 0x4d, 0xfe, 0xbe, 
  0x66, 0xa5, 0x13, 0xbf, 0x84, 0xe6, 0x8b, 0x3e, 0xf4, 0x4d, 0x11, 0xbe, 
  0x7f, 0x4b, 0x5e, 0xbf, 0xaa, 0x1d, 0x4f, 0x3f, 0xde, 0x4a, 0x3b, 0xbf, 
  0xfb, 0x02, 0x91, 0xbe, 0x67, 0x65, 0x35, 0x3c, 0xa8, 0x32, 0xc5, 0x3c, 
  0x12, 0x6c, 0x0a, 0x40, 0x07, 0xa7, 0x3b, 0x3c, 0xb6, 0x95, 0x1c, 0x3f, 
  0x63, 0xd9, 0x94, 0xbf, 0x84, 0x69, 0x7a, 0xbe, 0x09, 0xf2, 0x9e, 0xbf, 
  0x90, 0x8d, 0x72, 0x3f, 0x63, 0x1f, 0x8f, 0x3d, 0xe8, 0x59, 0xb6, 0xbf, 
  0x67, 0x01, 0x48, 0xbe, 0x42, 0x74, 0x1a, 0xbf, 0xb7, 0x77, 0x5c, 0xbd, 
  0x44, 0x6c, 0xb7, 0xbd, 0x14, 0x16, 0xad, 0x3e, 0xd4, 0x78, 0x3c, 0xbe, 
  0xd2, 0x16, 0xa8, 0x3e, 0x85, 0x68, 0x9c, 0x3e, 0x90, 0x75, 0x84, 0xbf, 
  0xf7, 0x4d, 0x1a, 0xbf, 0x4d, 0xf2, 0x58, 0xbe, 0x8f, 0xbf, 0x9c, 0x3f, 
  0x9a, 0x81, 0x50, 0xbe, 0x69, 0x08, 0xff, 0xbe, 0xf3, 0xf2, 0xe4, 0xbe, 
  0x08, 0xee, 0x35, 0x3f, 0xe7, 0x58, 0x07, 0x40, 0xfe, 0xb4, 0x83, 0xbf, 
  0x30, 0xea, 0x2d, 0xbe, 0x63, 0x69, 0xb2, 0x3e, 0xbf, 0x03, 0x3a, 0xbe, 
  0x5c, 0xea, 0x24, 0x3e, 0x15, 0x7c, 0x13, 0x3f, 0x71, 0x1e, 0x40, 0x3f, 
  0x15, 0x16, 0xe2, 0x3d, 0xa3, 0x52, 0xe6, 0xbe, 0x21, 0x28, 0x88, 0x3e, 
  0x18, 0x06, 0x37, 0xbf, 0xb2, 0xa8, 0xc0, 0x3e, 0xc6, 0x09, 0xcc, 0xbe, 
  0x2d, 0xd4, 0x66, 0x3e, 0xf0, 0x59, 0x55, 0xbf, 0x0a, 0xdd, 0x18, 0x3f, 
  0x4a, 0x9b, 0xbd, 0x3d, 0x58, 0x2b, 0x4e, 0x3e, 0xf7, 0x05, 0xfa, 0xbe, 
  0xac, 0x0d, 0x4c, 0xbf, 0x25, 0x2d, 0x28, 0xbf, 0x8a, 0x91, 0x4c, 0xbe, 
  0x44, 0x16, 0x5f, 0x3f, 0x41, 0x74, 0x22, 0xbe, 0xa8, 0x2b, 0x0f, 0x3e, 
  0xbd, 0x34, 0x17, 0x3f, 0xf0, 0x74, 0x03, 0xbe, 0x87, 0x41, 0x45, 0xbd, 
  0x18, 0x2f, 0xd8, 0x3e, 0x46, 0x07, 0xf0, 0xbd, 0x81, 0x3d, 0x99, 0x3d, 
  0x11, 0x5c, 0x73, 0x3e, 0x00, 0x80, 0xc0, 0xbe, 0x19, 0x4c, 0x1a, 0xc0, 
  0x4e, 0x60, 0x23, 0xbe, 0xc1, 0x31, 0xab, 0xbe, 0x4e, 0x69, 0x38, 0x3f, 
  0xc6, 0xf0, 0xae, 0x3d, 0xc5, 0xd0, 0x49, 0x3e, 0x10, 0x98, 0x4d, 0xbe, 
  0x04, 0xa8, 0xbd, 0x3e, 0x40, 0x64, 0x38, 0xbe, 0xcf, 0x3c, 0x18, 0xbf, 
  0x47, 0xf1, 0x01, 0x3f, 0xd8, 0x7f, 0x83, 0x3e, 0x69, 0xa9, 0xb5, 0xbf, 
  0x9b, 0x12, 0xfd, 0x3d, 0x07, 0xb4, 0x8e, 0xbe, 0x5d, 0x28, 0x0f, 0xbe, 
  0x46, 0x3e, 0x3b, 0xbe, 0x8f, 0x17, 0x2a, 0x3f, 0xd6, 0x2a, 0x98, 0xbe, 
  0xbd, 0xd7, 0xd9, 0xbb, 0xd5, 0x9a, 0xb7, 0xbf, 0x71, 0x91, 0xa9, 0xbf, 
  0xa2, 0x9b, 0x5c, 0xbf, 0x46, 0xea, 0xdd, 0x3e, 0x0f, 0x4d, 0xba, 0xbd, 
  0x46, 0x88, 0x7d, 0xbd, 0xe3, 0x73, 0xe8, 0xbc, 0x7f, 0x54, 0x8d, 0xbe, 
  0x60, 0xd8, 0xb4, 0xbe, 0xb1, 0xf2, 0x6e, 0xbe, 0xb2, 0xf0, 0x47, 0xbb, 
  0xa6, 0x0d, 0x63, 0xbf, 0x23, 0xca, 0x0a, 0xbf, 0xb1, 0x2a, 0x0c, 0xbe, 
  0x32, 0x74, 0xaf, 0x3e, 0x81, 0xf7, 0xf7, 0xbe, 0x3b, 0xe2, 0xa1, 0x3c, 
  0xe0, 0xe8, 0x78, 0xbc, 0x65, 0x57, 0x21, 0xbe, 0x21, 0x88, 0xfc, 0x3d, 
  0xbe, 0xbc, 0x45, 0x3e, 0x88, 0x0b, 0x64, 0xbf, 0x7a, 0xcd, 0x05, 0xbe, 
  0xc8, 0x1a, 0x81, 0xbf, 0xbb, 0x43, 0x82, 0x3f, 0xd6, 0x4f, 0x4f, 0x3f, 
  0x68, 0x3f, 0x0c, 0xbf, 0x9e, 0xc1, 0xcd, 0xbe, 0x21, 0x6e, 0xb3, 0xbf, 
  0x4f, 0x6c, 0x19, 0xbe, 0x30, 0xd5, 0x1a, 0x3d, 0x88, 0x32, 0x42, 0x3f, 
  0x53, 0xc2, 0xcb, 0x3e, 0xd7, 0x44, 0x31, 0xbd, 0xc1, 0x67, 0x3e, 0xbd, 
  0x51, 0x4a, 0xef, 0x3d, 0x3e, 0x20, 0xa8, 0xbc, 0x33, 0x65, 0xbd, 0xbe, 
  0xe2, 0x8f, 0x8f, 0x3e, 0x05, 0x7d, 0xe6, 0xbe, 0x50, 0x0a, 0x08, 0xbf, 
  0x00, 0xa8, 0x6e, 0x3d, 0xbd, 0x61, 0x1e, 0x3f, 0x4e, 0xa7, 0x8c, 0x3f, 
  0xfd, 0xad, 0xaa, 0x3e, 0x00, 0x0f, 0x11, 0x3e, 0xcc, 0xa4, 0x21, 0x3a, 
  0x8d, 0x41, 0x9b, 0x3e, 0x38, 0x59, 0x99, 0xbd, 0x28, 0xf2, 0xf7, 0xbe, 
  0x45, 0xa4, 0xe4, 0xbc, 0x4e, 0x42, 0x17, 0xbf, 0xf6, 0x7c, 0x07, 0x3e, 
  0x9c, 0x8d, 0x09, 0xbf, 0xa4, 0x02, 0x1f, 0xbf, 0x32, 0xd1, 0xf8, 0xbd, 
  0x44, 0xaa, 0xbe, 0x3e, 0x6a, 0x97, 0xb6, 0x3d, 0x90, 0x72, 0x91, 0x3e, 
  0x24, 0x66, 0xa4, 0x3d, 0x06, 0xe5, 0xb2, 0xbf, 0xab, 0xb6, 0xc8, 0x3e, 
  0x3f, 0x68, 0xae, 0xbc, 0x59, 0x4d, 0x94, 0x3e, 0x24, 0xe3, 0x45, 0x3c, 
  0x67, 0x1a, 0x93, 0xbe, 0xfa, 0xae, 0x71, 0x3b, 0x2c, 0x39, 0xb9, 0x3d, 
  0xcb, 0x68, 0x74, 0x3f, 0x0c, 0xf4, 0x22, 0xbe, 0xc1, 0x26, 0x95, 0x3d, 
  0xf7, 0x23, 0x90, 0x3b, 0x76, 0x15, 0x34, 0x3d, 0x9d, 0x54, 0x8a, 0x3e, 
  0xda, 0xd7, 0x79, 0x3d, 0xe4, 0x4d, 0x1c, 0xbe, 0x24, 0xe8, 0x37, 0x3e, 
  0xc0, 0xbe, 0x2c, 0x3e, 0xcb, 0x43, 0xa0, 0x3f, 0xb9, 0xf0, 0xa3, 0x3f, 
  0xa0, 0xf7, 0x42, 0xb9, 0xde, 0x19, 0xc5, 0x3e, 0x24, 0x0d, 0x63, 0x3e, 
  0x68, 0x35, 0x31, 0x3e, 0x22, 0xc2, 0x19, 0x3e, 0xba, 0x8f, 0xc8, 0x3f, 
  0x29, 0x52, 0xb7, 0x3e, 0xce, 0x8c, 0x92, 0xbc, 0x67, 0x90, 0x89, 0xbe, 
  0x3b, 0xe8, 0x4f, 0x3f, 0xc3, 0x4d, 0xd1, 0xbd, 0x56, 0xa7, 0x49, 0x3e, 
  0x08, 0x7e, 0xe1, 0xbf, 0x2d, 0xec, 0x6c, 0x3e, 0xd3, 0x03, 0x85, 0xbe, 
  0x0d, 0x98, 0x5e, 0x3f, 0xcd, 0x4b, 0xd7, 0xbe, 0x20, 0x06, 0x32, 0xbf, 
  0xae, 0x62, 0x0d, 0xbf, 0x10, 0xc2, 0x37, 0x3c, 0xd8, 0x6e, 0x7e, 0xbe, 
  0x8c, 0x19, 0xdd, 0x3d, 0x18, 0x62, 0x56, 0xbf, 0x82, 0x2c, 0x2f, 0x3e, 
  0xab, 0x56, 0xc5, 0x3e, 0x8b, 0xe5, 0xce, 0x3e, 0x14, 0xb3, 0xf9, 0xbe, 
  0x7e, 0xa9, 0x11, 0xbf, 0xf7, 0x37, 0x80, 0x3e, 0x37, 0xfb, 0x50, 0x3e, 
  0x86, 0x7c, 0x4b, 0xbd, 0xb7, 0x47, 0x88, 0xbe, 0x4b, 0xba, 0x83, 0xbf, 
  0xbb, 0x4c, 0x9c, 0x3e, 0x33, 0x35, 0xe1, 0xbd, 0x66, 0x17, 0x23, 0x3d, 
  0xb5, 0x98, 0x3b, 0x3f, 0x34, 0x4f, 0xc3, 0xbf, 0x6f, 0x5b, 0x06, 0x3f, 
  0xe2, 0x2a, 0xa0, 0xbd, 0x0f, 0xaa, 0xac, 0xbd, 0x44, 0x45, 0x0f, 0xbf, 
  0x10, 0x01, 0x08, 0xbf, 0xcc, 0x22, 0x9e, 0x3e, 0x6f, 0x66, 0x8e, 0xbe, 
  0xe7, 0xc5, 0x84, 0x3e, 0x40, 0xbf, 0x63, 0xbe, 0x69, 0xb3, 0xac, 0x3f, 
  0x5c, 0x1b, 0x7d, 0xbe, 0xa1, 0x96, 0x3b, 0x3f, 0x22, 0xce, 0x2b, 0xbf, 
  0x1c, 0x5f, 0xb3, 0x3e, 0x0f, 0xf0, 0x95, 0x3d, 0xb9, 0xeb, 0x21, 0x3f, 
  0x07, 0x90, 0xde, 0xbe, 0x0b, 0xa3, 0x6b, 0xbf, 0x8e, 0x6b, 0x22, 0x3e, 
  0x6d, 0xf5, 0x75, 0x3e, 0xc6, 0xeb, 0x89, 0xbe, 0x54, 0xda, 0x35, 0xbf, 
  0x4a, 0x8a, 0x74, 0xbd, 0xd5, 0x55, 0x52, 0x3e, 0xe7, 0x9f, 0xd8, 0x3e, 
  0x7f, 0xa8, 0xa5, 0xbd, 0xe4, 0x41, 0x75, 0xbf, 0xf5, 0xb5, 0x76, 0x3e, 
  0x66, 0xaf, 0x0b, 0xbe, 0x49, 0xd5, 0x62, 0xbe, 0xb6, 0x0e, 0xfc, 0xbe, 
  0x29, 0xa6, 0xd2, 0x3e, 0xf3, 0x83, 0xd5, 0xbf, 0x51, 0x7a, 0x95, 0xbe, 
  0x82, 0xbf, 0xf3, 0x3e, 0x81, 0x56, 0x1f, 0x3f, 0xc6, 0x41, 0xa6, 0xbd, 
  0xce, 0xcf, 0xb1, 0xbd, 0xf3, 0x00, 0xa8, 0x3e, 0x9d, 0x64, 0xcd, 0xbe, 
  0x3b, 0x6d, 0x83, 0xbd, 0x42, 0x53, 0xea, 0x3c, 0x17, 0x1d, 0xc7, 0x3e, 
  0x84, 0x58, 0x11, 0x3f, 0x82, 0xec, 0x9f, 0x3f, 0x80, 0x96, 0xe8, 0x3f, 
  0xd6, 0xab, 0x4d, 0x3d, 0x9d, 0x74, 0xa5, 0xbe, 0x4a, 0xf3, 0x20, 0x3f, 
  0xc4, 0x8b, 0x70, 0x3e, 0xd1, 0x1d, 0x31, 0x3e, 0xef, 0x60, 0xfe, 0x3e, 
  0xce, 0x48, 0x48, 0x3f, 0x09, 0xe8, 0x01, 0xbf, 0x03, 0xd0, 0xd9, 0x3e, 
  0x0d, 0x9d, 0x27, 0x3f, 0x5b, 0x6e, 0x61, 0xbf, 0x9f, 0x4c, 0x2d, 0xbf, 
  0xcc, 0x4e, 0x37, 0x3f, 0x1c, 0xef, 0x68, 0x3f, 0x95, 0xda, 0x0a, 0x3e, 
  0x08, 0x9f, 0x55, 0xbe, 0x80, 0x27, 0x3f, 0xbf, 0x95, 0x3b, 0xae, 0x3e, 
  0x47, 0x68, 0xd9, 0x3d, 0x8c, 0xcf, 0x4f, 0xbe, 0x6c, 0x0e, 0xb9, 0x3e, 
  0x17, 0x69, 0x6c, 0x3e, 0xb9, 0x68, 0xe3, 0xbe, 0x6d, 0x04, 0x95, 0x3f, 
  0x07, 0xa4, 0x38, 0xbd, 0x73, 0x85, 0xb3, 0x3e, 0xd1, 0x65, 0xd0, 0x3e, 
  0x8f, 0x3d, 0xfe, 0x3e, 0xfa, 0xab, 0x8c, 0x3d, 0xb2, 0x63, 0x03, 0x3f, 
  0x59, 0x8d, 0xb7, 0xbd, 0xef, 0x96, 0x82, 0x3f, 0x69, 0x6c, 0x44, 0xbf, 
  0xa7, 0x89, 0x59, 0x3f, 0xe8, 0x22, 0x05, 0xc0, 0xbb, 0x75, 0x0f, 0x3f, 
  0xb8, 0x2a, 0x93, 0x3e, 0x7f, 0x40, 0x8b, 0xbe, 0x49, 0x1d, 0x89, 0x3f, 
  0x0e, 0xb7, 0xa9, 0x3f, 0x64, 0xb8, 0xaa, 0xbd, 0x52, 0xd9, 0xf2, 0xbe, 
  0xba, 0xa9, 0x47, 0xbf, 0xf8, 0xf6, 0x2d, 0x3a, 0xb5, 0xbe, 0xb9, 0xbc, 
  0x6e, 0x42, 0xc9, 0x3e, 0xb1, 0x89, 0xbb, 0xbe, 0x5e, 0x29, 0x0a, 0xbf, 
  0x9b, 0x8f, 0x8a, 0x3e, 0x9d, 0x76, 0xf0, 0x3c, 0x91, 0x01, 0xc2, 0xbc, 
  0xfc, 0xca, 0x85, 0xbf, 0x1a, 0x9e, 0x38, 0x3f, 0x5d, 0xc2, 0xaf, 0xbe, 
  0x32, 0x8e, 0x1e, 0xbf, 0xbc, 0x62, 0x06, 0xbf, 0x07, 0x7d, 0x37, 0x3f, 
  0xd1, 0xb3, 0xbb, 0x3e, 0xa9, 0x4b, 0x6d, 0x3f, 0x7b, 0xe8, 0x10, 0xbe, 
  0xce, 0xfe, 0xff, 0xff, 0x04, 0x00, 0x00, 0x00, 0x18, 0x00, 0x00, 0x00, 
  0xa2, 0x51, 0x90, 0xbe, 0x77, 0x10, 0xc5, 0xbe, 0xca, 0xc9, 0x8b, 0xbf, 
  0xcf, 0x3c, 0x50, 0x3e, 0xfa, 0x67, 0x0b, 0xbe, 0xe6, 0xaa, 0x6c, 0x3f, 
  0xf2, 0xfe, 0xff, 0xff, 0x04, 0x00, 0x00, 0x00, 0x70, 0x00, 0x00, 0x00, 
  0x53, 0xd4, 0xea, 0xbe, 0xa9, 0xb2, 0x11, 0xbf, 0x01, 0xdd, 0xa9, 0xbf, 
  0x59, 0x6e, 0x9a, 0xbd, 0x70, 0xa9, 0x12, 0x3e, 0xfc, 0xf1, 0x18, 0xbe, 
  0x0c, 0x28, 0x2b, 0x3e, 0x6a, 0x77, 0xd1, 0xbe, 0xdb, 0x55, 0x74, 0xbe, 
  0x71, 0x24, 0x91, 0xbe, 0x9f, 0xf8, 0xcf, 0xbe, 0xe2, 0x8a, 0xf9, 0xbe, 
  0xa8, 0xee, 0x30, 0xbf, 0x13, 0xe5, 0xc4, 0x3e, 0x5a, 0x93, 0x94, 0xbf, 
  0x32, 0x6d, 0x9e, 0xbf, 0x2d, 0xe3, 0xca, 0xbe, 0x14, 0xa2, 0x8f, 0xbf, 
  0xdd, 0xf3, 0x12, 0x3e, 0x8c, 0x0d, 0xb9, 0xbf, 0x7d, 0x53, 0x91, 0xbe, 
  0x76, 0x5b, 0x6d, 0xbf, 0xaa, 0xaa, 0x7f, 0xbe, 0x7b, 0xf4, 0xc7, 0xbe, 
  0xbb, 0x7d, 0x8d, 0xbf, 0xd8, 0xef, 0x81, 0xbf, 0xb1, 0x71, 0x25, 0x3e, 
  0xdc, 0x0a, 0x93, 0xbf, 0xf4, 0xfb, 0xff, 0xff, 0xf8, 0xfb, 0xff, 0xff, 
  0x0f, 0x00, 0x00, 0x00, 0x4d, 0x4c, 0x49, 0x52, 0x20, 0x43, 0x6f, 0x6e, 
  0x76, 0x65, 0x72, 0x74, 0x65, 0x64, 0x2e, 0x00, 0x01, 0x00, 0x00, 0x00, 
  0x14, 0x00, 0x00, 0x00, 0x00, 0x00, 0x0e, 0x00, 0x18, 0x00, 0x14, 0x00, 
  0x10, 0x00, 0x0c, 0x00, 0x08, 0x00, 0x04, 0x00, 0x0e, 0x00, 0x00, 0x00, 
  0x14, 0x00, 0x00, 0x00, 0x1c, 0x00, 0x00, 0x00, 0xec, 0x00, 0x00, 0x00, 
  0xf0, 0x00, 0x00, 0x00, 0xf4, 0x00, 0x00, 0x00, 0x04, 0x00, 0x00, 0x00, 
  0x6d, 0x61, 0x69, 0x6e, 0x00, 0x00, 0x00, 0x00, 0x03, 0x00, 0x00, 0x00, 
  0x94, 0x00, 0x00, 0x00, 0x50, 0x00, 0x00, 0x00, 0x14, 0x00, 0x00, 0x00, 
  0x00, 0x00, 0x0e, 0x00, 0x1a, 0x00, 0x14, 0x00, 0x10, 0x00, 0x0c, 0x00, 
  0x0b, 0x00, 0x04, 0x00, 0x0e, 0x00, 0x00, 0x00, 0x1c, 0x00, 0x00, 0x00, 
  0x00, 0x00, 0x00, 0x09, 0x1c, 0x00, 0x00, 0x00, 0x20, 0x00, 0x00, 0x00, 
  0x01, 0x00, 0x00, 0x00, 0x00, 0x00, 0x06, 0x00, 0x08, 0x00, 0x04, 0x00, 
  0x06, 0x00, 0x00, 0x00, 0x00, 0x00, 0x80, 0x3f, 0x01, 0x00, 0x00, 0x00, 
  0x07, 0x00, 0x00, 0x00, 0x01, 0x00, 0x00, 0x00, 0x06, 0x00, 0x00, 0x00, 
  0xce, 0xff, 0xff, 0xff, 0x10, 0x00, 0x00, 0x00, 0x00, 0x00, 0x00, 0x08, 
  0x0c, 0x00, 0x00, 0x00, 0x10, 0x00, 0x00, 0x00, 0xb8, 0xfc, 0xff, 0xff, 
  0x01, 0x00, 0x00, 0x00, 0x06, 0x00, 0x00, 0x00, 0x03, 0x00, 0x00, 0x00, 
  0x05, 0x00, 0x00, 0x00, 0x04, 0x00, 0x00, 0x00, 0x02, 0x00, 0x00, 0x00, 
  0x00, 0x00, 0x0e, 0x00, 0x16, 0x00, 0x00, 0x00, 0x10, 0x00, 0x0c, 0x00, 
  0x0b, 0x00, 0x04, 0x00, 0x0e, 0x00, 0x00, 0x00, 0x18, 0x00, 0x00, 0x00, 
  0x00, 0x00, 0x00, 0x08, 0x18, 0x00, 0x00, 0x00, 0x1c, 0x00, 0x00, 0x00, 
  0x00, 0x00, 0x06, 0x00, 0x08, 0x00, 0x07, 0x00, 0x06, 0x00, 0x00, 0x00, 
  0x00, 0x00, 0x00, 0x01, 0x01, 0x00, 0x00, 0x00, 0x05, 0x00, 0x00, 0x00, 
  0x03, 0x00, 0x00, 0x00, 0x00, 0x00, 0x00, 0x00, 0x03, 0x00, 0x00, 0x00, 
  0x01, 0x00, 0x00, 0x00, 0x01, 0x00, 0x00, 0x00, 0x07, 0x00, 0x00, 0x00, 
  0x01, 0x00, 0x00, 0x00, 0x00, 0x00, 0x00, 0x00, 0x08, 0x00, 0x00, 0x00, 
  0xa8, 0x02, 0x00, 0x00, 0x44, 0x02, 0x00, 0x00, 0xe0, 0x01, 0x00, 0x00, 
  0x9c, 0x01, 0x00, 0x00, 0x54, 0x01, 0x00, 0x00, 0xd0, 0x00, 0x00, 0x00, 
  0x5c, 0x00, 0x00, 0x00, 0x04, 0x00, 0x00, 0x00, 0x8c, 0xfd, 0xff, 0xff, 
  0x14, 0x00, 0x00, 0x00, 0x1c, 0x00, 0x00, 0x00, 0x1c, 0x00, 0x00, 0x00, 
  0x08, 0x00, 0x00, 0x00, 0x34, 0x00, 0x00, 0x00, 0x02, 0x00, 0x00, 0x00, 
  0xff, 0xff, 0xff, 0xff, 0x06, 0x00, 0x00, 0x00, 0x78, 0xfd, 0xff, 0xff, 
  0x19, 0x00, 0x00, 0x00, 0x53, 0x74, 0x61, 0x74, 0x65, 0x66, 0x75, 0x6c, 
  0x50, 0x61, 0x72, 0x74, 0x69, 0x74, 0x69, 0x6f, 0x6e, 0x65, 0x64, 0x43, 
  0x61, 0x6c, 0x6c, 0x3a, 0x30, 0x00, 0x00, 0x00, 0x02, 0x00, 0x00, 0x00, 
  0x01, 0x00, 0x00, 0x00, 0x06, 0x00, 0x00, 0x00, 0xe0, 0xfd, 0xff, 0xff, 
  0x14, 0x00, 0x00, 0x00, 0x1c, 0x00, 0x00, 0x00, 0x1c, 0x00, 0x00, 0x00, 
  0x07, 0x00, 0x00, 0x00, 0x50, 0x00, 0x00, 0x00, 0x02, 0x00, 0x00, 0x00, 
  0xff, 0xff, 0xff, 0xff, 0x06, 0x00, 0x00, 0x00, 0xcc, 0xfd, 0xff, 0xff, 
  0x34, 0x00, 0x00, 0x00, 0x73, 0x65, 0x71, 0x75, 0x65, 0x6e, 0x74, 0x69, 
  0x61, 0x6c, 0x2f, 0x64, 0x65, 0x6e, 0x73, 0x65, 0x5f, 0x31, 0x2f, 0x4d, 
  0x61, 0x74, 0x4d, 0x75, 0x6c, 0x3b, 0x73, 0x65, 0x71, 0x75, 0x65, 0x6e, 
  0x74, 0x69, 0x61, 0x6c, 0x2f, 0x64, 0x65, 0x6e, 0x73, 0x65, 0x5f, 0x31, 
  0x2f, 0x42, 0x69, 0x61, 0x73, 0x41, 0x64, 0x64, 0x00, 0x00, 0x00, 0x00, 
  0x02, 0x00, 0x00, 0x00, 0x01, 0x00, 0x00, 0x00, 0x06, 0x00, 0x00, 0x00, 
  0x50, 0xfe, 0xff, 0xff, 0x14, 0x00, 0x00, 0x00, 0x1c, 0x00, 0x00, 0x00, 
  0x1c, 0x00, 0x00, 0x00, 0x06, 0x00, 0x00, 0x00, 0x60, 0x00, 0x00, 0x00, 
  0x02, 0x00, 0x00, 0x00, 0xff, 0xff, 0xff, 0xff, 0x1c, 0x00, 0x00, 0x00, 
  0x3c, 0xfe, 0xff, 0xff, 0x46, 0x00, 0x00, 0x00, 0x73, 0x65, 0x71, 0x75, 
  0x65, 0x6e, 0x74, 0x69, 0x61, 0x6c, 0x2f, 0x64, 0x65, 0x6e, 0x73, 0x65, 
  0x2f, 0x4d, 0x61, 0x74, 0x4d, 0x75, 0x6c, 0x3b, 0x73, 0x65, 0x71, 0x75, 
  0x65, 0x6e, 0x74, 0x69, 0x61, 0x6c, 0x2f, 0x64, 0x65, 0x6e, 0x73, 0x65, 
  0x2f, 0x52, 0x65, 0x6c, 0x75, 0x3b, 0x73, 0x65, 0x71, 0x75, 0x65, 0x6e, 
  0x74, 0x69, 0x61, 0x6c, 0x2f, 0x64, 0x65, 0x6e, 0x73, 0x65, 0x2f, 0x42, 
  0x69, 0x61, 0x73, 0x41, 0x64, 0x64, 0x00, 0x00, 0x02, 0x00, 0x00, 0x00, 
  0x01, 0x00, 0x00, 0x00, 0x1c, 0x00, 0x00, 0x00, 0x2a, 0xff, 0xff, 0xff, 
  0x10, 0x00, 0x00, 0x00, 0x10, 0x00, 0x00, 0x00, 0x05, 0x00, 0x00, 0x00, 
  0x28, 0x00, 0x00, 0x00, 0xac, 0xfe, 0xff, 0xff, 0x19, 0x00, 0x00, 0x00, 
  0x73, 0x65, 0x71, 0x75, 0x65, 0x6e, 0x74, 0x69, 0x61, 0x6c, 0x2f, 0x64, 
  0x65, 0x6e, 0x73, 0x65, 0x5f, 0x31, 0x2f, 0x4d, 0x61, 0x74, 0x4d, 0x75, 
  0x6c, 0x00, 0x00, 0x00, 0x02, 0x00, 0x00, 0x00, 0x06, 0x00, 0x00, 0x00, 
  0x1c, 0x00, 0x00, 0x00, 0x6e, 0xff, 0xff, 0xff, 0x10, 0x00, 0x00, 0x00, 
  0x10, 0x00, 0x00, 0x00, 0x04, 0x00, 0x00, 0x00, 0x24, 0x00, 0x00, 0x00, 
  0xf0, 0xfe, 0xff, 0xff, 0x17, 0x00, 0x00, 0x00, 0x73, 0x65, 0x71, 0x75, 
  0x65, 0x6e, 0x74, 0x69, 0x61, 0x6c, 0x2f, 0x64, 0x65, 0x6e, 0x73, 0x65, 
  0x2f, 0x4d, 0x61, 0x74, 0x4d, 0x75, 0x6c, 0x00, 0x02, 0x00, 0x00, 0x00, 
  0x1c, 0x00, 0x00, 0x00, 0x1c, 0x00, 0x00, 0x00, 0xae, 0xff, 0xff, 0xff, 
  0x10, 0x00, 0x00, 0x00, 0x10, 0x00, 0x00, 0x00, 0x03, 0x00, 0x00, 0x00, 
  0x38, 0x00, 0x00, 0x00, 0x30, 0xff, 0xff, 0xff, 0x29, 0x00, 0x00, 0x00, 
  0x73, 0x65, 0x71, 0x75, 0x65, 0x6e, 0x74, 0x69, 0x61, 0x6c, 0x2f, 0x64, 
  0x65, 0x6e, 0x73, 0x65, 0x5f, 0x31, 0x2f, 0x42, 0x69, 0x61, 0x73, 0x41, 
  0x64, 0x64, 0x2f, 0x52, 0x65, 0x61, 0x64, 0x56, 0x61, 0x72, 0x69, 0x61, 
  0x62, 0x6c, 0x65, 0x4f, 0x70, 0x00, 0x00, 0x00, 0x01, 0x00, 0x00, 0x00, 
  0x06, 0x00, 0x00, 0x00, 0x00, 0x00, 0x0e, 0x00, 0x14, 0x00, 0x10, 0x00, 
  0x00, 0x00, 0x0c, 0x00, 0x08, 0x00, 0x04, 0x00, 0x0e, 0x00, 0x00, 0x00, 
  0x10, 0x00, 0x00, 0x00, 0x10, 0x00, 0x00, 0x00, 0x02, 0x00, 0x00, 0x00, 
  0x34, 0x00, 0x00, 0x00, 0x90, 0xff, 0xff, 0xff, 0x27, 0x00, 0x00, 0x00, 
  0x73, 0x65, 0x71, 0x75, 0x65, 0x6e, 0x74, 0x69, 0x61, 0x6c, 0x2f, 0x64, 
  0x65, 0x6e, 0x73, 0x65, 0x2f, 0x42, 0x69, 0x61, 0x73, 0x41, 0x64, 0x64, 
  0x2f, 0x52, 0x65, 0x61, 0x64, 0x56, 0x61, 0x72, 0x69, 0x61, 0x62, 0x6c, 
  0x65, 0x4f, 0x70, 0x00, 0x01, 0x00, 0x00, 0x00, 0x1c, 0x00, 0x00, 0x00, 
  0x14, 0x00, 0x18, 0x00, 0x14, 0x00, 0x00, 0x00, 0x10, 0x00, 0x0c, 0x00, 
  0x08, 0x00, 0x00, 0x00, 0x00, 0x00, 0x04, 0x00, 0x14, 0x00, 0x00, 0x00, 
  0x14, 0x00, 0x00, 0x00, 0x20, 0x00, 0x00, 0x00, 0x20, 0x00, 0x00, 0x00, 
  0x01, 0x00, 0x00, 0x00, 0x38, 0x00, 0x00, 0x00, 0x02, 0x00, 0x00, 0x00, 
  0xff, 0xff, 0xff, 0xff, 0x1c, 0x00, 0x00, 0x00, 0x04, 0x00, 0x04, 0x00, 
  0x04, 0x00, 0x00, 0x00, 0x19, 0x00, 0x00, 0x00, 0x73, 0x65, 0x72, 0x76, 
  0x69, 0x6e, 0x67, 0x5f, 0x64, 0x65, 0x66, 0x61, 0x75, 0x6c, 0x74, 0x5f, 
  0x69, 0x6e, 0x70, 0x75, 0x74, 0x5f, 0x31, 0x3a, 0x30, 0x00, 0x00, 0x00, 
  0x02, 0x00, 0x00, 0x00, 0x01, 0x00, 0x00, 0x00, 0x1c, 0x00, 0x00, 0x00, 
  0x02, 0x00, 0x00, 0x00, 0x20, 0x00, 0x00, 0x00, 0x04, 0x00, 0x00, 0x00, 
  0xf4, 0xff, 0xff, 0xff, 0x19, 0x00, 0x00, 0x00, 0x00, 0x00, 0x00, 0x19, 
  0x0c, 0x00, 0x0c, 0x00, 0x0b, 0x00, 0x00, 0x00, 0x00, 0x00, 0x04, 0x00, 
  0x0c, 0x00, 0x00, 0x00, 0x09, 0x00, 0x00, 0x00, 0x00, 0x00, 0x00, 0x09, 
};
unsigned int tflite_model_len = 5580;

#define INPUT_TENSOR_SIZE 28
#define OUTPUT_TENSOR_SIZE 6

const float input_scale[] = {
  0.763813, 2.325066, 0.709674, 0.260920, 
  1.686037, 2.483624, 2.173343, 1.218594, 
  1.300534, 2.816501, 1.733089, 1.693226, 
  0.627617, 1.159725, 0.941194, 0.697095, 
  0.433418, 0.334767, 0.434541, 0.442303, 
  2.920897, 3.524570, 7.169586, 7.170832, 
  0.868954, 0.759425, 0.760158, 0.744707, 
};

const float input_offset[] = {
  -0.271761, 0.320692, 9.390757, 9.943088, 
  -1.785630, -1.492248, 7.882841, 8.548902, 
  0.963141, 2.256534, 11.103216, 11.512787, 
  0.725190, 1.133705, 0.782044, 0.672577, 
  3.329193, 3.377549, 3.322912, 3.303347, 
  1.835055, 2.099727, 4.250511, 4.484773, 
  1.953448, 1.988956, 2.116512, 2.139863, 
};
