unsigned char tflite_model[] = {
  0x1c, 0x00, 0x00, 0x00, 0x54, 0x46, 0x4c, 0x33, 0x14, 0x00, 0x20, 0x00, 
  0x1c, 0x00, 0x18, 0x00, 0x14, 0x00, 0x10, 0x00, 0x0c, 0x00, 0x00, 0x00, 
  0x08, 0x00, 0x04, 0x00, 0x14, 0x00, 0x00, 0x00, 0x1c, 0x00, 0x00, 0x00, 
  0x8c, 0x00, 0x00, 0x00, 0xe4, 0x00, 0x00, 0x00, 0x88, 0x03, 0x00, 0x00, 
  0x98, 0x03, 0x00, 0x00, 0xb8, 0x07, 0x00, 0x00, 0x03, 0x00, 0x00, 0x00, 
  0x01, 0x00, 0x00, 0x00, 0x10, 0x00, 0x00, 0x00, 0x00, 0x00, 0x0a, 0x00, 
  0x10, 0x00, 0x0c, 0x00, 0x08, 0x00, 0x04, 0x00, 0x0a, 0x00, 0x00, 0x00, 
  0x0c, 0x00, 0x00, 0x00, 0x1c, 0x00, 0x00, 0x00, 0x38, 0x00, 0x00, 0x00, 
  0x0f, 0x00, 0x00, 0x00, 0x73, 0x65, 0x72, 0x76, 0x69, 0x6e, 0x67, 0x5f, 
  0x64, 0x65, 0x66, 0x61, 0x75, 0x6c, 0x74, 0x00, 0x01, 0x00, 0x00, 0x00, 
  0x04, 0x00, 0x00, 0x00, 0x9c, 0xff, 0xff, 0xff, 0x07, 0x00, 0x00, 0x00, 
  0x04, 0x00, 0x00, 0x00, 0x07, 0x00, 0x00, 0x00, 0x64, 0x65, 0x6e, 0x73, 
  0x65, 0x5f, 0x31, 0x00, 0x01, 0x00, 0x00, 0x00, 0x04, 0x00, 0x00, 0x00, 
  0x5e, 0xfc, 0xff, 0xff, 0x04, 0x00, 0x00, 0x00, 0x07, 0x00, 0x00, 0x00, 
  0x69, 0x6e, 0x70, 0x75, 0x74, 0x5f, 0x31, 0x00, 0x02, 0x00, 0x00, 0x00, 
  0x34, 0x00, 0x00, 0x00, 0x04, 0x00, 0x00, 0x00, 0xdc, 0xff, 0xff, 0xff, 
  0x0a, 0x00, 0x00, 0x00, 0x04, 0x00, 0x00, 0x00, 0x13, 0x00, 0x00, 0x00, 
  0x43, 0x4f, 0x4e, 0x56, 0x45, 0x52, 0x53, 0x49, 0x4f, 0x4e, 0x5f, 0x4d, 
  0x45, 0x54, 0x41, 0x44, 0x41, 0x54, 0x41, 0x00, 0x08, 0x00, 0x0c, 0x00, 
  0x08, 0x00, 0x04, 0x00, 0x08, 0x00, 0x00, 0x00, 0x09, 0x00, 0x00, 0x00, 
  0x04, 0x00, 0x00, 0x00, 0x13, 0x00, 0x00, 0x00, 0x6d, 0x69, 0x6e, 0x5f, 
  0x72, 0x75, 0x6e, 0x74, 0x69, 0x6d, 0x65, 0x5f, 0x76, 0x65, 0x72, 0x73, 
  0x69, 0x6f, 0x6e, 0x00, 0x0b, 0x00, 0x00, 0x00, 0xa0, 0x02, 0x00, 0x00, 
  0x98, 0x02, 0x00, 0x00, 0x68, 0x02, 0x00, 0x00, 0x40, 0x02, 0x00, 0x00, 
  0x70, 0x01, 0x00, 0x00, 0xa0, 0x00, 0x00, 0x00, 0x98, 0x00, 0x00, 0x00, 
  0x90, 0x00, 0x00, 0x00, 0x88, 0x00, 0x00, 0x00, 0x68, 0x00, 0x00, 0x00, 
  0x04, 0x00, 0x00, 0x00, 0xfe, 0xfc, 0xff, 0xff, 0x04, 0x00, 0x00, 0x00, 
  0x54, 0x00, 0x00, 0x00, 0x0c, 0x00, 0x00, 0x00, 0x08, 0x00, 0x0e, 0x00, 
  0x08, 0x00, 0x04, 0x00, 0x08, 0x00, 0x00, 0x00, 0x10, 0x00, 0x00, 0x00, 
  0x24, 0x00, 0x00, 0x00, 0x00, 0x00, 0x06, 0x00, 0x08, 0x00, 0x04, 0x00, 
  0x06, 0x00, 0x00, 0x00, 0x04, 0x00, 0x00, 0x00, 0x00, 0x00, 0x00, 0x00, 
  0x00, 0x00, 0x0a, 0x00, 0x10, 0x00, 0x0c, 0x00, 0x08, 0x00, 0x04, 0x00, 
  0x0a, 0x00, 0x00, 0x00, 0x02, 0x00, 0x00, 0x00, 0x02, 0x00, 0x00, 0x00, 
  0x04, 0x00, 0x00, 0x00, 0x05, 0x00, 0x00, 0x00, 0x32, 0x2e, 0x39, 0x2e, 
  0x31, 0x00, 0x00, 0x00, 0x5e, 0xfd, 0xff, 0xff, 0x04, 0x00, 0x00, 0x00, 
  0x10, 0x00, 0x00, 0x00, 0x31, 0x2e, 0x35, 0x2e, 0x30, 0x00, 0x00, 0x00, 
  0x00, 0x00, 0x00, 0x00, 0x00, 0x00, 0x00, 0x00, 0x00, 0xfa, 0xff, 0xff, 
  0x04, 0xfa, 0xff, 0xff, 0x08, 0xfa, 0xff, 0xff, 0x86, 0xfd, 0xff, 0xff, 
  0x04, 0x00, 0x00, 0x00, 0xc0, 0x00, 0x00, 0x00, 0xd3, 0x22, 0xb7, 0xbf, 
  0xca, 0x8c, 0x84, 0x3f, 0x35, 0x63, 0xc3, 0xbf, 0x48, 0x15, 0xa8, 0x3e, 
  0xf6, 0x80, 0x2b, 0xbf, 0x57, 0xd5, 0xb7, 0x3f, 0xab, 0x63, 0x2a, 0xbf, 
  0x96, 0xb5, 0xfc, 0x3e, 0x2b, 0xfb, 0xeb, 0x3f, 0xa1, 0x3c, 0xf4, 0xbf, 
  0x39, 0xfd, 0x90, 0xbf, 0x87, 0xf4, 0x28, 0xc0, 0xd0, 0x2c, 0x31, 0x3e, 
  0x74, 0x1e, 0x5b, 0x3e, 0x68, 0xf7, 0x30, 0x3f, 0xfc, 0x78, 0x4d, 0x40, 
  0xa9, 0xa3, 0x65, 0xc0, 0x58, 0xc9, 0x78, 0xc0, 0xbd, 0x40, 0xb0, 0x3f, 
  0x0d, 0x46, 0x6e, 0x3f, 0x4f, 0x21, 0x33, 0xc0, 0x2b, 0x2c, 0xcd, 0xbf, 
  0x8a, 0xa7, 0x4a, 0xc0, 0xe3, 0x02, 0x45, 0xc0, 0xbd, 0x4e, 0xaa, 0xbe, 
  0x93, 0x20, 0x2f, 0x3f, 0x24, 0xec, 0x8d, 0x3c, 0x69, 0x66, 0xe0, 0x3e, 
  0xe6, 0x5c, 0x8c, 0xbf, 0xf6, 0x08, 0x1e, 0xc0, 0x62, 0x75, 0xf7, 0x3b, 
  0x9a, 0x0a, 0x41, 0x40, 0x94, 0x47, 0x6b, 0x3f, 0x3a, 0x67, 0x96, 0x3e, 
  0x11, 0x4d, 0x0a, 0xc0, 0x09, 0x9b, 0x3b, 0x3f, 0x1f, 0xcd, 0x75, 0x3f, 
  0x59, 0xd7, 0x1a, 0x3f, 0x24, 0xb4, 0xcd, 0x3f, 0xf5, 0x31, 0xdb, 0xbf, 
  0x62, 0xe4, 0xaa, 0x3e, 0xe9, 0xa8, 0x81, 0xbe, 0xbc, 0x43, 0x41, 0x3f, 
  0xc8, 0x34, 0xfa, 0xbf, 0x81, 0x06, 0x79, 0x3e, 0x36, 0xc9, 0x3a, 0x3f, 
  0x47, 0xfe, 0x8f, 0x3f, 0x94, 0x86, 0x91, 0xbf, 0x52, 0xfe, 0xff, 0xff, 
  0x04, 0x00, 0x00, 0x00, 0xc0, 0x00, 0x00, 0x00, 0x18, 0x5f, 0x4b, 0xbf, 
  0x71, 0x75, 0x39, 0x40, 0x60, 0x3c, 0x38, 0xbf, 0xd7, 0x28, 0xe7, 0x3e, 
  0xcb, 0xb3, 0x9d, 0xbf, 0x7f, 0x13, 0x69, 0x3f, 0x82, 0x1f, 0x74, 0xbf, 
  0xef, 0x60, 0xd1, 0xbf, 0x75, 0xa4, 0x99, 0x3e, 0x17, 0x12, 0x27, 0x3f, 
  0x61, 0x25, 0x22, 0x3f, 0xbc, 0xb2, 0x8f, 0x3f, 0x65, 0x7d, 0xbc, 0xbe, 
  0xbc, 0xb3, 0xb7, 0x3d, 0xdd, 0x9f, 0x04, 0x40, 0xf5, 0x8d, 0x51, 0xbe, 
  0xcc, 0x39, 0x1a, 0xc0, 0x56, 0xe3, 0x87, 0xbf, 0xed, 0x35, 0xca, 0xbf, 
  0xdc, 0x38, 0xd2, 0xbf, 0xfd, 0x18, 0x99, 0x3f, 0x03, 0x32, 0x9f, 0xbf, 
  0xfa, 0xf1, 0x4b, 0xbf, 0xbb, 0x98, 0x9d, 0x3e, 0x60, 0x62, 0xc8, 0x3f, 
  0x3a, 0xed, 0xb6, 0x3e, 0x1b, 0x50, 0xf6, 0xbf, 0x24, 0xce, 0x47, 0xbf, 
  0x94, 0xb9, 0xb3, 0xbc, 0x72, 0x52, 0x3b, 0xbf, 0x85, 0xae, 0x99, 0xbe, 
  0xfa, 0x86, 0x5e, 0xc0, 0xb4, 0xc4, 0xc2, 0xbc, 0x63, 0x83, 0x09, 0xbe, 
  0x77, 0x73, 0x03, 0x3f, 0xdf, 0x05, 0x1a, 0xbf, 0x4e, 0x26, 0x30, 0xbf, 
  0x8e, 0x18, 0x1f, 0xbe, 0xf6, 0x6c, 0x15, 0x40, 0x76, 0x3c, 0xbb, 0xbe, 
  0x4c, 0xa9, 0x78, 0x3f, 0xec, 0x8e, 0xbc, 0x3f, 0x86, 0xaf, 0xf7, 0xbe, 
  0xc8, 0x32, 0xf0, 0xbd, 0x3c, 0x5e, 0xeb, 0xbf, 0xf5, 0x86, 0x37, 0xc0, 
  0x3a, 0x7b, 0x1d, 0x3e, 0xaf, 0x81, 0xf4, 0xbd, 0x1e, 0xff, 0xff, 0xff, 
  0x04, 0x00, 0x00, 0x00, 0x18, 0x00, 0x00, 0x00, 0x23, 0x43, 0x03, 0xc0, 
  0x45, 0xb7, 0xe9, 0xbf, 0xf1, 0x99, 0x1c, 0xbd, 0x93, 0x9b, 0x60, 0x3f, 
  0xe1, 0xef, 0x00, 0x3f, 0x71, 0x1d, 0xa9, 0x3f, 0x42, 0xff, 0xff, 0xff, 
  0x04, 0x00, 0x00, 0x00, 0x20, 0x00, 0x00, 0x00, 0xdc, 0xe7, 0x8e, 0x3f, 
  0x2a, 0x67, 0x77, 0x3f, 0xcc, 0x2b, 0x9f, 0xbf, 0x7e, 0x3d, 0x3b, 0xbd, 
  0x2a, 0x99, 0xd9, 0x3c, 0xbe, 0x47, 0x30, 0xbe, 0x96, 0xcb, 0xe4, 0xbe, 
  0x31, 0xe8, 0x60, 0xbf, 0xf4, 0xfb, 0xff, 0xff, 0xf8, 0xfb, 0xff, 0xff, 
  0x0f, 0x00, 0x00, 0x00, 0x4d, 0x4c, 0x49, 0x52, 0x20, 0x43, 0x6f, 0x6e, 
  0x76, 0x65, 0x72, 0x74, 0x65, 0x64, 0x2e, 0x00, 0x01, 0x00, 0x00, 0x00, 
  0x14, 0x00, 0x00, 0x00, 0x00, 0x00, 0x0e, 0x00, 0x18, 0x00, 0x14, 0x00, 
  0x10, 0x00, 0x0c, 0x00, 0x08, 0x00, 0x04, 0x00, 0x0e, 0x00, 0x00, 0x00, 
  0x14, 0x00, 0x00, 0x00, 0x1c, 0x00, 0x00, 0x00, 0xec, 0x00, 0x00, 0x00, 
  0xf0, 0x00, 0x00, 0x00, 0xf4, 0x00, 0x00, 0x00, 0x04, 0x00, 0x00, 0x00, 
  0x6d, 0x61, 0x69, 0x6e, 0x00, 0x00, 0x00, 0x00, 0x03, 0x00, 0x00, 0x00, 
  0x94, 0x00, 0x00, 0x00, 0x50, 0x00, 0x00, 0x00, 0x14, 0x00, 0x00, 0x00, 
  0x00, 0x00, 0x0e, 0x00, 0x1a, 0x00, 0x14, 0x00, 0x10, 0x00, 0x0c, 0x00, 
  0x0b, 0x00, 0x04, 0x00, 0x0e, 0x00, 0x00, 0x00, 0x1c, 0x00, 0x00, 0x00, 
  0x00, 0x00, 0x00, 0x09, 0x1c, 0x00, 0x00, 0x00, 0x20, 0x00, 0x00, 0x00, 
  0x01, 0x00, 0x00, 0x00, 0x00, 0x00, 0x06, 0x00, 0x08, 0x00, 0x04, 0x00, 
  0x06, 0x00, 0x00, 0x00, 0x00, 0x00, 0x80, 0x3f, 0x01, 0x00, 0x00, 0x00, 
  0x07, 0x00, 0x00, 0x00, 0x01, 0x00, 0x00, 0x00, 0x06, 0x00, 0x00, 0x00, 
  0xce, 0xff, 0xff, 0xff, 0x10, 0x00, 0x00, 0x00, 0x00, 0x00, 0x00, 0x08, 
  0x0c, 0x00, 0x00, 0x00, 0x10, 0x00, 0x00, 0x00, 0xb8, 0xfc, 0xff, 0xff, 
  0x01, 0x00, 0x00, 0x00, 0x06, 0x00, 0x00, 0x00, 0x03, 0x00, 0x00, 0x00, 
  0x05, 0x00, 0x00, 0x00, 0x04, 0x00, 0x00, 0x00, 0x02, 0x00, 0x00, 0x00, 
  0x00, 0x00, 0x0e, 0x00, 0x16, 0x00, 0x00, 0x00, 0x10, 0x00, 0x0c, 0x00, 
  0x0b, 0x00, 0x04, 0x00, 0x0e, 0x00, 0x00, 0x00, 0x18, 0x00, 0x00, 0x00, 
  0x00, 0x00, 0x00, 0x08, 0x18, 0x00, 0x00, 0x00, 0x1c, 0x00, 0x00, 0x00, 
  0x00, 0x00, 0x06, 0x00, 0x08, 0x00, 0x07, 0x00, 0x06, 0x00, 0x00, 0x00, 
  0x00, 0x00, 0x00, 0x01, 0x01, 0x00, 0x00, 0x00, 0x05, 0x00, 0x00, 0x00, 
  0x03, 0x00, 0x00, 0x00, 0x00, 0x00, 0x00, 0x00, 0x03, 0x00, 0x00, 0x00, 
  0x01, 0x00, 0x00, 0x00, 0x01, 0x00, 0x00, 0x00, 0x07, 0x00, 0x00, 0x00, 
  0x01, 0x00, 0x00, 0x00, 0x00, 0x00, 0x00, 0x00, 0x08, 0x00, 0x00, 0x00, 
  0xa8, 0x02, 0x00, 0x00, 0x44, 0x02, 0x00, 0x00, 0xe0, 0x01, 0x00, 0x00, 
  0x9c, 0x01, 0x00, 0x00, 0x54, 0x01, 0x00, 0x00, 0xd0, 0x00, 0x00, 0x00, 
  0x5c, 0x00, 0x00, 0x00, 0x04, 0x00, 0x00, 0x00, 0x8c, 0xfd, 0xff, 0xff, 
  0x14, 0x00, 0x00, 0x00, 0x1c, 0x00, 0x00, 0x00, 0x1c, 0x00, 0x00, 0x00, 
  0x08, 0x00, 0x00, 0x00, 0x34, 0x00, 0x00, 0x00, 0x02, 0x00, 0x00, 0x00, 
  0xff, 0xff, 0xff, 0xff, 0x06, 0x00, 0x00, 0x00, 0x78, 0xfd, 0xff, 0xff, 
  0x19, 0x00, 0x00, 0x00, 0x53, 0x74, 0x61, 0x74, 0x65, 0x66, 0x75, 0x6c, 
  0x50, 0x61, 0x72, 0x74, 0x69, 0x74, 0x69, 0x6f, 0x6e, 0x65, 0x64, 0x43, 
  0x61, 0x6c, 0x6c, 0x3a, 0x30, 0x00, 0x00, 0x00, 0x02, 0x00, 0x00, 0x00, 
  0x01, 0x00, 0x00, 0x00, 0x06, 0x00, 0x00, 0x00, 0xe0, 0xfd, 0xff, 0xff, 
  0x14, 0x00, 0x00, 0x00, 0x1c, 0x00, 0x00, 0x00, 0x1c, 0x00, 0x00, 0x00, 
  0x07, 0x00, 0x00, 0x00, 0x50, 0x00, 0x00, 0x00, 0x02, 0x00, 0x00, 0x00, 
  0xff, 0xff, 0xff, 0xff, 0x06, 0x00, 0x00, 0x00, 0xcc, 0xfd, 0xff, 0xff, 
  0x34, 0x00, 0x00, 0x00, 0x73, 0x65, 0x71, 0x75, 0x65, 0x6e, 0x74, 0x69, 
  0x61, 0x6c, 0x2f, 0x64, 0x65, 0x6e, 0x73, 0x65, 0x5f, 0x31, 0x2f, 0x4d, 
  0x61, 0x74, 0x4d, 0x75, 0x6c, 0x3b, 0x73, 0x65, 0x71, 0x75, 0x65, 0x6e, 
  0x74, 0x69, 0x61, 0x6c, 0x2f, 0x64, 0x65, 0x6e, 0x73, 0x65, 0x5f, 0x31, 
  0x2f, 0x42, 0x69, 0x61, 0x73, 0x41, 0x64, 0x64, 0x00, 0x00, 0x00, 0x00, 
  0x02, 0x00, 0x00, 0x00, 0x01, 0x00, 0x00, 0x00, 0x06, 0x00, 0x00, 0x00, 
  0x50, 0xfe, 0xff, 0xff, 0x14, 0x00, 0x00, 0x00, 0x1c, 0x00, 0x00, 0x00, 
  0x1c, 0x00, 0x00, 0x00, 0x06, 0x00, 0x00, 0x00, 0x60, 0x00, 0x00, 0x00, 
  0x02, 0x00, 0x00, 0x00, 0xff, 0xff, 0xff, 0xff, 0x08, 0x00, 0x00, 0x00, 
  0x3c, 0xfe, 0xff, 0xff, 0x46, 0x00, 0x00, 0x00, 0x73, 0x65, 0x71, 0x75, 
  0x65, 0x6e, 0x74, 0x69, 0x61, 0x6c, 0x2f, 0x64, 0x65, 0x6e, 0x73, 0x65, 
  0x2f, 0x4d, 0x61, 0x74, 0x4d, 0x75, 0x6c, 0x3b, 0x73, 0x65, 0x71, 0x75, 
  0x65, 0x6e, 0x74, 0x69, 0x61, 0x6c, 0x2f, 0x64, 0x65, 0x6e, 0x73, 0x65, 
  0x2f, 0x52, 0x65, 0x6c, 0x75, 0x3b, 0x73, 0x65, 0x71, 0x75, 0x65, 0x6e, 
  0x74, 0x69, 0x61, 0x6c, 0x2f, 0x64, 0x65, 0x6e, 0x73, 0x65, 0x2f, 0x42, 
  0x69, 0x61, 0x73, 0x41, 0x64, 0x64, 0x00, 0x00, 0x02, 0x00, 0x00, 0x00, 
  0x01, 0x00, 0x00, 0x00, 0x08, 0x00, 0x00, 0x00, 0x2a, 0xff, 0xff, 0xff, 
  0x10, 0x00, 0x00, 0x00, 0x10, 0x00, 0x00, 0x00, 0x05, 0x00, 0x00, 0x00, 
  0x28, 0x00, 0x00, 0x00, 0xac, 0xfe, 0xff, 0xff, 0x19, 0x00, 0x00, 0x00, 
  0x73, 0x65, 0x71, 0x75, 0x65, 0x6e, 0x74, 0x69, 0x61, 0x6c, 0x2f, 0x64, 
  0x65, 0x6e, 0x73, 0x65, 0x5f, 0x31, 0x2f, 0x4d, 0x61, 0x74, 0x4d, 0x75, 
  0x6c, 0x00, 0x00, 0x00, 0x02, 0x00, 0x00, 0x00, 0x06, 0x00, 0x00, 0x00, 
  0x08, 0x00, 0x00, 0x00, 0x6e, 0xff, 0xff, 0xff, 0x10, 0x00, 0x00, 0x00, 
  0x10, 0x00, 0x00, 0x00, 0x04, 0x00, 0x00, 0x00, 0x24, 0x00, 0x00, 0x00, 
  0xf0, 0xfe, 0xff, 0xff, 0x17, 0x00, 0x00, 0x00, 0x73, 0x65, 0x71, 0x75, 
  0x65, 0x6e, 0x74, 0x69, 0x61, 0x6c, 0x2f, 0x64, 0x65, 0x6e, 0x73, 0x65, 
  0x2f, 0x4d, 0x61, 0x74, 0x4d, 0x75, 0x6c, 0x00, 0x02, 0x00, 0x00, 0x00, 
  0x08, 0x00, 0x00, 0x00, 0x06, 0x00, 0x00, 0x00, 0xae, 0xff, 0xff, 0xff, 
  0x10, 0x00, 0x00, 0x00, 0x10, 0x00, 0x00, 0x00, 0x03, 0x00, 0x00, 0x00, 
  0x38, 0x00, 0x00, 0x00, 0x30, 0xff, 0xff, 0xff, 0x29, 0x00, 0x00, 0x00, 
  0x73, 0x65, 0x71, 0x75, 0x65, 0x6e, 0x74, 0x69, 0x61, 0x6c, 0x2f, 0x64, 
  0x65, 0x6e, 0x73, 0x65, 0x5f, 0x31, 0x2f, 0x42, 0x69, 0x61, 0x73, 0x41, 
  0x64, 0x64, 0x2f, 0x52, 0x65, 0x61, 0x64, 0x56, 0x61, 0x72, 0x69, 0x61, 
  0x62, 0x6c, 0x65, 0x4f, 0x70, 0x00, 0x00, 0x00, 0x01, 0x00, 0x00, 0x00, 
  0x06, 0x00, 0x00, 0x00, 0x00, 0x00, 0x0e, 0x00, 0x14, 0x00, 0x10, 0x00, 
  0x00, 0x00, 0x0c, 0x00, 0x08, 0x00, 0x04, 0x00, 0x0e, 0x00, 0x00, 0x00, 
  0x10, 0x00, 0x00, 0x00, 0x10, 0x00, 0x00, 0x00, 0x02, 0x00, 0x00, 0x00, 
  0x34, 0x00, 0x00, 0x00, 0x90, 0xff, 0xff, 0xff, 0x27, 0x00, 0x00, 0x00, 
  0x73, 0x65, 0x71, 0x75, 0x65, 0x6e, 0x74, 0x69, 0x61, 0x6c, 0x2f, 0x64, 
  0x65, 0x6e, 0x73, 0x65, 0x2f, 0x42, 0x69, 0x61, 0x73, 0x41, 0x64, 0x64, 
  0x2f, 0x52, 0x65, 0x61, 0x64, 0x56, 0x61, 0x72, 0x69, 0x61, 0x62, 0x6c, 
  0x65, 0x4f, 0x70, 0x00, 0x01, 0x00, 0x00, 0x00, 0x08, 0x00, 0x00, 0x00, 
  0x14, 0x00, 0x18, 0x00, 0x14, 0x00, 0x00, 0x00, 0x10, 0x00, 0x0c, 0x00, 
  0x08, 0x00, 0x00, 0x00, 0x00, 0x00, 0x04, 0x00, 0x14, 0x00, 0x00, 0x00, 
  0x14, 0x00, 0x00, 0x00, 0x20, 0x00, 0x00, 0x00, 0x20, 0x00, 0x00, 0x00, 
  0x01, 0x00, 0x00, 0x00, 0x38, 0x00, 0x00, 0x00, 0x02, 0x00, 0x00, 0x00, 
  0xff, 0xff, 0xff, 0xff, 0x06, 0x00, 0x00, 0x00, 0x04, 0x00, 0x04, 0x00, 
  0x04, 0x00, 0x00, 0x00, 0x19, 0x00, 0x00, 0x00, 0x73, 0x65, 0x72, 0x76, 
  0x69, 0x6e, 0x67, 0x5f, 0x64, 0x65, 0x66, 0x61, 0x75, 0x6c, 0x74, 0x5f, 
  0x69, 0x6e, 0x70, 0x75, 0x74, 0x5f, 0x31, 0x3a, 0x30, 0x00, 0x00, 0x00, 
  0x02, 0x00, 0x00, 0x00, 0x01, 0x00, 0x00, 0x00, 0x06, 0x00, 0x00, 0x00, 
  0x02, 0x00, 0x00, 0x00, 0x20, 0x00, 0x00, 0x00, 0x04, 0x00, 0x00, 0x00, 
  0xf4, 0xff, 0xff, 0xff, 0x19, 0x00, 0x00, 0x00, 0x00, 0x00, 0x00, 0x19, 
  0x0c, 0x00, 0x0c, 0x00, 0x0b, 0x00, 0x00, 0x00, 0x00, 0x00, 0x04, 0x00, 
  0x0c, 0x00, 0x00, 0x00, 0x09, 0x00, 0x00, 0x00, 0x00, 0x00, 0x00, 0x09, 
};
unsigned int tflite_model_len = 2076;

#define INPUT_TENSOR_SIZE 6
#define OUTPUT_TENSOR_SIZE 6

const float input_scale[] = {
  0.763813, 2.325066, 0.709674, 0.260920, 
  1.686037, 2.483624, 2.173343, 1.218594, 
  1.300534, 2.816501, 1.733089, 1.693226, 
  0.627617, 1.159725, 0.941194, 0.697095, 
  0.433418, 0.334767, 0.434541, 0.442303, 
  2.920897, 3.524570, 7.169586, 7.170832, 
  0.868954, 0.759425, 0.760158, 0.744707, 
};

const float input_offset[] = {
  -0.271761, 0.320692, 9.390757, 9.943088, 
  -1.785630, -1.492248, 7.882841, 8.548902, 
  0.963141, 2.256534, 11.103216, 11.512787, 
  0.725190, 1.133705, 0.782044, 0.672577, 
  3.329193, 3.377549, 3.322912, 3.303347, 
  1.835055, 2.099727, 4.250511, 4.484773, 
  1.953448, 1.988956, 2.116512, 2.139863, 
};
