unsigned char tflite_model[] = {
  0x1c, 0x00, 0x00, 0x00, 0x54, 0x46, 0x4c, 0x33, 0x14, 0x00, 0x20, 0x00, 
  0x1c, 0x00, 0x18, 0x00, 0x14, 0x00, 0x10, 0x00, 0x0c, 0x00, 0x00, 0x00, 
  0x08, 0x00, 0x04, 0x00, 0x14, 0x00, 0x00, 0x00, 0x1c, 0x00, 0x00, 0x00, 
  0x8c, 0x00, 0x00, 0x00, 0xe4, 0x00, 0x00, 0x00, 0xe8, 0x04, 0x00, 0x00, 
  0xf8, 0x04, 0x00, 0x00, 0x18, 0x09, 0x00, 0x00, 0x03, 0x00, 0x00, 0x00, 
  0x01, 0x00, 0x00, 0x00, 0x10, 0x00, 0x00, 0x00, 0x00, 0x00, 0x0a, 0x00, 
  0x10, 0x00, 0x0c, 0x00, 0x08, 0x00, 0x04, 0x00, 0x0a, 0x00, 0x00, 0x00, 
  0x0c, 0x00, 0x00, 0x00, 0x1c, 0x00, 0x00, 0x00, 0x38, 0x00, 0x00, 0x00, 
  0x0f, 0x00, 0x00, 0x00, 0x73, 0x65, 0x72, 0x76, 0x69, 0x6e, 0x67, 0x5f, 
  0x64, 0x65, 0x66, 0x61, 0x75, 0x6c, 0x74, 0x00, 0x01, 0x00, 0x00, 0x00, 
  0x04, 0x00, 0x00, 0x00, 0x9c, 0xff, 0xff, 0xff, 0x07, 0x00, 0x00, 0x00, 
  0x04, 0x00, 0x00, 0x00, 0x07, 0x00, 0x00, 0x00, 0x64, 0x65, 0x6e, 0x73, 
  0x65, 0x5f, 0x31, 0x00, 0x01, 0x00, 0x00, 0x00, 0x04, 0x00, 0x00, 0x00, 
  0xfe, 0xfa, 0xff, 0xff, 0x04, 0x00, 0x00, 0x00, 0x07, 0x00, 0x00, 0x00, 
  0x69, 0x6e, 0x70, 0x75, 0x74, 0x5f, 0x31, 0x00, 0x02, 0x00, 0x00, 0x00, 
  0x34, 0x00, 0x00, 0x00, 0x04, 0x00, 0x00, 0x00, 0xdc, 0xff, 0xff, 0xff, 
  0x0a, 0x00, 0x00, 0x00, 0x04, 0x00, 0x00, 0x00, 0x13, 0x00, 0x00, 0x00, 
  0x43, 0x4f, 0x4e, 0x56, 0x45, 0x52, 0x53, 0x49, 0x4f, 0x4e, 0x5f, 0x4d, 
  0x45, 0x54, 0x41, 0x44, 0x41, 0x54, 0x41, 0x00, 0x08, 0x00, 0x0c, 0x00, 
  0x08, 0x00, 0x04, 0x00, 0x08, 0x00, 0x00, 0x00, 0x09, 0x00, 0x00, 0x00, 
  0x04, 0x00, 0x00, 0x00, 0x13, 0x00, 0x00, 0x00, 0x6d, 0x69, 0x6e, 0x5f, 
  0x72, 0x75, 0x6e, 0x74, 0x69, 0x6d, 0x65, 0x5f, 0x76, 0x65, 0x72, 0x73, 
  0x69, 0x6f, 0x6e, 0x00, 0x0b, 0x00, 0x00, 0x00, 0x00, 0x04, 0x00, 0x00, 
  0xf8, 0x03, 0x00, 0x00, 0xb8, 0x03, 0x00, 0x00, 0x90, 0x03, 0x00, 0x00, 
  0xd0, 0x01, 0x00, 0x00, 0xa0, 0x00, 0x00, 0x00, 0x98, 0x00, 0x00, 0x00, 
  0x90, 0x00, 0x00, 0x00, 0x88, 0x00, 0x00, 0x00, 0x68, 0x00, 0x00, 0x00, 
  0x04, 0x00, 0x00, 0x00, 0x9e, 0xfb, 0xff, 0xff, 0x04, 0x00, 0x00, 0x00, 
  0x54, 0x00, 0x00, 0x00, 0x0c, 0x00, 0x00, 0x00, 0x08, 0x00, 0x0e, 0x00, 
  0x08, 0x00, 0x04, 0x00, 0x08, 0x00, 0x00, 0x00, 0x10, 0x00, 0x00, 0x00, 
  0x24, 0x00, 0x00, 0x00, 0x00, 0x00, 0x06, 0x00, 0x08, 0x00, 0x04, 0x00, 
  0x06, 0x00, 0x00, 0x00, 0x04, 0x00, 0x00, 0x00, 0x00, 0x00, 0x00, 0x00, 
  0x00, 0x00, 0x0a, 0x00, 0x10, 0x00, 0x0c, 0x00, 0x08, 0x00, 0x04, 0x00, 
  0x0a, 0x00, 0x00, 0x00, 0x02, 0x00, 0x00, 0x00, 0x02, 0x00, 0x00, 0x00, 
  0x04, 0x00, 0x00, 0x00, 0x05, 0x00, 0x00, 0x00, 0x32, 0x2e, 0x39, 0x2e, 
  0x31, 0x00, 0x00, 0x00, 0xfe, 0xfb, 0xff, 0xff, 0x04, 0x00, 0x00, 0x00, 
  0x10, 0x00, 0x00, 0x00, 0x31, 0x2e, 0x35, 0x2e, 0x30, 0x00, 0x00, 0x00, 
  0x00, 0x00, 0x00, 0x00, 0x00, 0x00, 0x00, 0x00, 0xa0, 0xf8, 0xff, 0xff, 
  0xa4, 0xf8, 0xff, 0xff, 0xa8, 0xf8, 0xff, 0xff, 0x26, 0xfc, 0xff, 0xff, 
  0x04, 0x00, 0x00, 0x00, 0x20, 0x01, 0x00, 0x00, 0xc5, 0x64, 0x38, 0x3f, 
  0x6c, 0x15, 0x28, 0xbf, 0x51, 0xc4, 0x57, 0x3f, 0x05, 0x99, 0x11, 0xc0, 
  0x45, 0x08, 0x8b, 0xbe, 0x45, 0xa6, 0xad, 0xbe, 0x27, 0x34, 0x4b, 0xbf, 
  0x8d, 0xdf, 0x29, 0xbf, 0xe2, 0xe9, 0x8c, 0xbf, 0x60, 0x5c, 0x48, 0xbe, 
  0xa1, 0x16, 0x6e, 0x3f, 0x7b, 0x0e, 0xd3, 0xbf, 0xb5, 0x7c, 0xe3, 0xbf, 
  0x61, 0xc1, 0x12, 0xc0, 0xf4, 0xbb, 0xc7, 0xbf, 0xa8, 0xc9, 0x77, 0x3f, 
  0x5e, 0x24, 0xcc, 0xbd, 0xb7, 0x31, 0xb5, 0xbe, 0xf9, 0x12, 0x34, 0x3f, 
  0x9c, 0x88, 0x7e, 0x3f, 0x27, 0x39, 0xb5, 0xbf, 0xb6, 0x32, 0x3b, 0x3f, 
  0xec, 0xa9, 0x0c, 0xbe, 0xca, 0x45, 0xb6, 0x3f, 0x68, 0x66, 0x84, 0x3f, 
  0xea, 0xbd, 0x02, 0x3f, 0xaf, 0x8a, 0xf9, 0xbf, 0xcd, 0xa4, 0x94, 0x3f, 
  0x00, 0x4e, 0x9f, 0xbf, 0xaa, 0x90, 0xaf, 0xbf, 0x20, 0x6b, 0xdb, 0xbf, 
  0xb1, 0xdc, 0x50, 0xc0, 0xc0, 0x2b, 0x17, 0xc0, 0x43, 0x6f, 0xf6, 0xbf, 
  0x53, 0x57, 0x88, 0xbf, 0x32, 0x70, 0x42, 0x3e, 0xd2, 0xf9, 0x25, 0x3f, 
  0xc8, 0x39, 0x0b, 0xbf, 0x75, 0x88, 0x90, 0x3f, 0x60, 0x49, 0xc3, 0xbc, 
  0x84, 0x40, 0xb8, 0x3d, 0x5a, 0xa5, 0x29, 0x3f, 0x26, 0x7b, 0xb7, 0xbf, 
  0xaf, 0xe9, 0xf6, 0x3f, 0x9d, 0xf1, 0xe4, 0x3e, 0x81, 0x45, 0xf6, 0xbf, 
  0x7f, 0xab, 0x08, 0xc0, 0xe8, 0x75, 0x26, 0xbe, 0x72, 0xa0, 0x51, 0xbf, 
  0xda, 0xee, 0xe5, 0x3e, 0xd0, 0xf1, 0x02, 0x3f, 0x6a, 0x05, 0x85, 0x3f, 
  0xff, 0xc2, 0x8d, 0x3f, 0xfb, 0xed, 0x34, 0x3e, 0x73, 0x6c, 0x8a, 0x3f, 
  0x98, 0xaf, 0xad, 0xbf, 0xd8, 0x41, 0x08, 0x3f, 0x70, 0x17, 0xcb, 0x3e, 
  0xb8, 0x0e, 0x08, 0x3e, 0x5b, 0x08, 0xa3, 0xbf, 0x20, 0xbf, 0x1b, 0xbf, 
  0x75, 0x58, 0x99, 0x3f, 0xd5, 0x13, 0x5c, 0x3e, 0x02, 0x3e, 0x98, 0xbf, 
  0x48, 0xf1, 0x43, 0xbf, 0x50, 0x8e, 0x58, 0x3e, 0x4c, 0x78, 0x1a, 0xbf, 
  0x40, 0x2f, 0x82, 0x3f, 0xd4, 0x29, 0xd4, 0x3e, 0x59, 0x49, 0xc3, 0xbe, 
  0x7a, 0xc5, 0x90, 0xbf, 0x25, 0x35, 0x4b, 0x3f, 0x52, 0xfd, 0xff, 0xff, 
  0x04, 0x00, 0x00, 0x00, 0xb0, 0x01, 0x00, 0x00, 0x38, 0x36, 0xc7, 0xbe, 
  0x3c, 0x64, 0x93, 0xbf, 0x6d, 0x7b, 0xbe, 0x3f, 0x31, 0xe4, 0x8e, 0xbf, 
  0x08, 0x79, 0x11, 0x3e, 0x23, 0x4e, 0xe4, 0xbe, 0x29, 0x74, 0x02, 0x3f, 
  0xb5, 0xbb, 0xcb, 0x3f, 0x37, 0xe0, 0x06, 0x3f, 0x28, 0x58, 0xac, 0x3f, 
  0x27, 0x6f, 0x5c, 0xbe, 0x8e, 0x31, 0x53, 0x3e, 0xc2, 0x43, 0xa2, 0xbf, 
  0x84, 0x00, 0x4e, 0x3e, 0xc7, 0xc6, 0x4c, 0x3e, 0x39, 0xe7, 0x24, 0xbf, 
  0x99, 0x36, 0x3e, 0x3f, 0x01, 0x91, 0xab, 0x3e, 0xae, 0xa1, 0xf0, 0xbf, 
  0x44, 0x2e, 0x9a, 0xbf, 0x49, 0xdc, 0x52, 0xbe, 0xac, 0x99, 0xa0, 0xbe, 
  0xdd, 0x21, 0xa6, 0xbe, 0x94, 0x20, 0x52, 0xbf, 0x81, 0x87, 0x9e, 0xbd, 
  0x5e, 0xfb, 0xd6, 0x3e, 0x7a, 0xd5, 0x56, 0xbf, 0xfc, 0xe9, 0xfd, 0xbf, 
  0xe6, 0xfc, 0xc4, 0x3e, 0xe9, 0x45, 0xbe, 0x3e, 0x38, 0x0b, 0x8d, 0xbf, 
  0x91, 0x79, 0xd5, 0xbd, 0x0d, 0xaa, 0x59, 0x3b, 0x00, 0xa5, 0x45, 0x3f, 
  0x6c, 0xbe, 0x0d, 0xba, 0x8e, 0xd2, 0x50, 0x3e, 0xad, 0xbd, 0x2f, 0x3e, 
  0x6f, 0xb4, 0x91, 0x3f, 0x75, 0x8f, 0xe2, 0xbd, 0x0c, 0x72, 0x3b, 0xbe, 
  0x2e, 0x6c, 0xf3, 0x3e, 0x6b, 0x40, 0xaa, 0x3e, 0x86, 0x4d, 0x46, 0xbf, 
  0x4e, 0x0f, 0x35, 0x3e, 0xc9, 0x95, 0xa6, 0xbf, 0x33, 0xe4, 0x89, 0x3d, 
  0x63, 0xab, 0x51, 0x3f, 0x5b, 0x0d, 0x8e, 0x3f, 0x58, 0x37, 0x38, 0x3f, 
  0xf3, 0xdb, 0x5e, 0x3e, 0x55, 0x05, 0x8e, 0x3d, 0x29, 0x75, 0x45, 0xbd, 
  0x7a, 0x5f, 0x75, 0x3d, 0x18, 0xdc, 0x95, 0xbe, 0x92, 0x45, 0x88, 0xbe, 
  0x99, 0x84, 0x3f, 0x3f, 0x4b, 0x73, 0xfc, 0x3e, 0xf8, 0x77, 0x5f, 0x3e, 
  0x95, 0xd0, 0x5e, 0x3f, 0xc8, 0xa9, 0x09, 0x3f, 0x4d, 0x6c, 0x8e, 0xbf, 
  0x61, 0xee, 0x9d, 0x3f, 0x8f, 0xf2, 0xbf, 0xbd, 0x30, 0x2a, 0x24, 0xbe, 
  0x5a, 0xa6, 0xbc, 0x3f, 0xe0, 0x29, 0x60, 0xbf, 0x1d, 0xab, 0x15, 0xc0, 
  0x06, 0xf8, 0x16, 0xbe, 0xbb, 0x9f, 0xd0, 0xbe, 0x09, 0x21, 0x90, 0x3e, 
  0xe6, 0x5c, 0x9d, 0x3e, 0xa8, 0xd2, 0x89, 0xbf, 0xcc, 0xb2, 0xd0, 0x3e, 
  0x6e, 0x46, 0x92, 0x3c, 0x11, 0x98, 0xcb, 0x3e, 0x67, 0x0d, 0x83, 0xbe, 
  0xb3, 0x5f, 0x08, 0xbf, 0x5e, 0x86, 0xb8, 0xbd, 0x52, 0xa4, 0x15, 0xbf, 
  0x53, 0x4a, 0x70, 0xbe, 0xd3, 0xaa, 0x71, 0xbf, 0xc3, 0x7f, 0x1b, 0x3d, 
  0x07, 0x40, 0x17, 0x40, 0x7a, 0xfc, 0xb6, 0x3e, 0x2e, 0xd8, 0x41, 0xbf, 
  0x7c, 0x0c, 0xfb, 0xbe, 0x96, 0x14, 0xce, 0x3e, 0xd7, 0xe5, 0x0d, 0xbe, 
  0xfc, 0x4b, 0x37, 0xbf, 0xf4, 0x63, 0x1d, 0xbf, 0x1c, 0x0c, 0x4e, 0xbf, 
  0x3c, 0xc3, 0x2f, 0xc0, 0x49, 0xcb, 0xce, 0x3e, 0xa1, 0x50, 0x23, 0x3c, 
  0xd9, 0xd9, 0x76, 0x3f, 0xaa, 0xe6, 0x06, 0xbf, 0xd2, 0x76, 0x9c, 0x3e, 
  0x9b, 0x62, 0x1e, 0x3e, 0x74, 0x34, 0x91, 0xbe, 0x13, 0x96, 0x04, 0xbe, 
  0xf4, 0xf0, 0xbc, 0x3f, 0xa8, 0x7f, 0x9b, 0x3e, 0x6e, 0xfc, 0xec, 0x3e, 
  0xfa, 0x25, 0xea, 0xbe, 0x0b, 0xd8, 0x79, 0xbf, 0x93, 0x37, 0xf0, 0x3e, 
  0xdb, 0x13, 0xa7, 0x3e, 0x13, 0x03, 0xb6, 0x3d, 0x0e, 0xff, 0xff, 0xff, 
  0x04, 0x00, 0x00, 0x00, 0x18, 0x00, 0x00, 0x00, 0x71, 0xa6, 0x57, 0xbe, 
  0xdb, 0xa1, 0x1e, 0xbe, 0x94, 0x3e, 0x1c, 0xbf, 0x73, 0x3f, 0x3f, 0x3f, 
  0x48, 0x09, 0x08, 0xbf, 0x3e, 0xdf, 0x0a, 0x3f, 0x32, 0xff, 0xff, 0xff, 
  0x04, 0x00, 0x00, 0x00, 0x30, 0x00, 0x00, 0x00, 0xc5, 0x80, 0x13, 0xbc, 
  0x7f, 0xe7, 0xdd, 0x3c, 0xd0, 0x7d, 0xb0, 0x3e, 0xb2, 0x36, 0xad, 0x3d, 
  0xac, 0x84, 0xae, 0xbe, 0xd1, 0x10, 0x0f, 0x3f, 0x91, 0x99, 0x18, 0xbf, 
  0x93, 0x84, 0x03, 0xbd, 0x7e, 0x38, 0xc0, 0x3f, 0x9a, 0x2e, 0x0c, 0x3f, 
  0xbb, 0xe5, 0x10, 0x3f, 0x24, 0xfa, 0x5b, 0x3f, 0xf4, 0xfb, 0xff, 0xff, 
  0xf8, 0xfb, 0xff, 0xff, 0x0f, 0x00, 0x00, 0x00, 0x4d, 0x4c, 0x49, 0x52, 
  0x20, 0x43, 0x6f, 0x6e, 0x76, 0x65, 0x72, 0x74, 0x65, 0x64, 0x2e, 0x00, 
  0x01, 0x00, 0x00, 0x00, 0x14, 0x00, 0x00, 0x00, 0x00, 0x00, 0x0e, 0x00, 
  0x18, 0x00, 0x14, 0x00, 0x10, 0x00, 0x0c, 0x00, 0x08, 0x00, 0x04, 0x00, 
  0x0e, 0x00, 0x00, 0x00, 0x14, 0x00, 0x00, 0x00, 0x1c, 0x00, 0x00, 0x00, 
  0xec, 0x00, 0x00, 0x00, 0xf0, 0x00, 0x00, 0x00, 0xf4, 0x00, 0x00, 0x00, 
  0x04, 0x00, 0x00, 0x00, 0x6d, 0x61, 0x69, 0x6e, 0x00, 0x00, 0x00, 0x00, 
  0x03, 0x00, 0x00, 0x00, 0x94, 0x00, 0x00, 0x00, 0x50, 0x00, 0x00, 0x00, 
  0x14, 0x00, 0x00, 0x00, 0x00, 0x00, 0x0e, 0x00, 0x1a, 0x00, 0x14, 0x00, 
  0x10, 0x00, 0x0c, 0x00, 0x0b, 0x00, 0x04, 0x00, 0x0e, 0x00, 0x00, 0x00, 
  0x1c, 0x00, 0x00, 0x00, 0x00, 0x00, 0x00, 0x09, 0x1c, 0x00, 0x00, 0x00, 
  0x20, 0x00, 0x00, 0x00, 0x01, 0x00, 0x00, 0x00, 0x00, 0x00, 0x06, 0x00, 
  0x08, 0x00, 0x04, 0x00, 0x06, 0x00, 0x00, 0x00, 0x00, 0x00, 0x80, 0x3f, 
  0x01, 0x00, 0x00, 0x00, 0x07, 0x00, 0x00, 0x00, 0x01, 0x00, 0x00, 0x00, 
  0x06, 0x00, 0x00, 0x00, 0xce, 0xff, 0xff, 0xff, 0x10, 0x00, 0x00, 0x00, 
  0x00, 0x00, 0x00, 0x08, 0x0c, 0x00, 0x00, 0x00, 0x10, 0x00, 0x00, 0x00, 
  0xb8, 0xfc, 0xff, 0xff, 0x01, 0x00, 0x00, 0x00, 0x06, 0x00, 0x00, 0x00, 
  0x03, 0x00, 0x00, 0x00, 0x05, 0x00, 0x00, 0x00, 0x04, 0x00, 0x00, 0x00, 
  0x02, 0x00, 0x00, 0x00, 0x00, 0x00, 0x0e, 0x00, 0x16, 0x00, 0x00, 0x00, 
  0x10, 0x00, 0x0c, 0x00, 0x0b, 0x00, 0x04, 0x00, 0x0e, 0x00, 0x00, 0x00, 
  0x18, 0x00, 0x00, 0x00, 0x00, 0x00, 0x00, 0x08, 0x18, 0x00, 0x00, 0x00, 
  0x1c, 0x00, 0x00, 0x00, 0x00, 0x00, 0x06, 0x00, 0x08, 0x00, 0x07, 0x00, 
  0x06, 0x00, 0x00, 0x00, 0x00, 0x00, 0x00, 0x01, 0x01, 0x00, 0x00, 0x00, 
  0x05, 0x00, 0x00, 0x00, 0x03, 0x00, 0x00, 0x00, 0x00, 0x00, 0x00, 0x00, 
  0x03, 0x00, 0x00, 0x00, 0x01, 0x00, 0x00, 0x00, 0x01, 0x00, 0x00, 0x00, 
  0x07, 0x00, 0x00, 0x00, 0x01, 0x00, 0x00, 0x00, 0x00, 0x00, 0x00, 0x00, 
  0x08, 0x00, 0x00, 0x00, 0xa8, 0x02, 0x00, 0x00, 0x44, 0x02, 0x00, 0x00, 
  0xe0, 0x01, 0x00, 0x00, 0x9c, 0x01, 0x00, 0x00, 0x54, 0x01, 0x00, 0x00, 
  0xd0, 0x00, 0x00, 0x00, 0x5c, 0x00, 0x00, 0x00, 0x04, 0x00, 0x00, 0x00, 
  0x8c, 0xfd, 0xff, 0xff, 0x14, 0x00, 0x00, 0x00, 0x1c, 0x00, 0x00, 0x00, 
  0x1c, 0x00, 0x00, 0x00, 0x08, 0x00, 0x00, 0x00, 0x34, 0x00, 0x00, 0x00, 
  0x02, 0x00, 0x00, 0x00, 0xff, 0xff, 0xff, 0xff, 0x06, 0x00, 0x00, 0x00, 
  0x78, 0xfd, 0xff, 0xff, 0x19, 0x00, 0x00, 0x00, 0x53, 0x74, 0x61, 0x74, 
  0x65, 0x66, 0x75, 0x6c, 0x50, 0x61, 0x72, 0x74, 0x69, 0x74, 0x69, 0x6f, 
  0x6e, 0x65, 0x64, 0x43, 0x61, 0x6c, 0x6c, 0x3a, 0x30, 0x00, 0x00, 0x00, 
  0x02, 0x00, 0x00, 0x00, 0x01, 0x00, 0x00, 0x00, 0x06, 0x00, 0x00, 0x00, 
  0xe0, 0xfd, 0xff, 0xff, 0x14, 0x00, 0x00, 0x00, 0x1c, 0x00, 0x00, 0x00, 
  0x1c, 0x00, 0x00, 0x00, 0x07, 0x00, 0x00, 0x00, 0x50, 0x00, 0x00, 0x00, 
  0x02, 0x00, 0x00, 0x00, 0xff, 0xff, 0xff, 0xff, 0x06, 0x00, 0x00, 0x00, 
  0xcc, 0xfd, 0xff, 0xff, 0x34, 0x00, 0x00, 0x00, 0x73, 0x65, 0x71, 0x75, 
  0x65, 0x6e, 0x74, 0x69, 0x61, 0x6c, 0x2f, 0x64, 0x65, 0x6e, 0x73, 0x65, 
  0x5f, 0x31, 0x2f, 0x4d, 0x61, 0x74, 0x4d, 0x75, 0x6c, 0x3b, 0x73, 0x65, 
  0x71, 0x75, 0x65, 0x6e, 0x74, 0x69, 0x61, 0x6c, 0x2f, 0x64, 0x65, 0x6e, 
  0x73, 0x65, 0x5f, 0x31, 0x2f, 0x42, 0x69, 0x61, 0x73, 0x41, 0x64, 0x64, 
  0x00, 0x00, 0x00, 0x00, 0x02, 0x00, 0x00, 0x00, 0x01, 0x00, 0x00, 0x00, 
  0x06, 0x00, 0x00, 0x00, 0x50, 0xfe, 0xff, 0xff, 0x14, 0x00, 0x00, 0x00, 
  0x1c, 0x00, 0x00, 0x00, 0x1c, 0x00, 0x00, 0x00, 0x06, 0x00, 0x00, 0x00, 
  0x60, 0x00, 0x00, 0x00, 0x02, 0x00, 0x00, 0x00, 0xff, 0xff, 0xff, 0xff, 
  0x0c, 0x00, 0x00, 0x00, 0x3c, 0xfe, 0xff, 0xff, 0x46, 0x00, 0x00, 0x00, 
  0x73, 0x65, 0x71, 0x75, 0x65, 0x6e, 0x74, 0x69, 0x61, 0x6c, 0x2f, 0x64, 
  0x65, 0x6e, 0x73, 0x65, 0x2f, 0x4d, 0x61, 0x74, 0x4d, 0x75, 0x6c, 0x3b, 
  0x73, 0x65, 0x71, 0x75, 0x65, 0x6e, 0x74, 0x69, 0x61, 0x6c, 0x2f, 0x64, 
  0x65, 0x6e, 0x73, 0x65, 0x2f, 0x52, 0x65, 0x6c, 0x75, 0x3b, 0x73, 0x65, 
  0x71, 0x75, 0x65, 0x6e, 0x74, 0x69, 0x61, 0x6c, 0x2f, 0x64, 0x65, 0x6e, 
  0x73, 0x65, 0x2f, 0x42, 0x69, 0x61, 0x73, 0x41, 0x64, 0x64, 0x00, 0x00, 
  0x02, 0x00, 0x00, 0x00, 0x01, 0x00, 0x00, 0x00, 0x0c, 0x00, 0x00, 0x00, 
  0x2a, 0xff, 0xff, 0xff, 0x10, 0x00, 0x00, 0x00, 0x10, 0x00, 0x00, 0x00, 
  0x05, 0x00, 0x00, 0x00, 0x28, 0x00, 0x00, 0x00, 0xac, 0xfe, 0xff, 0xff, 
  0x19, 0x00, 0x00, 0x00, 0x73, 0x65, 0x71, 0x75, 0x65, 0x6e, 0x74, 0x69, 
  0x61, 0x6c, 0x2f, 0x64, 0x65, 0x6e, 0x73, 0x65, 0x5f, 0x31, 0x2f, 0x4d, 
  0x61, 0x74, 0x4d, 0x75, 0x6c, 0x00, 0x00, 0x00, 0x02, 0x00, 0x00, 0x00, 
  0x06, 0x00, 0x00, 0x00, 0x0c, 0x00, 0x00, 0x00, 0x6e, 0xff, 0xff, 0xff, 
  0x10, 0x00, 0x00, 0x00, 0x10, 0x00, 0x00, 0x00, 0x04, 0x00, 0x00, 0x00, 
  0x24, 0x00, 0x00, 0x00, 0xf0, 0xfe, 0xff, 0xff, 0x17, 0x00, 0x00, 0x00, 
  0x73, 0x65, 0x71, 0x75, 0x65, 0x6e, 0x74, 0x69, 0x61, 0x6c, 0x2f, 0x64, 
  0x65, 0x6e, 0x73, 0x65, 0x2f, 0x4d, 0x61, 0x74, 0x4d, 0x75, 0x6c, 0x00, 
  0x02, 0x00, 0x00, 0x00, 0x0c, 0x00, 0x00, 0x00, 0x09, 0x00, 0x00, 0x00, 
  0xae, 0xff, 0xff, 0xff, 0x10, 0x00, 0x00, 0x00, 0x10, 0x00, 0x00, 0x00, 
  0x03, 0x00, 0x00, 0x00, 0x38, 0x00, 0x00, 0x00, 0x30, 0xff, 0xff, 0xff, 
  0x29, 0x00, 0x00, 0x00, 0x73, 0x65, 0x71, 0x75, 0x65, 0x6e, 0x74, 0x69, 
  0x61, 0x6c, 0x2f, 0x64, 0x65, 0x6e, 0x73, 0x65, 0x5f, 0x31, 0x2f, 0x42, 
  0x69, 0x61, 0x73, 0x41, 0x64, 0x64, 0x2f, 0x52, 0x65, 0x61, 0x64, 0x56, 
  0x61, 0x72, 0x69, 0x61, 0x62, 0x6c, 0x65, 0x4f, 0x70, 0x00, 0x00, 0x00, 
  0x01, 0x00, 0x00, 0x00, 0x06, 0x00, 0x00, 0x00, 0x00, 0x00, 0x0e, 0x00, 
  0x14, 0x00, 0x10, 0x00, 0x00, 0x00, 0x0c, 0x00, 0x08, 0x00, 0x04, 0x00, 
  0x0e, 0x00, 0x00, 0x00, 0x10, 0x00, 0x00, 0x00, 0x10, 0x00, 0x00, 0x00, 
  0x02, 0x00, 0x00, 0x00, 0x34, 0x00, 0x00, 0x00, 0x90, 0xff, 0xff, 0xff, 
  0x27, 0x00, 0x00, 0x00, 0x73, 0x65, 0x71, 0x75, 0x65, 0x6e, 0x74, 0x69, 
  0x61, 0x6c, 0x2f, 0x64, 0x65, 0x6e, 0x73, 0x65, 0x2f, 0x42, 0x69, 0x61, 
  0x73, 0x41, 0x64, 0x64, 0x2f, 0x52, 0x65, 0x61, 0x64, 0x56, 0x61, 0x72, 
  0x69, 0x61, 0x62, 0x6c, 0x65, 0x4f, 0x70, 0x00, 0x01, 0x00, 0x00, 0x00, 
  0x0c, 0x00, 0x00, 0x00, 0x14, 0x00, 0x18, 0x00, 0x14, 0x00, 0x00, 0x00, 
  0x10, 0x00, 0x0c, 0x00, 0x08, 0x00, 0x00, 0x00, 0x00, 0x00, 0x04, 0x00, 
  0x14, 0x00, 0x00, 0x00, 0x14, 0x00, 0x00, 0x00, 0x20, 0x00, 0x00, 0x00, 
  0x20, 0x00, 0x00, 0x00, 0x01, 0x00, 0x00, 0x00, 0x38, 0x00, 0x00, 0x00, 
  0x02, 0x00, 0x00, 0x00, 0xff, 0xff, 0xff, 0xff, 0x09, 0x00, 0x00, 0x00, 
  0x04, 0x00, 0x04, 0x00, 0x04, 0x00, 0x00, 0x00, 0x19, 0x00, 0x00, 0x00, 
  0x73, 0x65, 0x72, 0x76, 0x69, 0x6e, 0x67, 0x5f, 0x64, 0x65, 0x66, 0x61, 
  0x75, 0x6c, 0x74, 0x5f, 0x69, 0x6e, 0x70, 0x75, 0x74, 0x5f, 0x31, 0x3a, 
  0x30, 0x00, 0x00, 0x00, 0x02, 0x00, 0x00, 0x00, 0x01, 0x00, 0x00, 0x00, 
  0x09, 0x00, 0x00, 0x00, 0x02, 0x00, 0x00, 0x00, 0x20, 0x00, 0x00, 0x00, 
  0x04, 0x00, 0x00, 0x00, 0xf4, 0xff, 0xff, 0xff, 0x19, 0x00, 0x00, 0x00, 
  0x00, 0x00, 0x00, 0x19, 0x0c, 0x00, 0x0c, 0x00, 0x0b, 0x00, 0x00, 0x00, 
  0x00, 0x00, 0x04, 0x00, 0x0c, 0x00, 0x00, 0x00, 0x09, 0x00, 0x00, 0x00, 
  0x00, 0x00, 0x00, 0x09
};
unsigned int tflite_model_len = 2428;

#define INPUT_TENSOR_SIZE 9
#define OUTPUT_TENSOR_SIZE 6

const float input_scale[] = {
  0.763813, 2.325066, 0.709674, 0.260920, 
  1.686037, 2.483624, 2.173343, 1.218594, 
  1.300534, 2.816501, 1.733089, 1.693226, 
  0.627617, 1.159725, 0.941194, 0.697095, 
  0.433418, 0.334767, 0.434541, 0.442303, 
  2.920897, 3.524570, 7.169586, 7.170832, 
  0.868954, 0.759425, 0.760158, 0.744707, 
};

const float input_offset[] = {
  -0.271761, 0.320692, 9.390757, 9.943088, 
  -1.785630, -1.492248, 7.882841, 8.548902, 
  0.963141, 2.256534, 11.103216, 11.512787, 
  0.725190, 1.133705, 0.782044, 0.672577, 
  3.329193, 3.377549, 3.322912, 3.303347, 
  1.835055, 2.099727, 4.250511, 4.484773, 
  1.953448, 1.988956, 2.116512, 2.139863, 
};
