unsigned char tflite_model[] = {
  0x1c, 0x00, 0x00, 0x00, 0x54, 0x46, 0x4c, 0x33, 0x14, 0x00, 0x20, 0x00, 
  0x1c, 0x00, 0x18, 0x00, 0x14, 0x00, 0x10, 0x00, 0x0c, 0x00, 0x00, 0x00, 
  0x08, 0x00, 0x04, 0x00, 0x14, 0x00, 0x00, 0x00, 0x1c, 0x00, 0x00, 0x00, 
  0x8c, 0x00, 0x00, 0x00, 0xe4, 0x00, 0x00, 0x00, 0x38, 0x11, 0x00, 0x00, 
  0x48, 0x11, 0x00, 0x00, 0x68, 0x15, 0x00, 0x00, 0x03, 0x00, 0x00, 0x00, 
  0x01, 0x00, 0x00, 0x00, 0x10, 0x00, 0x00, 0x00, 0x00, 0x00, 0x0a, 0x00, 
  0x10, 0x00, 0x0c, 0x00, 0x08, 0x00, 0x04, 0x00, 0x0a, 0x00, 0x00, 0x00, 
  0x0c, 0x00, 0x00, 0x00, 0x1c, 0x00, 0x00, 0x00, 0x38, 0x00, 0x00, 0x00, 
  0x0f, 0x00, 0x00, 0x00, 0x73, 0x65, 0x72, 0x76, 0x69, 0x6e, 0x67, 0x5f, 
  0x64, 0x65, 0x66, 0x61, 0x75, 0x6c, 0x74, 0x00, 0x01, 0x00, 0x00, 0x00, 
  0x04, 0x00, 0x00, 0x00, 0x9c, 0xff, 0xff, 0xff, 0x07, 0x00, 0x00, 0x00, 
  0x04, 0x00, 0x00, 0x00, 0x07, 0x00, 0x00, 0x00, 0x64, 0x65, 0x6e, 0x73, 
  0x65, 0x5f, 0x31, 0x00, 0x01, 0x00, 0x00, 0x00, 0x04, 0x00, 0x00, 0x00, 
  0xae, 0xee, 0xff, 0xff, 0x04, 0x00, 0x00, 0x00, 0x07, 0x00, 0x00, 0x00, 
  0x69, 0x6e, 0x70, 0x75, 0x74, 0x5f, 0x31, 0x00, 0x02, 0x00, 0x00, 0x00, 
  0x34, 0x00, 0x00, 0x00, 0x04, 0x00, 0x00, 0x00, 0xdc, 0xff, 0xff, 0xff, 
  0x0a, 0x00, 0x00, 0x00, 0x04, 0x00, 0x00, 0x00, 0x13, 0x00, 0x00, 0x00, 
  0x43, 0x4f, 0x4e, 0x56, 0x45, 0x52, 0x53, 0x49, 0x4f, 0x4e, 0x5f, 0x4d, 
  0x45, 0x54, 0x41, 0x44, 0x41, 0x54, 0x41, 0x00, 0x08, 0x00, 0x0c, 0x00, 
  0x08, 0x00, 0x04, 0x00, 0x08, 0x00, 0x00, 0x00, 0x09, 0x00, 0x00, 0x00, 
  0x04, 0x00, 0x00, 0x00, 0x13, 0x00, 0x00, 0x00, 0x6d, 0x69, 0x6e, 0x5f, 
  0x72, 0x75, 0x6e, 0x74, 0x69, 0x6d, 0x65, 0x5f, 0x76, 0x65, 0x72, 0x73, 
  0x69, 0x6f, 0x6e, 0x00, 0x0b, 0x00, 0x00, 0x00, 0x50, 0x10, 0x00, 0x00, 
  0x48, 0x10, 0x00, 0x00, 0xc8, 0x0f, 0x00, 0x00, 0xa0, 0x0f, 0x00, 0x00, 
  0x50, 0x03, 0x00, 0x00, 0xa0, 0x00, 0x00, 0x00, 0x98, 0x00, 0x00, 0x00, 
  0x90, 0x00, 0x00, 0x00, 0x88, 0x00, 0x00, 0x00, 0x68, 0x00, 0x00, 0x00, 
  0x04, 0x00, 0x00, 0x00, 0x4e, 0xef, 0xff, 0xff, 0x04, 0x00, 0x00, 0x00, 
  0x54, 0x00, 0x00, 0x00, 0x0c, 0x00, 0x00, 0x00, 0x08, 0x00, 0x0e, 0x00, 
  0x08, 0x00, 0x04, 0x00, 0x08, 0x00, 0x00, 0x00, 0x10, 0x00, 0x00, 0x00, 
  0x24, 0x00, 0x00, 0x00, 0x00, 0x00, 0x06, 0x00, 0x08, 0x00, 0x04, 0x00, 
  0x06, 0x00, 0x00, 0x00, 0x04, 0x00, 0x00, 0x00, 0x00, 0x00, 0x00, 0x00, 
  0x00, 0x00, 0x0a, 0x00, 0x10, 0x00, 0x0c, 0x00, 0x08, 0x00, 0x04, 0x00, 
  0x0a, 0x00, 0x00, 0x00, 0x02, 0x00, 0x00, 0x00, 0x02, 0x00, 0x00, 0x00, 
  0x04, 0x00, 0x00, 0x00, 0x05, 0x00, 0x00, 0x00, 0x32, 0x2e, 0x39, 0x2e, 
  0x31, 0x00, 0x00, 0x00, 0xae, 0xef, 0xff, 0xff, 0x04, 0x00, 0x00, 0x00, 
  0x10, 0x00, 0x00, 0x00, 0x31, 0x2e, 0x35, 0x2e, 0x30, 0x00, 0x00, 0x00, 
  0x00, 0x00, 0x00, 0x00, 0x00, 0x00, 0x00, 0x00, 0x50, 0xec, 0xff, 0xff, 
  0x54, 0xec, 0xff, 0xff, 0x58, 0xec, 0xff, 0xff, 0xd6, 0xef, 0xff, 0xff, 
  0x04, 0x00, 0x00, 0x00, 0xa0, 0x02, 0x00, 0x00, 0x37, 0x99, 0x43, 0xbf, 
  0x2e, 0x7e, 0x54, 0x3b, 0x9e, 0x0f, 0x83, 0xbf, 0x7c, 0xa9, 0xa1, 0x3e, 
  0x90, 0x76, 0x04, 0x3f, 0x58, 0xfa, 0x1b, 0xc0, 0x90, 0x95, 0x2c, 0xbf, 
  0xe2, 0xfd, 0x64, 0x3f, 0x32, 0xcc, 0x68, 0x3e, 0xfb, 0x03, 0xec, 0xbf, 
  0x69, 0x05, 0x9c, 0xbe, 0x90, 0x5f, 0x3e, 0xc0, 0xca, 0xc1, 0x6c, 0xbf, 
  0xa2, 0xac, 0xbb, 0xbd, 0x40, 0xef, 0x4d, 0x3f, 0xad, 0xef, 0x9e, 0x3f, 
  0x88, 0x03, 0xf4, 0xbe, 0x87, 0x06, 0xe1, 0xbf, 0x5e, 0xe7, 0x6c, 0xbf, 
  0x72, 0x99, 0x52, 0xbf, 0x1f, 0xc4, 0x07, 0xbf, 0x70, 0xb7, 0x80, 0x3f, 
  0x00, 0x53, 0x09, 0xbf, 0x8a, 0xb3, 0xff, 0x3e, 0x10, 0x9c, 0xf7, 0xbf, 
  0x04, 0xc5, 0x2f, 0xbf, 0xd3, 0x9d, 0x65, 0xbe, 0x78, 0xef, 0x8f, 0x3e, 
  0xe9, 0xe8, 0xab, 0x3e, 0x04, 0x3b, 0x89, 0xbe, 0xf5, 0x62, 0x06, 0x3f, 
  0x08, 0x94, 0x8e, 0xbd, 0x53, 0xe1, 0x1c, 0xbf, 0x1c, 0xd4, 0x3a, 0x3f, 
  0x4a, 0x6c, 0x20, 0x3f, 0xe9, 0xa2, 0x98, 0xbe, 0x28, 0x7c, 0xa7, 0x3e, 
  0x01, 0x9d, 0x61, 0x3f, 0xdd, 0x16, 0x01, 0x3f, 0xa8, 0xa5, 0x7c, 0x3f, 
  0xfd, 0x11, 0x28, 0x3d, 0xc2, 0x79, 0x4e, 0xbe, 0xed, 0x24, 0x91, 0xbf, 
  0xa4, 0x6a, 0x99, 0x3d, 0xdd, 0x95, 0x7e, 0x3d, 0x64, 0x1a, 0x62, 0x3f, 
  0x07, 0xb3, 0xff, 0x3e, 0x4c, 0x21, 0x82, 0xbf, 0x87, 0xb1, 0x25, 0xbf, 
  0xab, 0x87, 0x20, 0xbf, 0xbe, 0x14, 0x92, 0xbf, 0x5d, 0x5c, 0xb7, 0xbf, 
  0xf5, 0x47, 0xc3, 0xbf, 0xc9, 0xff, 0x3e, 0xbf, 0xcc, 0xe8, 0x91, 0xbf, 
  0xb2, 0x2d, 0x11, 0x3a, 0xae, 0xe7, 0x07, 0x3f, 0x03, 0xfc, 0x50, 0xbf, 
  0x83, 0x06, 0x12, 0x3f, 0x5c, 0xbc, 0x36, 0xbf, 0x0d, 0x9c, 0x02, 0xbe, 
  0x99, 0xe8, 0x3f, 0x3f, 0xc6, 0x41, 0x59, 0xbf, 0xd5, 0x80, 0x53, 0xbf, 
  0xd5, 0xa4, 0x8b, 0x3e, 0x93, 0xf8, 0x6f, 0xbf, 0x58, 0x25, 0x26, 0xbf, 
  0x93, 0xd1, 0xa8, 0xbe, 0xe3, 0x3f, 0xe1, 0xbf, 0xd4, 0x7a, 0xe5, 0x3e, 
  0x4d, 0xa3, 0x26, 0xbf, 0x71, 0x06, 0x92, 0xbf, 0x0e, 0x3e, 0xe9, 0xbf, 
  0x7d, 0xb6, 0x3d, 0xbf, 0x6d, 0x47, 0x86, 0xbe, 0x6b, 0xfc, 0x13, 0xbf, 
  0xfd, 0x79, 0x4d, 0x3f, 0x8a, 0x6a, 0xe7, 0x3e, 0x54, 0xf1, 0x3c, 0x3f, 
  0x03, 0x45, 0xbd, 0x3e, 0x8f, 0x28, 0xe7, 0xbe, 0x11, 0x61, 0x41, 0xbf, 
  0x3d, 0x7e, 0xd4, 0xbe, 0x8f, 0xfa, 0x89, 0xbf, 0xb3, 0x2c, 0xc1, 0xbe, 
  0xb2, 0x53, 0x0f, 0x3f, 0x0b, 0x08, 0xf0, 0xbf, 0x02, 0xcf, 0xab, 0x3e, 
  0x11, 0x95, 0x02, 0xbc, 0x09, 0x68, 0x6a, 0xbf, 0x1f, 0xb2, 0x4c, 0x3f, 
  0x86, 0x77, 0xd9, 0xbe, 0x6d, 0x89, 0x00, 0x3e, 0x78, 0x97, 0x86, 0xbd, 
  0x47, 0xad, 0x2e, 0x3f, 0xd3, 0xcd, 0x92, 0xbf, 0xd5, 0xc6, 0xae, 0x3e, 
  0x08, 0xc7, 0x43, 0xbf, 0x27, 0x84, 0x05, 0xc0, 0xd0, 0x9d, 0xeb, 0x3e, 
  0x67, 0x2e, 0x7c, 0x3e, 0xcb, 0xa5, 0xbd, 0xbf, 0xc5, 0xbb, 0x75, 0xbd, 
  0x4a, 0xb3, 0xa3, 0xbe, 0xff, 0xa6, 0x79, 0x3f, 0x9d, 0x58, 0x4f, 0x3e, 
  0x48, 0x57, 0x7c, 0xbf, 0x1c, 0x0b, 0x29, 0x3e, 0xbc, 0xf6, 0xe4, 0x3e, 
  0x09, 0xf6, 0x06, 0x3f, 0x6a, 0xef, 0x4b, 0xbe, 0x66, 0xa8, 0x2d, 0xbf, 
  0x01, 0xb4, 0x58, 0xbf, 0x42, 0x09, 0x58, 0x3f, 0x80, 0xbd, 0x3d, 0x3f, 
  0x2d, 0x30, 0x19, 0xbf, 0xdd, 0x4d, 0x08, 0x3f, 0xf6, 0xf6, 0xc7, 0xbe, 
  0x61, 0x09, 0x83, 0xbf, 0xd1, 0xd2, 0x2a, 0x3f, 0x19, 0xa7, 0xa9, 0xbf, 
  0x8f, 0x17, 0x7f, 0xbf, 0x44, 0x46, 0x55, 0xbf, 0xa1, 0x6d, 0x14, 0x3f, 
  0x03, 0xb7, 0x04, 0x3f, 0x3d, 0x7b, 0x22, 0xbf, 0xb6, 0x64, 0x27, 0x3f, 
  0x21, 0x56, 0x8b, 0x3e, 0xb1, 0x6d, 0x3b, 0xbe, 0x0f, 0x94, 0x0e, 0x3f, 
  0x76, 0xe6, 0x35, 0x3f, 0x9c, 0x08, 0x26, 0x3f, 0x65, 0x24, 0x6b, 0x3f, 
  0x55, 0xfd, 0xb5, 0xbf, 0x14, 0xba, 0x54, 0x3f, 0xd5, 0x0d, 0xa3, 0xbf, 
  0x8d, 0x3d, 0xd2, 0x3e, 0x5e, 0xf2, 0x99, 0x3e, 0x91, 0xa6, 0x9a, 0x3f, 
  0x77, 0xcb, 0x52, 0x3f, 0xde, 0xab, 0x8b, 0xbf, 0x1c, 0x2e, 0x70, 0xbf, 
  0xba, 0xa9, 0x0c, 0xbf, 0x23, 0x10, 0x31, 0x3f, 0x51, 0xd6, 0x2e, 0xbf, 
  0x92, 0x55, 0xd8, 0x3e, 0x37, 0x6f, 0xfd, 0x3e, 0xca, 0x26, 0x5c, 0xbf, 
  0xf8, 0x9d, 0x2b, 0x3e, 0xa5, 0xa3, 0x6d, 0x3d, 0x34, 0x13, 0x9e, 0xbd, 
  0x4b, 0x67, 0xfa, 0x3d, 0x79, 0x4b, 0xb8, 0xbe, 0x46, 0xd6, 0x43, 0xbd, 
  0xe0, 0x37, 0x2e, 0xbf, 0xe3, 0xec, 0x07, 0xc0, 0x2b, 0xdd, 0x09, 0x3f, 
  0x64, 0x11, 0xc1, 0x3e, 0x6b, 0xaa, 0x6e, 0x3b, 0x9a, 0x8b, 0x10, 0x3f, 
  0x4e, 0xe1, 0xad, 0xbf, 0x62, 0x5c, 0x65, 0xbf, 0x45, 0x11, 0x00, 0xbf, 
  0x86, 0xe0, 0x3c, 0x3e, 0x92, 0x81, 0x2c, 0x3f, 0x57, 0x7f, 0x48, 0x3f, 
  0x34, 0x95, 0x8c, 0xbf, 0x3b, 0x24, 0x8d, 0xbf, 0x82, 0xf2, 0xff, 0xff, 
  0x04, 0x00, 0x00, 0x00, 0x40, 0x0c, 0x00, 0x00, 0xad, 0xae, 0xca, 0xbe, 
  0x8c, 0xb6, 0x66, 0x3f, 0x1e, 0x43, 0x53, 0xbf, 0x9b, 0x96, 0xe6, 0x3d, 
  0x7a, 0xc8, 0xa9, 0x3e, 0x96, 0xcb, 0x60, 0x3e, 0xc3, 0x4b, 0x30, 0xbd, 
  0x1e, 0x66, 0x1d, 0x3e, 0x8f, 0xfc, 0x05, 0x3e, 0x6b, 0x40, 0x33, 0x3e, 
  0x82, 0xdb, 0x80, 0xbf, 0xa5, 0xc2, 0x09, 0x3e, 0x34, 0x12, 0xd3, 0xbd, 
  0x29, 0x54, 0xc5, 0x3e, 0x80, 0x3a, 0x24, 0xbf, 0xe8, 0xee, 0x77, 0xbe, 
  0xe4, 0x4f, 0xe0, 0x3d, 0xd3, 0x04, 0xe5, 0x3c, 0xb2, 0xcf, 0xce, 0xbe, 
  0x3b, 0xee, 0x23, 0xbf, 0xe2, 0xd1, 0xed, 0x3e, 0x87, 0x67, 0x28, 0x3f, 
  0x4b, 0xc5, 0xa4, 0x3f, 0xeb, 0x6f, 0xc1, 0x3f, 0xb2, 0xe8, 0x9c, 0x3e, 
  0x77, 0xd9, 0x76, 0x3d, 0xa9, 0x34, 0xbe, 0x3e, 0xcb, 0xf1, 0x97, 0x3e, 
  0xca, 0x50, 0x2b, 0xc0, 0x40, 0xf0, 0x60, 0xbf, 0x35, 0x41, 0xb4, 0x3f, 
  0x36, 0xcf, 0x30, 0xbf, 0xe2, 0x78, 0xdb, 0x3e, 0xf4, 0x19, 0xd2, 0x3e, 
  0x75, 0x71, 0x81, 0xbe, 0x13, 0x57, 0xc2, 0x3e, 0xca, 0x3a, 0x56, 0xbe, 
  0xd9, 0x07, 0x35, 0x3f, 0xe3, 0x78, 0xab, 0x3d, 0x02, 0x2d, 0x37, 0xbf, 
  0x9a, 0x12, 0x7d, 0xbe, 0x06, 0xcb, 0xcc, 0xbd, 0x58, 0xd4, 0x02, 0x3f, 
  0xa4, 0x79, 0x2a, 0x3d, 0x89, 0x27, 0xc4, 0xbe, 0x1e, 0xb8, 0xc7, 0x3d, 
  0xc9, 0xd3, 0x29, 0xbe, 0xb4, 0x83, 0xb9, 0xbe, 0x69, 0xf3, 0x8b, 0xbc, 
  0x80, 0x60, 0x4a, 0xbe, 0x8d, 0xcc, 0x3f, 0xbf, 0xdb, 0x3a, 0x46, 0xbf, 
  0x09, 0xc2, 0x23, 0x3f, 0xb6, 0x88, 0x7e, 0x3f, 0xca, 0x85, 0xbb, 0xbd, 
  0x19, 0x96, 0x05, 0x3f, 0xa7, 0x81, 0x57, 0xbf, 0x71, 0xfa, 0xef, 0x3f, 
  0x71, 0x25, 0xdb, 0xbe, 0x82, 0xa0, 0xa5, 0x3f, 0x72, 0x1c, 0x36, 0x3e, 
  0xdf, 0x03, 0xf8, 0x3e, 0x2c, 0xc9, 0xaf, 0x3e, 0x67, 0x83, 0x2a, 0xbe, 
  0xcb, 0x4c, 0x06, 0x3b, 0x08, 0xe7, 0x63, 0xbe, 0x19, 0x87, 0x76, 0x3f, 
  0xc1, 0xda, 0x2a, 0xbf, 0x1b, 0x8b, 0x5a, 0xbe, 0xc6, 0xdb, 0x3f, 0x3f, 
  0x1c, 0x5d, 0x50, 0x3f, 0x29, 0x4c, 0xfa, 0x3f, 0xbc, 0x5c, 0x9f, 0xbe, 
  0x35, 0x95, 0x08, 0x3f, 0xd0, 0x76, 0x10, 0x3f, 0x00, 0x5d, 0x61, 0x3f, 
  0x0f, 0xd9, 0xfb, 0xbb, 0xab, 0x2b, 0xc6, 0x3e, 0x18, 0xf2, 0x83, 0x3f, 
  0x0c, 0xc0, 0xa6, 0x3f, 0x20, 0xaa, 0x98, 0xbf, 0xc4, 0x97, 0x2f, 0x3e, 
  0x58, 0xc0, 0xa6, 0xbd, 0x2a, 0x8c, 0x1e, 0xbf, 0x4f, 0x73, 0xce, 0x3f, 
  0x9d, 0x5f, 0xf5, 0x3e, 0xcd, 0xc1, 0x15, 0x3f, 0x28, 0x91, 0x80, 0x3e, 
  0x9c, 0x8a, 0x45, 0xbf, 0xf0, 0x33, 0x67, 0x3c, 0xdb, 0x7e, 0x00, 0xbd, 
  0x02, 0xc4, 0x46, 0xbd, 0xe9, 0x9d, 0x0e, 0xbf, 0x3f, 0x47, 0x4b, 0xbd, 
  0x95, 0x3a, 0x4c, 0xbf, 0x0f, 0xbd, 0xdd, 0x3e, 0xf1, 0xe5, 0xb0, 0x3e, 
  0xac, 0x20, 0x0a, 0x3e, 0x22, 0xfe, 0x8c, 0xbf, 0x5f, 0xbf, 0xb4, 0xbf, 
  0x44, 0x01, 0x3f, 0x3f, 0xf4, 0xf7, 0x48, 0x3e, 0x0e, 0xa7, 0x1c, 0x3f, 
  0x7a, 0xef, 0x82, 0x3f, 0xeb, 0xb4, 0xe2, 0x3e, 0x3f, 0xed, 0x3b, 0x3d, 
  0x70, 0x8a, 0x51, 0xbf, 0x28, 0xe9, 0xc6, 0xbe, 0x9a, 0x7b, 0x10, 0xbe, 
  0xa4, 0x08, 0x24, 0x3d, 0x17, 0x81, 0x9e, 0xbe, 0x4b, 0x51, 0x42, 0xbf, 
  0x87, 0xa6, 0xd0, 0xbf, 0xe6, 0x5b, 0x46, 0xbf, 0xb9, 0x39, 0x7b, 0x3f, 
  0x05, 0x34, 0x2c, 0x3d, 0xba, 0x9b, 0x76, 0xbd, 0x45, 0x22, 0x0e, 0x3f, 
  0x33, 0x49, 0xb7, 0x3e, 0xe8, 0x5c, 0x05, 0xbc, 0xf7, 0xd0, 0x66, 0x3f, 
  0x91, 0xe8, 0x7d, 0x3f, 0xef, 0xaa, 0x54, 0x3e, 0x28, 0x88, 0x5d, 0xbf, 
  0x4c, 0xd8, 0x35, 0xbf, 0x56, 0x21, 0xf1, 0x3e, 0xbc, 0xf1, 0x13, 0x3f, 
  0xc7, 0xd1, 0x96, 0x3f, 0xad, 0xdb, 0x39, 0xbd, 0x36, 0x19, 0xee, 0xbd, 
  0x2f, 0x52, 0xcd, 0x3e, 0x0f, 0x89, 0xee, 0x3e, 0xbf, 0xc4, 0x29, 0x3f, 
  0xc7, 0x67, 0x2c, 0xbf, 0x8b, 0x6b, 0x71, 0xbe, 0xfb, 0x34, 0xb9, 0xbc, 
  0x13, 0xe9, 0xde, 0xbe, 0xe9, 0xd4, 0xa3, 0xbd, 0x4e, 0xa2, 0xc1, 0xbe, 
  0x74, 0x61, 0x3d, 0xbe, 0xba, 0x8f, 0x54, 0x3f, 0xac, 0x4b, 0x11, 0x40, 
  0xe1, 0x9a, 0x3e, 0xbf, 0x0e, 0x87, 0xd8, 0xbd, 0x63, 0x3c, 0x7a, 0xbf, 
  0x6e, 0x15, 0x61, 0x3e, 0xc5, 0xaa, 0x3a, 0x3f, 0x8e, 0x31, 0x6b, 0x3d, 
  0x90, 0x42, 0x1a, 0xbc, 0x96, 0xd9, 0x23, 0xbf, 0x40, 0xec, 0x7b, 0x3f, 
  0x33, 0x58, 0x1a, 0x3f, 0x83, 0x00, 0xc5, 0x3e, 0x0c, 0x8d, 0x03, 0xbf, 
  0x83, 0x22, 0x29, 0xbf, 0xb7, 0xc0, 0x8a, 0xbe, 0xc9, 0x92, 0xa7, 0x3d, 
  0xf7, 0x1b, 0x54, 0x3f, 0xc8, 0xf5, 0x63, 0x3e, 0xae, 0xef, 0x5e, 0x3e, 
  0x06, 0x64, 0xd7, 0x3e, 0xf2, 0x05, 0x6c, 0x3e, 0x7b, 0x3d, 0x53, 0x3f, 
  0x47, 0x55, 0xb0, 0x3f, 0x84, 0x0b, 0x13, 0xbf, 0x94, 0x7a, 0xd8, 0xbe, 
  0x0f, 0xbc, 0x3b, 0x3f, 0x29, 0x6d, 0x26, 0xbf, 0x30, 0x1b, 0x2c, 0x3f, 
  0x81, 0x80, 0xbf, 0x3f, 0xc4, 0xd7, 0xc6, 0x3e, 0xfe, 0x36, 0xdb, 0xbe, 
  0x1c, 0x8c, 0x79, 0xbe, 0xd2, 0x02, 0x62, 0x3f, 0x44, 0x05, 0x15, 0xbe, 
  0xec, 0x69, 0xe5, 0xba, 0x46, 0xc1, 0xc7, 0xbf, 0xdd, 0x69, 0x37, 0x3e, 
  0xf8, 0x59, 0x07, 0x3f, 0xd8, 0x18, 0xaf, 0x3f, 0x8e, 0x49, 0x00, 0xbf, 
  0xba, 0xad, 0x5f, 0xbf, 0x9c, 0xfb, 0x2f, 0xbf, 0x46, 0xdd, 0xce, 0xbe, 
  0x39, 0x4e, 0xd0, 0xbd, 0x04, 0x66, 0x27, 0x39, 0x7f, 0xe4, 0x41, 0xbe, 
  0x7e, 0xd1, 0xec, 0xbe, 0x68, 0x9d, 0xb1, 0x3d, 0xf5, 0xc1, 0x81, 0xbe, 
  0x53, 0x68, 0x05, 0xbf, 0x20, 0x5d, 0x86, 0xbf, 0x3c, 0x43, 0x53, 0x3e, 
  0x8c, 0x70, 0x85, 0x3f, 0xfc, 0xe0, 0x47, 0x3d, 0x7f, 0xb5, 0x1d, 0x3c, 
  0x82, 0xae, 0x16, 0x3e, 0xde, 0xf2, 0xe1, 0xbf, 0xea, 0xe6, 0xd4, 0xbe, 
  0x13, 0xc8, 0xd0, 0x3e, 0xf8, 0x76, 0x9c, 0xbd, 0xca, 0x06, 0x09, 0xbf, 
  0x5a, 0x27, 0x50, 0x3f, 0x6b, 0x98, 0x16, 0xbe, 0x74, 0x64, 0x26, 0x3f, 
  0x0d, 0xca, 0xed, 0x3e, 0xab, 0x38, 0xc8, 0xbe, 0xba, 0xf8, 0xe6, 0x3d, 
  0x42, 0x19, 0xb6, 0xbe, 0x8d, 0x4b, 0x76, 0x3f, 0x3a, 0xae, 0x20, 0xbe, 
  0x95, 0xf8, 0x00, 0x3f, 0xd4, 0x3c, 0x45, 0x3f, 0x21, 0x53, 0x84, 0x3f, 
  0x42, 0xb7, 0x74, 0xbf, 0x95, 0x7f, 0x3e, 0xbf, 0x18, 0x39, 0x3a, 0x3e, 
  0x30, 0x0b, 0x2a, 0xbf, 0xae, 0x77, 0x40, 0x3f, 0x36, 0x2e, 0x8b, 0xbe, 
  0xce, 0xa0, 0x2a, 0xbf, 0x52, 0xd4, 0xb4, 0x3e, 0x20, 0xbc, 0xc2, 0x3d, 
  0x7d, 0x5e, 0x57, 0xbf, 0x1f, 0xd9, 0x27, 0x3f, 0x11, 0x02, 0x17, 0x3d, 
  0x56, 0xd1, 0x84, 0xbf, 0xf4, 0x1a, 0xd2, 0x3d, 0x3d, 0xa7, 0xce, 0xbe, 
  0xee, 0x3a, 0x17, 0x3f, 0xa3, 0x33, 0x66, 0x3e, 0xc1, 0x2d, 0x68, 0x3e, 
  0xa4, 0xfd, 0x11, 0xc0, 0xa4, 0xc4, 0xa8, 0xbe, 0xb2, 0xb6, 0x68, 0xbf, 
  0xe3, 0x89, 0xab, 0x3f, 0x84, 0x0b, 0x33, 0x3e, 0x2c, 0x13, 0xf8, 0xbd, 
  0x00, 0x7f, 0xb2, 0xbf, 0x98, 0xea, 0x64, 0xbf, 0x1f, 0x8c, 0x57, 0xbe, 
  0x8f, 0x97, 0x8b, 0xbd, 0xc2, 0x38, 0x25, 0x3d, 0x5d, 0x80, 0xf5, 0xbe, 
  0x42, 0x48, 0xb7, 0x3e, 0x5d, 0x8c, 0x8c, 0x3e, 0x0d, 0x5c, 0x26, 0x3e, 
  0x73, 0x09, 0x90, 0x3d, 0x5b, 0x4c, 0x2e, 0xbf, 0xce, 0x5c, 0x6d, 0x3e, 
  0x0f, 0x34, 0x93, 0x3d, 0x3c, 0x71, 0x05, 0xbf, 0x4c, 0x23, 0x9f, 0xbb, 
  0x78, 0x16, 0x05, 0x40, 0xd0, 0x97, 0x05, 0xbf, 0x0d, 0x89, 0xb0, 0x3c, 
  0x6d, 0xb2, 0x2e, 0x3f, 0xea, 0x2a, 0x04, 0x3f, 0x36, 0x9a, 0x15, 0x3f, 
  0x37, 0x89, 0xa5, 0x3e, 0xb3, 0x5d, 0xbf, 0xbe, 0x7a, 0x2f, 0x0f, 0xbf, 
  0x93, 0xbf, 0xab, 0x3e, 0x1f, 0x5f, 0x86, 0x3f, 0xfd, 0x92, 0x5d, 0x3c, 
  0x17, 0x27, 0x93, 0xbe, 0x94, 0xa6, 0xa1, 0xbf, 0xb9, 0x24, 0xcb, 0x3d, 
  0xd7, 0x95, 0x9b, 0x3e, 0x60, 0x4a, 0xa8, 0x3d, 0xed, 0xca, 0x4f, 0xbe, 
  0x4a, 0x30, 0x72, 0xbe, 0x4d, 0x07, 0x45, 0x3c, 0xf7, 0xd7, 0x50, 0x3e, 
  0x90, 0xa5, 0x2f, 0xbf, 0x59, 0xa3, 0x06, 0xbe, 0xf6, 0xcb, 0x27, 0x3f, 
  0xe8, 0xf8, 0x8c, 0x3d, 0xb1, 0x45, 0x94, 0x3e, 0xc8, 0x0e, 0xd5, 0xbe, 
  0xa4, 0xe2, 0xa8, 0xbe, 0x4b, 0x2c, 0x79, 0x3f, 0xd4, 0x54, 0x00, 0x3e, 
  0xd9, 0xbd, 0x66, 0xbf, 0x3e, 0xf8, 0xb1, 0x3e, 0xda, 0xb8, 0x33, 0x3e, 
  0xd6, 0xe4, 0x01, 0xbf, 0xcd, 0xa3, 0x30, 0xbe, 0x11, 0xdf, 0x5f, 0x3f, 
  0x4f, 0xfa, 0x24, 0x3e, 0x7e, 0xa2, 0x5a, 0xbe, 0xd9, 0x79, 0x9f, 0x3f, 
  0xec, 0xe1, 0x9a, 0x3f, 0xc1, 0x8c, 0x73, 0x3e, 0xe2, 0x6d, 0x2d, 0xbf, 
  0x70, 0xf3, 0xf6, 0xbd, 0x0a, 0xd5, 0x7c, 0x3e, 0x1f, 0x07, 0x85, 0xbf, 
  0x6e, 0x38, 0x27, 0x3e, 0x5a, 0x10, 0x06, 0x3e, 0x72, 0xfc, 0x22, 0xbf, 
  0xaf, 0xae, 0xce, 0x3e, 0x5c, 0x13, 0x1e, 0xbf, 0xa9, 0x26, 0x28, 0xbf, 
  0x26, 0xcb, 0xbf, 0x3f, 0x99, 0x89, 0x9a, 0xbe, 0x78, 0x76, 0x9d, 0x3e, 
  0x65, 0xa8, 0x6a, 0x3f, 0xc4, 0x60, 0xd4, 0xbf, 0xe1, 0x37, 0x07, 0x40, 
  0x0c, 0xbf, 0xb5, 0xbf, 0x0c, 0x15, 0x35, 0xbf, 0x42, 0x2b, 0xd5, 0x3e, 
  0x39, 0x45, 0x30, 0xbf, 0xb1, 0x65, 0x79, 0x3e, 0x2f, 0x78, 0x97, 0xbd, 
  0x9b, 0x92, 0xbc, 0xbe, 0x0c, 0x60, 0xd6, 0xbd, 0xfe, 0x9d, 0x48, 0x3f, 
  0x04, 0x7b, 0x4d, 0xbe, 0xeb, 0x83, 0x17, 0xbf, 0x03, 0x4c, 0xcb, 0x3c, 
  0x26, 0xc6, 0x48, 0xbe, 0x09, 0x5b, 0xf1, 0x3e, 0x29, 0x6d, 0xe3, 0x3e, 
  0x78, 0xea, 0x00, 0x3f, 0x4f, 0xb4, 0xf9, 0xbe, 0x99, 0x99, 0x15, 0x3f, 
  0x69, 0x71, 0xab, 0xbe, 0xcf, 0x4e, 0x22, 0x3c, 0x73, 0x71, 0x75, 0xbe, 
  0x21, 0xc6, 0x8b, 0x3e, 0x1d, 0xb2, 0x08, 0x3e, 0x61, 0xab, 0x5b, 0xbe, 
  0x70, 0x9c, 0x49, 0x3e, 0xc5, 0x20, 0x1c, 0xbf, 0x38, 0x26, 0xa2, 0xbf, 
  0x6b, 0xc9, 0xcc, 0x3e, 0x5c, 0xaf, 0x47, 0x3f, 0x84, 0x51, 0x1b, 0xbf, 
  0xde, 0x28, 0x14, 0x3f, 0x48, 0xff, 0x8d, 0xbf, 0x45, 0x5e, 0xf5, 0x3e, 
  0x6a, 0x7c, 0xa7, 0xbd, 0xe8, 0x1f, 0x80, 0x3f, 0xa0, 0x3d, 0x5e, 0x3f, 
  0x7a, 0x82, 0x0a, 0xbf, 0x53, 0x80, 0x4e, 0xbe, 0x96, 0x89, 0x01, 0xbf, 
  0x7b, 0x78, 0xbb, 0xbe, 0x33, 0xe4, 0xe3, 0xbd, 0x56, 0x56, 0x78, 0x3f, 
  0x05, 0xb1, 0x0f, 0xbd, 0x82, 0xef, 0x01, 0xbd, 0x22, 0x97, 0x99, 0x3e, 
  0x04, 0x5f, 0x1c, 0xbe, 0xd9, 0xca, 0xcc, 0xbe, 0xe1, 0x6d, 0xa9, 0x3e, 
  0x29, 0xb5, 0x35, 0xbf, 0xb8, 0x51, 0x0f, 0xbf, 0x9e, 0x60, 0x16, 0xbf, 
  0x5f, 0x9c, 0x45, 0x3e, 0x90, 0x55, 0x35, 0xbf, 0xd2, 0xf1, 0x1b, 0x3f, 
  0x2a, 0x93, 0xcd, 0x3e, 0x6b, 0x38, 0xf7, 0xbe, 0x5f, 0x44, 0x5f, 0xbe, 
  0xf0, 0x42, 0x8f, 0x3e, 0xf8, 0xd3, 0x5b, 0xbf, 0x7e, 0x31, 0x0c, 0xbd, 
  0xe9, 0x73, 0x4c, 0xbf, 0xab, 0xdd, 0x22, 0xbe, 0xd4, 0x3e, 0x02, 0x3f, 
  0xbd, 0x46, 0x1b, 0xbf, 0x3a, 0xc2, 0xd8, 0x3e, 0xeb, 0x98, 0xa8, 0x3e, 
  0xff, 0xef, 0x54, 0x3d, 0x57, 0xd4, 0xcd, 0x3d, 0xcf, 0xe2, 0x44, 0x3f, 
  0xe1, 0xd6, 0x9a, 0x3e, 0x54, 0x5d, 0xb0, 0x3e, 0x3e, 0x84, 0x29, 0x3f, 
  0x4f, 0x37, 0xa0, 0x3e, 0xed, 0x7e, 0xca, 0x3e, 0x55, 0xe2, 0x50, 0x3f, 
  0xd6, 0xc2, 0xbd, 0x3c, 0x2c, 0xd0, 0xed, 0x3e, 0xe9, 0x6d, 0x4c, 0x3f, 
  0xb0, 0xfe, 0x7d, 0xbe, 0x79, 0x77, 0xc4, 0xbd, 0x64, 0x8a, 0x17, 0x3f, 
  0x52, 0x1c, 0xba, 0x3e, 0xc0, 0x1a, 0x62, 0x3f, 0xfa, 0xe0, 0x2f, 0xc0, 
  0x27, 0x38, 0xa1, 0xbf, 0x3d, 0xa7, 0x8c, 0x3f, 0x40, 0x38, 0xe7, 0xbe, 
  0x94, 0x66, 0x23, 0xbf, 0xba, 0xfb, 0x53, 0x3e, 0x08, 0xe1, 0x05, 0xbf, 
  0x9a, 0xae, 0x05, 0xbf, 0x39, 0x56, 0xe3, 0x3b, 0x64, 0xea, 0x4f, 0x3e, 
  0x0b, 0x42, 0xca, 0x3e, 0xa8, 0x35, 0x7d, 0xbe, 0xc2, 0xe4, 0xb7, 0x3e, 
  0xc3, 0x94, 0xc4, 0xbe, 0xc1, 0x3e, 0x14, 0xbe, 0x33, 0x10, 0xe6, 0x3e, 
  0xe7, 0xe4, 0x5e, 0x3f, 0xa4, 0x58, 0x20, 0xbf, 0xf4, 0xdc, 0xca, 0x3d, 
  0x0f, 0x42, 0xc7, 0xbe, 0x24, 0x37, 0x2e, 0xbe, 0x8e, 0xea, 0x04, 0x3e, 
  0xf7, 0x2f, 0x7f, 0xbf, 0x50, 0x91, 0x02, 0x3f, 0xed, 0x88, 0xb5, 0xbe, 
  0xe8, 0x03, 0x8d, 0x3f, 0x76, 0x64, 0x7d, 0xbf, 0xfd, 0x96, 0x57, 0xbf, 
  0x02, 0xb2, 0xdd, 0xbf, 0xe3, 0x1e, 0x57, 0xbf, 0xca, 0xb8, 0x7e, 0x3f, 
  0x4a, 0xe8, 0x92, 0x3e, 0x75, 0xc9, 0x0d, 0x3f, 0x91, 0xb1, 0x32, 0x3e, 
  0x03, 0xf2, 0x4b, 0xbd, 0xd2, 0x67, 0x42, 0xc0, 0x03, 0x04, 0x99, 0x3e, 
  0x72, 0x52, 0x47, 0xbf, 0xf1, 0x36, 0x88, 0xbe, 0xff, 0x34, 0xa7, 0xbd, 
  0xa5, 0x75, 0xb0, 0x3e, 0x69, 0x16, 0xdc, 0x3c, 0x65, 0x4e, 0x87, 0x3d, 
  0x16, 0x91, 0x1a, 0xbe, 0x92, 0xfa, 0x7a, 0x3d, 0xd3, 0x7c, 0xa3, 0xbe, 
  0x48, 0x78, 0x21, 0xbf, 0x50, 0x60, 0x31, 0xbe, 0x33, 0x72, 0x83, 0xbf, 
  0x5d, 0xe8, 0x09, 0xbf, 0xfd, 0x05, 0x6f, 0xbf, 0xde, 0x6e, 0x26, 0x3e, 
  0xa1, 0xe1, 0x21, 0x3f, 0x17, 0xd8, 0x17, 0x3f, 0x8f, 0xbb, 0xa9, 0x3e, 
  0x12, 0x4b, 0xd9, 0x3e, 0x31, 0x1f, 0x0a, 0x3f, 0x80, 0x19, 0xc3, 0xbe, 
  0x1a, 0x21, 0x0a, 0xbf, 0xd2, 0x13, 0x29, 0x3f, 0x1b, 0x0a, 0x84, 0xbe, 
  0xf6, 0x64, 0x42, 0xbf, 0x02, 0x8f, 0xcf, 0x3d, 0x23, 0xde, 0x38, 0xbd, 
  0xa3, 0x71, 0xe3, 0xbe, 0xea, 0xb3, 0x1b, 0xbf, 0xd5, 0x84, 0x87, 0xbf, 
  0x81, 0xa2, 0x67, 0xbf, 0xc2, 0xab, 0xa9, 0xbe, 0xd9, 0xd0, 0x17, 0xbe, 
  0xca, 0xb0, 0x85, 0xbf, 0x5f, 0x0c, 0x00, 0x3f, 0x9b, 0xef, 0x66, 0xbe, 
  0x54, 0xe4, 0x82, 0x3e, 0x0d, 0x68, 0x08, 0x3e, 0x65, 0x75, 0x8e, 0x3e, 
  0x84, 0x45, 0x6f, 0xbd, 0xcf, 0xf4, 0x0f, 0xbf, 0xc4, 0xde, 0x71, 0xbd, 
  0x08, 0x42, 0x26, 0x3f, 0x5a, 0x0a, 0x78, 0xbe, 0x05, 0xe5, 0x3c, 0xbf, 
  0x90, 0xf4, 0xff, 0xbe, 0xd6, 0xe3, 0xa4, 0xbd, 0x02, 0xa1, 0x56, 0x40, 
  0xf1, 0xca, 0x53, 0xbf, 0x0d, 0x0d, 0x2b, 0xbe, 0x93, 0x94, 0xa7, 0x3c, 
  0xbc, 0xf5, 0x72, 0xbf, 0x3a, 0xf6, 0x6b, 0xbe, 0xf5, 0xfe, 0x4b, 0x3e, 
  0x06, 0xa4, 0x4b, 0xbd, 0xaa, 0x65, 0x0c, 0xbf, 0xdd, 0x8d, 0x57, 0x3f, 
  0x10, 0x6e, 0x24, 0xbf, 0x7f, 0x7b, 0xb0, 0xbe, 0xa4, 0xf2, 0x00, 0xbe, 
  0xf1, 0x3a, 0x62, 0xbf, 0x67, 0xde, 0x03, 0xbf, 0xfa, 0x35, 0x0b, 0x3f, 
  0xd0, 0xbb, 0xa9, 0xbc, 0xdf, 0x9f, 0x87, 0xbe, 0xf1, 0xf8, 0x4b, 0x3e, 
  0x5e, 0xb0, 0xa8, 0xbe, 0x42, 0x97, 0x62, 0xbe, 0x3f, 0x26, 0x33, 0x3e, 
  0xa1, 0x17, 0xb4, 0x3e, 0x61, 0x73, 0xcc, 0xbe, 0xb4, 0x33, 0x0f, 0xbf, 
  0x11, 0x10, 0x42, 0x3f, 0x26, 0xcb, 0x5c, 0xbf, 0x8f, 0xec, 0x8c, 0x3f, 
  0xf7, 0xa3, 0xac, 0x3f, 0x73, 0x84, 0xee, 0xbe, 0x91, 0x06, 0x56, 0x3e, 
  0xea, 0x32, 0x25, 0x3e, 0xd0, 0x1a, 0x4a, 0x3f, 0xfa, 0x51, 0x36, 0xbe, 
  0xbb, 0xc4, 0x09, 0x3f, 0x15, 0xa7, 0x36, 0x3e, 0x17, 0x30, 0xa4, 0x3e, 
  0x0d, 0x7f, 0xde, 0x3e, 0xcd, 0xd7, 0x26, 0xbe, 0xa0, 0xe5, 0x1d, 0xbe, 
  0x44, 0x7b, 0xa0, 0x3e, 0xb6, 0xaa, 0x4c, 0x3e, 0x1f, 0x1d, 0x85, 0x3f, 
  0x52, 0x79, 0x3e, 0x3e, 0xa0, 0x9f, 0xed, 0xbe, 0x4a, 0xe7, 0x3a, 0xbf, 
  0x30, 0xff, 0x04, 0xbf, 0xa7, 0xa4, 0x80, 0xbe, 0xf1, 0x7a, 0xc0, 0xbc, 
  0x37, 0xb6, 0xba, 0x3e, 0x9f, 0x31, 0x1a, 0xbe, 0x1e, 0x63, 0x30, 0xbf, 
  0xd8, 0x5e, 0x01, 0x3e, 0x97, 0xc8, 0x2f, 0xbf, 0xa4, 0x82, 0x03, 0xbf, 
  0x99, 0x1a, 0xa4, 0x3e, 0x1c, 0xfb, 0xc2, 0x3d, 0xd5, 0x49, 0x1a, 0xbf, 
  0x14, 0xff, 0x3a, 0xbd, 0x48, 0x69, 0x23, 0xbe, 0x17, 0xf7, 0xec, 0x3e, 
  0xad, 0x22, 0x7e, 0xbd, 0x2a, 0x4f, 0xd1, 0x3d, 0x43, 0x71, 0xaf, 0x3e, 
  0x0e, 0x9c, 0x83, 0xbe, 0x23, 0x8e, 0x6c, 0xbf, 0xac, 0x8e, 0xae, 0xbf, 
  0x0f, 0x7d, 0x19, 0x3e, 0xaf, 0xf9, 0x97, 0xbf, 0x0d, 0xb4, 0x0c, 0x3f, 
  0x9c, 0xa7, 0xbb, 0xbc, 0x62, 0xbd, 0x47, 0x3e, 0x24, 0xe3, 0xf6, 0xbe, 
  0x13, 0x26, 0x84, 0xbc, 0x84, 0xc1, 0x0b, 0x3f, 0x58, 0x39, 0x01, 0x3c, 
  0x3c, 0xb8, 0x52, 0xbf, 0x7b, 0x9a, 0xf1, 0x3e, 0x01, 0xdd, 0x4a, 0xbc, 
  0xb4, 0xd7, 0xeb, 0xbf, 0x3d, 0x90, 0x27, 0x3e, 0xf9, 0xf6, 0x3a, 0x3e, 
  0xde, 0x64, 0x2b, 0xbf, 0x8f, 0x5f, 0x0b, 0xc0, 0x16, 0x37, 0xa5, 0xbf, 
  0x7c, 0x97, 0xe0, 0x3f, 0x0e, 0xf6, 0x26, 0xbf, 0xf3, 0xbb, 0x32, 0x3e, 
  0xff, 0xe1, 0xa6, 0x3f, 0xa4, 0xab, 0x91, 0x3b, 0xe0, 0xb7, 0x28, 0xbe, 
  0xcb, 0xfb, 0x06, 0xbe, 0x53, 0x6b, 0xfd, 0x3e, 0x02, 0x87, 0x92, 0xbe, 
  0x87, 0xb8, 0xba, 0xbe, 0x96, 0x4c, 0x83, 0xbe, 0x1b, 0x32, 0x2c, 0x3e, 
  0x95, 0xf8, 0x18, 0x3f, 0x37, 0xa4, 0x49, 0x3e, 0xaf, 0xa4, 0xd8, 0xbd, 
  0x59, 0xed, 0x03, 0xbe, 0x26, 0x40, 0x9b, 0xbc, 0x6b, 0x13, 0x24, 0xbc, 
  0x36, 0xe2, 0x9f, 0xbd, 0x96, 0x5d, 0x89, 0xbe, 0x44, 0x56, 0xed, 0x3e, 
  0xac, 0x8a, 0x35, 0x3d, 0x0d, 0x64, 0x90, 0x3f, 0xdc, 0xba, 0x84, 0x3e, 
  0xf1, 0x8b, 0xad, 0xbe, 0x4a, 0x39, 0x13, 0x3f, 0x42, 0x6b, 0x08, 0xbf, 
  0x14, 0x95, 0xe8, 0xbf, 0xc9, 0x89, 0xc9, 0xbe, 0xcd, 0x0e, 0x96, 0x3e, 
  0x9e, 0x38, 0x24, 0xbf, 0x91, 0xce, 0x6d, 0x3e, 0x04, 0xdf, 0x20, 0xbe, 
  0x32, 0x6f, 0xf6, 0xbe, 0x83, 0xaf, 0x0b, 0xbf, 0x24, 0x20, 0xb8, 0x3e, 
  0x3c, 0x8e, 0x8a, 0xbe, 0x69, 0x73, 0xb5, 0xbc, 0x1d, 0x02, 0x1b, 0xbf, 
  0xbc, 0xc5, 0x4a, 0x3f, 0x9e, 0x09, 0x15, 0xbe, 0x20, 0xf3, 0x70, 0x3b, 
  0xb2, 0x51, 0x17, 0x3e, 0x1c, 0xb4, 0x4b, 0x3f, 0xc3, 0xfb, 0x07, 0xbf, 
  0x53, 0x89, 0x2d, 0xbf, 0xed, 0x1b, 0xce, 0x3e, 0xaf, 0xbe, 0x85, 0x3e, 
  0x4d, 0xd6, 0x1c, 0x3f, 0x9a, 0x54, 0x40, 0x3f, 0x3b, 0xf9, 0xd7, 0x3f, 
  0x6b, 0x86, 0x51, 0x3f, 0x5c, 0x6b, 0xca, 0x3b, 0x18, 0x3e, 0x38, 0x3e, 
  0x65, 0x07, 0x23, 0xbf, 0xb0, 0x0d, 0x9f, 0x3e, 0x46, 0x55, 0xee, 0x3d, 
  0x7d, 0x29, 0x66, 0x3f, 0xdd, 0x7a, 0x34, 0xbf, 0x98, 0x8b, 0xb5, 0x3d, 
  0x24, 0xf1, 0x16, 0x3f, 0x08, 0x6c, 0x62, 0xbe, 0x5d, 0x0c, 0x1f, 0x3f, 
  0x40, 0x1f, 0xa0, 0x3d, 0x95, 0x94, 0xa7, 0x3e, 0x0c, 0xf5, 0x0f, 0xbf, 
  0x5b, 0x8c, 0x80, 0xbe, 0xa5, 0x8f, 0x96, 0xbe, 0x6e, 0x60, 0x50, 0x3f, 
  0xf9, 0x71, 0xd3, 0x3f, 0x64, 0x0a, 0x71, 0x3e, 0x19, 0x49, 0x4a, 0xbe, 
  0xbf, 0x2a, 0x27, 0x3f, 0xbf, 0x24, 0x3d, 0x3f, 0xb0, 0xa6, 0xad, 0x3e, 
  0x4a, 0x6c, 0x9b, 0x3e, 0x33, 0x3a, 0xd2, 0x3f, 0x56, 0x31, 0x97, 0x3f, 
  0x87, 0x5f, 0xb1, 0xbf, 0xe8, 0x52, 0x5d, 0x3f, 0x31, 0x13, 0x17, 0xbf, 
  0x17, 0xce, 0x4e, 0xbf, 0x09, 0x47, 0x8a, 0x3f, 0x15, 0xce, 0x95, 0xbf, 
  0xbb, 0x08, 0x57, 0x3f, 0xe2, 0x17, 0x2a, 0x3d, 0x1e, 0xf0, 0xd4, 0xbe, 
  0xea, 0x3f, 0x36, 0x3f, 0x2f, 0xbc, 0x4f, 0x3d, 0x07, 0xde, 0x8c, 0x3c, 
  0x86, 0x45, 0x85, 0xbe, 0x0a, 0x0b, 0x25, 0xbf, 0x74, 0x70, 0x88, 0x3f, 
  0x8c, 0xc8, 0x55, 0x3f, 0x49, 0x97, 0xc7, 0x3e, 0x8a, 0x8f, 0x88, 0xbf, 
  0x7d, 0xfc, 0x32, 0xbf, 0xd6, 0x90, 0x3a, 0xbf, 0xf8, 0x28, 0x2f, 0xbf, 
  0x4f, 0xa5, 0x21, 0x3e, 0x31, 0x1e, 0x4b, 0xbe, 0x7a, 0x11, 0xb5, 0xbd, 
  0xd6, 0x48, 0xb5, 0x3e, 0x19, 0x0a, 0x94, 0x3e, 0x02, 0xe8, 0x2e, 0x3f, 
  0x8b, 0xdf, 0xb9, 0x3e, 0x6e, 0x5d, 0x04, 0x3f, 0xc7, 0x6b, 0xe5, 0xbd, 
  0x08, 0xdb, 0x40, 0x3f, 0x21, 0xdd, 0x67, 0x3f, 0x03, 0x35, 0xfc, 0x3f, 
  0x2e, 0x41, 0xc6, 0x3e, 0xa5, 0xb6, 0x05, 0x40, 0x87, 0xf5, 0xc1, 0xbc, 
  0x73, 0x60, 0x4d, 0xbf, 0x96, 0x8d, 0x9e, 0xbd, 0x68, 0xbf, 0x43, 0xbf, 
  0xc4, 0x5b, 0x1e, 0x3e, 0x29, 0x0f, 0x34, 0xbe, 0x1c, 0xa3, 0x54, 0xbe, 
  0x60, 0x14, 0xaa, 0xbd, 0xd1, 0x6f, 0x2d, 0x3e, 0x66, 0xdb, 0xad, 0xbe, 
  0x75, 0x9c, 0x46, 0xbf, 0xca, 0x7a, 0x56, 0x3d, 0x6a, 0x05, 0x0a, 0xbf, 
  0x74, 0x52, 0xd3, 0xbd, 0x22, 0x5a, 0x1a, 0xbe, 0x6a, 0x3e, 0x33, 0x3f, 
  0xa7, 0x6c, 0x93, 0xbd, 0xc5, 0xf1, 0x29, 0xbe, 0x41, 0xc1, 0x42, 0xbe, 
  0x39, 0x1d, 0xe4, 0xbc, 0x2b, 0x7e, 0xc3, 0xbe, 0x2b, 0xff, 0x7a, 0xbe, 
  0x72, 0x54, 0xdb, 0xbe, 0xc7, 0x3f, 0x2b, 0xbf, 0xad, 0x43, 0x0c, 0x3f, 
  0xfd, 0x9b, 0xc4, 0x3d, 0x84, 0xa8, 0x24, 0xbe, 0x2d, 0x6a, 0xc1, 0x3f, 
  0x90, 0x21, 0x34, 0x3f, 0x26, 0x0c, 0x91, 0xbf, 0x92, 0xb0, 0xce, 0x3f, 
  0x1b, 0x8f, 0x9f, 0xbe, 0x89, 0xd1, 0x88, 0xbe, 0xf4, 0xc1, 0x4b, 0xbd, 
  0x6d, 0xf8, 0xc5, 0x3e, 0xce, 0xda, 0x3d, 0x3f, 0x36, 0x1c, 0x66, 0x3e, 
  0xd6, 0x64, 0x2c, 0x3f, 0x13, 0x66, 0x50, 0xbf, 0x2e, 0x39, 0xa2, 0x3e, 
  0x01, 0x28, 0xd0, 0x3e, 0xcc, 0xe9, 0x25, 0x3e, 0x46, 0x91, 0x12, 0x3f, 
  0xb0, 0xef, 0x2c, 0x3f, 0xb1, 0x38, 0xe7, 0x3e, 0xa9, 0xad, 0xc0, 0x3e, 
  0x0a, 0x7e, 0xfe, 0x3e, 0x52, 0x1c, 0x6b, 0xbf, 0x86, 0x78, 0x08, 0xbf, 
  0xac, 0xd2, 0xa7, 0xbe, 0x36, 0xa1, 0xc9, 0x3e, 0x40, 0x1a, 0xc0, 0xbd, 
  0xd1, 0x9b, 0x26, 0xbd, 0x25, 0xf5, 0xca, 0x3e, 0xf6, 0xcb, 0x1b, 0xbe, 
  0x60, 0x9b, 0x41, 0x3f, 0xd4, 0xde, 0xd4, 0xbe, 0x18, 0x92, 0xbe, 0xbe, 
  0xda, 0x2d, 0xfb, 0xbe, 0x1f, 0x80, 0x7c, 0x3f, 0xad, 0xd7, 0xf8, 0xbe, 
  0x03, 0x5f, 0x42, 0x3f, 0xab, 0x9d, 0x94, 0x3f, 0x4a, 0xe4, 0x6d, 0xbf, 
  0x04, 0x59, 0x67, 0xbf, 0x34, 0x62, 0x1e, 0xbf, 0x91, 0xe7, 0x81, 0x3e, 
  0x5d, 0x1e, 0x17, 0xbe, 0x9d, 0x1a, 0x0b, 0x40, 0x5a, 0x29, 0x21, 0x3f, 
  0x15, 0x54, 0x2c, 0xbe, 0xbf, 0x60, 0xc3, 0x3d, 0xdf, 0x9b, 0x16, 0xbf, 
  0xf2, 0xcd, 0x8b, 0x3e, 0x6b, 0x91, 0xa3, 0xbe, 0x70, 0x30, 0xd0, 0x3e, 
  0xbd, 0x2e, 0x08, 0x3f, 0x65, 0xc8, 0xd1, 0xbf, 0xc1, 0xb5, 0x0c, 0x3f, 
  0x5a, 0xc8, 0x97, 0xbe, 0x90, 0xf4, 0x28, 0xbf, 0x04, 0x38, 0x23, 0xc0, 
  0xd3, 0x2f, 0x9e, 0xbd, 0xfa, 0x17, 0x65, 0xbf, 0xad, 0x34, 0x09, 0xbe, 
  0x62, 0x14, 0x7b, 0x3e, 0xa9, 0xc3, 0x4c, 0xbf, 0xa9, 0xf1, 0x1f, 0x3f, 
  0x2a, 0x2b, 0xd6, 0x3e, 0x5a, 0x99, 0x39, 0x3f, 0xc0, 0xae, 0xea, 0xbe, 
  0x32, 0x0e, 0x9b, 0x3f, 0x7b, 0x6e, 0x00, 0xbf, 0xe4, 0x82, 0x2d, 0xbf, 
  0x90, 0x51, 0x37, 0xbf, 0x5d, 0xe1, 0x77, 0xbc, 0x25, 0x1d, 0xf8, 0x3e, 
  0x56, 0xb4, 0x3a, 0xbe, 0x71, 0x2f, 0x3c, 0x3d, 0x59, 0xce, 0xbd, 0x3e, 
  0x9a, 0xee, 0x39, 0x3d, 0xa0, 0x96, 0x3f, 0x3f, 0x47, 0x08, 0x1b, 0x3e, 
  0x65, 0x67, 0xa7, 0xbc, 0x3b, 0x70, 0x9c, 0xbf, 0xdc, 0x7a, 0xcb, 0x3e, 
  0x16, 0x74, 0x77, 0xbf, 0x86, 0x14, 0xb6, 0x3e, 0x11, 0xcb, 0x0d, 0xbf, 
  0xce, 0xfe, 0xff, 0xff, 0x04, 0x00, 0x00, 0x00, 0x18, 0x00, 0x00, 0x00, 
  0x52, 0x38, 0xa9, 0x3e, 0x45, 0x0c, 0x8c, 0xbf, 0x46, 0x95, 0x26, 0xbf, 
  0x92, 0x0d, 0xf1, 0x3e, 0xf4, 0x77, 0xb0, 0xbe, 0x86, 0xbb, 0x3a, 0x3f, 
  0xf2, 0xfe, 0xff, 0xff, 0x04, 0x00, 0x00, 0x00, 0x70, 0x00, 0x00, 0x00, 
  0xce, 0xe7, 0x55, 0xbf, 0xab, 0x9d, 0x02, 0xbf, 0xf3, 0xf4, 0x56, 0xbd, 
  0x3d, 0x96, 0x83, 0xbe, 0xa4, 0xb3, 0xa1, 0xbe, 0xda, 0x37, 0x01, 0x3e, 
  0x4f, 0x54, 0x1e, 0xbf, 0xe5, 0x74, 0x74, 0xbf, 0x1d, 0x07, 0x6b, 0xbf, 
  0x4b, 0x84, 0x35, 0xbf, 0x0f, 0x98, 0xa0, 0xbf, 0x0a, 0xdf, 0x20, 0xbe, 
  0x48, 0x8c, 0x08, 0xbe, 0x7f, 0xfd, 0x6f, 0xbf, 0xe5, 0xcb, 0x3e, 0xbf, 
  0x75, 0x77, 0x5c, 0xbf, 0x6d, 0xfd, 0xe3, 0xbe, 0x0d, 0x4c, 0x7e, 0x3e, 
  0x5a, 0x16, 0xc6, 0xbf, 0x29, 0xc7, 0x21, 0xbf, 0x03, 0x3a, 0x40, 0xbf, 
  0xbe, 0x4e, 0xd4, 0xbe, 0x96, 0x6c, 0x13, 0xbf, 0x61, 0xb4, 0xad, 0xbe, 
  0x82, 0x67, 0x33, 0xbe, 0x1c, 0x2a, 0x57, 0xbe, 0x99, 0x66, 0x92, 0xbf, 
  0x13, 0x12, 0x43, 0xbe, 0xf4, 0xfb, 0xff, 0xff, 0xf8, 0xfb, 0xff, 0xff, 
  0x0f, 0x00, 0x00, 0x00, 0x4d, 0x4c, 0x49, 0x52, 0x20, 0x43, 0x6f, 0x6e, 
  0x76, 0x65, 0x72, 0x74, 0x65, 0x64, 0x2e, 0x00, 0x01, 0x00, 0x00, 0x00, 
  0x14, 0x00, 0x00, 0x00, 0x00, 0x00, 0x0e, 0x00, 0x18, 0x00, 0x14, 0x00, 
  0x10, 0x00, 0x0c, 0x00, 0x08, 0x00, 0x04, 0x00, 0x0e, 0x00, 0x00, 0x00, 
  0x14, 0x00, 0x00, 0x00, 0x1c, 0x00, 0x00, 0x00, 0xec, 0x00, 0x00, 0x00, 
  0xf0, 0x00, 0x00, 0x00, 0xf4, 0x00, 0x00, 0x00, 0x04, 0x00, 0x00, 0x00, 
  0x6d, 0x61, 0x69, 0x6e, 0x00, 0x00, 0x00, 0x00, 0x03, 0x00, 0x00, 0x00, 
  0x94, 0x00, 0x00, 0x00, 0x50, 0x00, 0x00, 0x00, 0x14, 0x00, 0x00, 0x00, 
  0x00, 0x00, 0x0e, 0x00, 0x1a, 0x00, 0x14, 0x00, 0x10, 0x00, 0x0c, 0x00, 
  0x0b, 0x00, 0x04, 0x00, 0x0e, 0x00, 0x00, 0x00, 0x1c, 0x00, 0x00, 0x00, 
  0x00, 0x00, 0x00, 0x09, 0x1c, 0x00, 0x00, 0x00, 0x20, 0x00, 0x00, 0x00, 
  0x01, 0x00, 0x00, 0x00, 0x00, 0x00, 0x06, 0x00, 0x08, 0x00, 0x04, 0x00, 
  0x06, 0x00, 0x00, 0x00, 0x00, 0x00, 0x80, 0x3f, 0x01, 0x00, 0x00, 0x00, 
  0x07, 0x00, 0x00, 0x00, 0x01, 0x00, 0x00, 0x00, 0x06, 0x00, 0x00, 0x00, 
  0xce, 0xff, 0xff, 0xff, 0x10, 0x00, 0x00, 0x00, 0x00, 0x00, 0x00, 0x08, 
  0x0c, 0x00, 0x00, 0x00, 0x10, 0x00, 0x00, 0x00, 0xb8, 0xfc, 0xff, 0xff, 
  0x01, 0x00, 0x00, 0x00, 0x06, 0x00, 0x00, 0x00, 0x03, 0x00, 0x00, 0x00, 
  0x05, 0x00, 0x00, 0x00, 0x04, 0x00, 0x00, 0x00, 0x02, 0x00, 0x00, 0x00, 
  0x00, 0x00, 0x0e, 0x00, 0x16, 0x00, 0x00, 0x00, 0x10, 0x00, 0x0c, 0x00, 
  0x0b, 0x00, 0x04, 0x00, 0x0e, 0x00, 0x00, 0x00, 0x18, 0x00, 0x00, 0x00, 
  0x00, 0x00, 0x00, 0x08, 0x18, 0x00, 0x00, 0x00, 0x1c, 0x00, 0x00, 0x00, 
  0x00, 0x00, 0x06, 0x00, 0x08, 0x00, 0x07, 0x00, 0x06, 0x00, 0x00, 0x00, 
  0x00, 0x00, 0x00, 0x01, 0x01, 0x00, 0x00, 0x00, 0x05, 0x00, 0x00, 0x00, 
  0x03, 0x00, 0x00, 0x00, 0x00, 0x00, 0x00, 0x00, 0x03, 0x00, 0x00, 0x00, 
  0x01, 0x00, 0x00, 0x00, 0x01, 0x00, 0x00, 0x00, 0x07, 0x00, 0x00, 0x00, 
  0x01, 0x00, 0x00, 0x00, 0x00, 0x00, 0x00, 0x00, 0x08, 0x00, 0x00, 0x00, 
  0xa8, 0x02, 0x00, 0x00, 0x44, 0x02, 0x00, 0x00, 0xe0, 0x01, 0x00, 0x00, 
  0x9c, 0x01, 0x00, 0x00, 0x54, 0x01, 0x00, 0x00, 0xd0, 0x00, 0x00, 0x00, 
  0x5c, 0x00, 0x00, 0x00, 0x04, 0x00, 0x00, 0x00, 0x8c, 0xfd, 0xff, 0xff, 
  0x14, 0x00, 0x00, 0x00, 0x1c, 0x00, 0x00, 0x00, 0x1c, 0x00, 0x00, 0x00, 
  0x08, 0x00, 0x00, 0x00, 0x34, 0x00, 0x00, 0x00, 0x02, 0x00, 0x00, 0x00, 
  0xff, 0xff, 0xff, 0xff, 0x06, 0x00, 0x00, 0x00, 0x78, 0xfd, 0xff, 0xff, 
  0x19, 0x00, 0x00, 0x00, 0x53, 0x74, 0x61, 0x74, 0x65, 0x66, 0x75, 0x6c, 
  0x50, 0x61, 0x72, 0x74, 0x69, 0x74, 0x69, 0x6f, 0x6e, 0x65, 0x64, 0x43, 
  0x61, 0x6c, 0x6c, 0x3a, 0x30, 0x00, 0x00, 0x00, 0x02, 0x00, 0x00, 0x00, 
  0x01, 0x00, 0x00, 0x00, 0x06, 0x00, 0x00, 0x00, 0xe0, 0xfd, 0xff, 0xff, 
  0x14, 0x00, 0x00, 0x00, 0x1c, 0x00, 0x00, 0x00, 0x1c, 0x00, 0x00, 0x00, 
  0x07, 0x00, 0x00, 0x00, 0x50, 0x00, 0x00, 0x00, 0x02, 0x00, 0x00, 0x00, 
  0xff, 0xff, 0xff, 0xff, 0x06, 0x00, 0x00, 0x00, 0xcc, 0xfd, 0xff, 0xff, 
  0x34, 0x00, 0x00, 0x00, 0x73, 0x65, 0x71, 0x75, 0x65, 0x6e, 0x74, 0x69, 
  0x61, 0x6c, 0x2f, 0x64, 0x65, 0x6e, 0x73, 0x65, 0x5f, 0x31, 0x2f, 0x4d, 
  0x61, 0x74, 0x4d, 0x75, 0x6c, 0x3b, 0x73, 0x65, 0x71, 0x75, 0x65, 0x6e, 
  0x74, 0x69, 0x61, 0x6c, 0x2f, 0x64, 0x65, 0x6e, 0x73, 0x65, 0x5f, 0x31, 
  0x2f, 0x42, 0x69, 0x61, 0x73, 0x41, 0x64, 0x64, 0x00, 0x00, 0x00, 0x00, 
  0x02, 0x00, 0x00, 0x00, 0x01, 0x00, 0x00, 0x00, 0x06, 0x00, 0x00, 0x00, 
  0x50, 0xfe, 0xff, 0xff, 0x14, 0x00, 0x00, 0x00, 0x1c, 0x00, 0x00, 0x00, 
  0x1c, 0x00, 0x00, 0x00, 0x06, 0x00, 0x00, 0x00, 0x60, 0x00, 0x00, 0x00, 
  0x02, 0x00, 0x00, 0x00, 0xff, 0xff, 0xff, 0xff, 0x1c, 0x00, 0x00, 0x00, 
  0x3c, 0xfe, 0xff, 0xff, 0x46, 0x00, 0x00, 0x00, 0x73, 0x65, 0x71, 0x75, 
  0x65, 0x6e, 0x74, 0x69, 0x61, 0x6c, 0x2f, 0x64, 0x65, 0x6e, 0x73, 0x65, 
  0x2f, 0x4d, 0x61, 0x74, 0x4d, 0x75, 0x6c, 0x3b, 0x73, 0x65, 0x71, 0x75, 
  0x65, 0x6e, 0x74, 0x69, 0x61, 0x6c, 0x2f, 0x64, 0x65, 0x6e, 0x73, 0x65, 
  0x2f, 0x52, 0x65, 0x6c, 0x75, 0x3b, 0x73, 0x65, 0x71, 0x75, 0x65, 0x6e, 
  0x74, 0x69, 0x61, 0x6c, 0x2f, 0x64, 0x65, 0x6e, 0x73, 0x65, 0x2f, 0x42, 
  0x69, 0x61, 0x73, 0x41, 0x64, 0x64, 0x00, 0x00, 0x02, 0x00, 0x00, 0x00, 
  0x01, 0x00, 0x00, 0x00, 0x1c, 0x00, 0x00, 0x00, 0x2a, 0xff, 0xff, 0xff, 
  0x10, 0x00, 0x00, 0x00, 0x10, 0x00, 0x00, 0x00, 0x05, 0x00, 0x00, 0x00, 
  0x28, 0x00, 0x00, 0x00, 0xac, 0xfe, 0xff, 0xff, 0x19, 0x00, 0x00, 0x00, 
  0x73, 0x65, 0x71, 0x75, 0x65, 0x6e, 0x74, 0x69, 0x61, 0x6c, 0x2f, 0x64, 
  0x65, 0x6e, 0x73, 0x65, 0x5f, 0x31, 0x2f, 0x4d, 0x61, 0x74, 0x4d, 0x75, 
  0x6c, 0x00, 0x00, 0x00, 0x02, 0x00, 0x00, 0x00, 0x06, 0x00, 0x00, 0x00, 
  0x1c, 0x00, 0x00, 0x00, 0x6e, 0xff, 0xff, 0xff, 0x10, 0x00, 0x00, 0x00, 
  0x10, 0x00, 0x00, 0x00, 0x04, 0x00, 0x00, 0x00, 0x24, 0x00, 0x00, 0x00, 
  0xf0, 0xfe, 0xff, 0xff, 0x17, 0x00, 0x00, 0x00, 0x73, 0x65, 0x71, 0x75, 
  0x65, 0x6e, 0x74, 0x69, 0x61, 0x6c, 0x2f, 0x64, 0x65, 0x6e, 0x73, 0x65, 
  0x2f, 0x4d, 0x61, 0x74, 0x4d, 0x75, 0x6c, 0x00, 0x02, 0x00, 0x00, 0x00, 
  0x1c, 0x00, 0x00, 0x00, 0x1c, 0x00, 0x00, 0x00, 0xae, 0xff, 0xff, 0xff, 
  0x10, 0x00, 0x00, 0x00, 0x10, 0x00, 0x00, 0x00, 0x03, 0x00, 0x00, 0x00, 
  0x38, 0x00, 0x00, 0x00, 0x30, 0xff, 0xff, 0xff, 0x29, 0x00, 0x00, 0x00, 
  0x73, 0x65, 0x71, 0x75, 0x65, 0x6e, 0x74, 0x69, 0x61, 0x6c, 0x2f, 0x64, 
  0x65, 0x6e, 0x73, 0x65, 0x5f, 0x31, 0x2f, 0x42, 0x69, 0x61, 0x73, 0x41, 
  0x64, 0x64, 0x2f, 0x52, 0x65, 0x61, 0x64, 0x56, 0x61, 0x72, 0x69, 0x61, 
  0x62, 0x6c, 0x65, 0x4f, 0x70, 0x00, 0x00, 0x00, 0x01, 0x00, 0x00, 0x00, 
  0x06, 0x00, 0x00, 0x00, 0x00, 0x00, 0x0e, 0x00, 0x14, 0x00, 0x10, 0x00, 
  0x00, 0x00, 0x0c, 0x00, 0x08, 0x00, 0x04, 0x00, 0x0e, 0x00, 0x00, 0x00, 
  0x10, 0x00, 0x00, 0x00, 0x10, 0x00, 0x00, 0x00, 0x02, 0x00, 0x00, 0x00, 
  0x34, 0x00, 0x00, 0x00, 0x90, 0xff, 0xff, 0xff, 0x27, 0x00, 0x00, 0x00, 
  0x73, 0x65, 0x71, 0x75, 0x65, 0x6e, 0x74, 0x69, 0x61, 0x6c, 0x2f, 0x64, 
  0x65, 0x6e, 0x73, 0x65, 0x2f, 0x42, 0x69, 0x61, 0x73, 0x41, 0x64, 0x64, 
  0x2f, 0x52, 0x65, 0x61, 0x64, 0x56, 0x61, 0x72, 0x69, 0x61, 0x62, 0x6c, 
  0x65, 0x4f, 0x70, 0x00, 0x01, 0x00, 0x00, 0x00, 0x1c, 0x00, 0x00, 0x00, 
  0x14, 0x00, 0x18, 0x00, 0x14, 0x00, 0x00, 0x00, 0x10, 0x00, 0x0c, 0x00, 
  0x08, 0x00, 0x00, 0x00, 0x00, 0x00, 0x04, 0x00, 0x14, 0x00, 0x00, 0x00, 
  0x14, 0x00, 0x00, 0x00, 0x20, 0x00, 0x00, 0x00, 0x20, 0x00, 0x00, 0x00, 
  0x01, 0x00, 0x00, 0x00, 0x38, 0x00, 0x00, 0x00, 0x02, 0x00, 0x00, 0x00, 
  0xff, 0xff, 0xff, 0xff, 0x1c, 0x00, 0x00, 0x00, 0x04, 0x00, 0x04, 0x00, 
  0x04, 0x00, 0x00, 0x00, 0x19, 0x00, 0x00, 0x00, 0x73, 0x65, 0x72, 0x76, 
  0x69, 0x6e, 0x67, 0x5f, 0x64, 0x65, 0x66, 0x61, 0x75, 0x6c, 0x74, 0x5f, 
  0x69, 0x6e, 0x70, 0x75, 0x74, 0x5f, 0x31, 0x3a, 0x30, 0x00, 0x00, 0x00, 
  0x02, 0x00, 0x00, 0x00, 0x01, 0x00, 0x00, 0x00, 0x1c, 0x00, 0x00, 0x00, 
  0x02, 0x00, 0x00, 0x00, 0x20, 0x00, 0x00, 0x00, 0x04, 0x00, 0x00, 0x00, 
  0xf4, 0xff, 0xff, 0xff, 0x19, 0x00, 0x00, 0x00, 0x00, 0x00, 0x00, 0x19, 
  0x0c, 0x00, 0x0c, 0x00, 0x0b, 0x00, 0x00, 0x00, 0x00, 0x00, 0x04, 0x00, 
  0x0c, 0x00, 0x00, 0x00, 0x09, 0x00, 0x00, 0x00, 0x00, 0x00, 0x00, 0x09, 
};
unsigned int tflite_model_len = 5580;

#define INPUT_TENSOR_SIZE 28
#define OUTPUT_TENSOR_SIZE 6

const float input_scale[] = {
  0.736936, 2.329083, 0.694624, 0.280949, 
  1.642300, 2.502414, 2.267885, 1.259216, 
  1.336653, 2.841984, 1.818778, 1.777678, 
  0.613842, 1.162095, 0.944959, 0.715529, 
  0.433675, 0.339368, 0.428968, 0.437677, 
  2.668060, 3.329203, 5.504171, 5.467428, 
  0.848586, 0.749422, 0.703402, 0.698397, 
};

const float input_offset[] = {
  -0.274707, 0.313200, 9.386416, 9.943031, 
  -1.863353, -1.523732, 7.766061, 8.459262, 
  1.027701, 2.354886, 11.223031, 11.636450, 
  0.758863, 1.174141, 0.841128, 0.723057, 
  3.296737, 3.351173, 3.270526, 3.250434, 
  1.755453, 1.920840, 3.180507, 3.425946, 
  1.884335, 1.931160, 2.021174, 2.049851, 
};
