unsigned char tflite_model[] = {
  0x1c, 0x00, 0x00, 0x00, 0x54, 0x46, 0x4c, 0x33, 0x14, 0x00, 0x20, 0x00, 
  0x1c, 0x00, 0x18, 0x00, 0x14, 0x00, 0x10, 0x00, 0x0c, 0x00, 0x00, 0x00, 
  0x08, 0x00, 0x04, 0x00, 0x14, 0x00, 0x00, 0x00, 0x1c, 0x00, 0x00, 0x00, 
  0x8c, 0x00, 0x00, 0x00, 0xe4, 0x00, 0x00, 0x00, 0x68, 0x04, 0x00, 0x00, 
  0x78, 0x04, 0x00, 0x00, 0x98, 0x08, 0x00, 0x00, 0x03, 0x00, 0x00, 0x00, 
  0x01, 0x00, 0x00, 0x00, 0x10, 0x00, 0x00, 0x00, 0x00, 0x00, 0x0a, 0x00, 
  0x10, 0x00, 0x0c, 0x00, 0x08, 0x00, 0x04, 0x00, 0x0a, 0x00, 0x00, 0x00, 
  0x0c, 0x00, 0x00, 0x00, 0x1c, 0x00, 0x00, 0x00, 0x38, 0x00, 0x00, 0x00, 
  0x0f, 0x00, 0x00, 0x00, 0x73, 0x65, 0x72, 0x76, 0x69, 0x6e, 0x67, 0x5f, 
  0x64, 0x65, 0x66, 0x61, 0x75, 0x6c, 0x74, 0x00, 0x01, 0x00, 0x00, 0x00, 
  0x04, 0x00, 0x00, 0x00, 0x9c, 0xff, 0xff, 0xff, 0x07, 0x00, 0x00, 0x00, 
  0x04, 0x00, 0x00, 0x00, 0x07, 0x00, 0x00, 0x00, 0x64, 0x65, 0x6e, 0x73, 
  0x65, 0x5f, 0x31, 0x00, 0x01, 0x00, 0x00, 0x00, 0x04, 0x00, 0x00, 0x00, 
  0x7e, 0xfb, 0xff, 0xff, 0x04, 0x00, 0x00, 0x00, 0x07, 0x00, 0x00, 0x00, 
  0x69, 0x6e, 0x70, 0x75, 0x74, 0x5f, 0x31, 0x00, 0x02, 0x00, 0x00, 0x00, 
  0x34, 0x00, 0x00, 0x00, 0x04, 0x00, 0x00, 0x00, 0xdc, 0xff, 0xff, 0xff, 
  0x0a, 0x00, 0x00, 0x00, 0x04, 0x00, 0x00, 0x00, 0x13, 0x00, 0x00, 0x00, 
  0x43, 0x4f, 0x4e, 0x56, 0x45, 0x52, 0x53, 0x49, 0x4f, 0x4e, 0x5f, 0x4d, 
  0x45, 0x54, 0x41, 0x44, 0x41, 0x54, 0x41, 0x00, 0x08, 0x00, 0x0c, 0x00, 
  0x08, 0x00, 0x04, 0x00, 0x08, 0x00, 0x00, 0x00, 0x09, 0x00, 0x00, 0x00, 
  0x04, 0x00, 0x00, 0x00, 0x13, 0x00, 0x00, 0x00, 0x6d, 0x69, 0x6e, 0x5f, 
  0x72, 0x75, 0x6e, 0x74, 0x69, 0x6d, 0x65, 0x5f, 0x76, 0x65, 0x72, 0x73, 
  0x69, 0x6f, 0x6e, 0x00, 0x0b, 0x00, 0x00, 0x00, 0x80, 0x03, 0x00, 0x00, 
  0x78, 0x03, 0x00, 0x00, 0x40, 0x03, 0x00, 0x00, 0x18, 0x03, 0x00, 0x00, 
  0xa0, 0x01, 0x00, 0x00, 0xa0, 0x00, 0x00, 0x00, 0x98, 0x00, 0x00, 0x00, 
  0x90, 0x00, 0x00, 0x00, 0x88, 0x00, 0x00, 0x00, 0x68, 0x00, 0x00, 0x00, 
  0x04, 0x00, 0x00, 0x00, 0x1e, 0xfc, 0xff, 0xff, 0x04, 0x00, 0x00, 0x00, 
  0x54, 0x00, 0x00, 0x00, 0x0c, 0x00, 0x00, 0x00, 0x08, 0x00, 0x0e, 0x00, 
  0x08, 0x00, 0x04, 0x00, 0x08, 0x00, 0x00, 0x00, 0x10, 0x00, 0x00, 0x00, 
  0x24, 0x00, 0x00, 0x00, 0x00, 0x00, 0x06, 0x00, 0x08, 0x00, 0x04, 0x00, 
  0x06, 0x00, 0x00, 0x00, 0x04, 0x00, 0x00, 0x00, 0x00, 0x00, 0x00, 0x00, 
  0x00, 0x00, 0x0a, 0x00, 0x10, 0x00, 0x0c, 0x00, 0x08, 0x00, 0x04, 0x00, 
  0x0a, 0x00, 0x00, 0x00, 0x02, 0x00, 0x00, 0x00, 0x02, 0x00, 0x00, 0x00, 
  0x04, 0x00, 0x00, 0x00, 0x05, 0x00, 0x00, 0x00, 0x32, 0x2e, 0x39, 0x2e, 
  0x31, 0x00, 0x00, 0x00, 0x7e, 0xfc, 0xff, 0xff, 0x04, 0x00, 0x00, 0x00, 
  0x10, 0x00, 0x00, 0x00, 0x31, 0x2e, 0x35, 0x2e, 0x30, 0x00, 0x00, 0x00, 
  0x00, 0x00, 0x00, 0x00, 0x00, 0x00, 0x00, 0x00, 0x20, 0xf9, 0xff, 0xff, 
  0x24, 0xf9, 0xff, 0xff, 0x28, 0xf9, 0xff, 0xff, 0xa6, 0xfc, 0xff, 0xff, 
  0x04, 0x00, 0x00, 0x00, 0xf0, 0x00, 0x00, 0x00, 0x66, 0xfb, 0x86, 0xbf, 
  0xff, 0xc9, 0x8c, 0xbf, 0x3c, 0xc3, 0x93, 0x3f, 0x65, 0x51, 0x3c, 0x3f, 
  0xd1, 0x68, 0x78, 0x3d, 0x45, 0x70, 0x95, 0xbe, 0xe7, 0xb2, 0x99, 0xbe, 
  0x55, 0x98, 0xed, 0x3e, 0x3b, 0xec, 0x11, 0x3f, 0xee, 0xf8, 0x97, 0xbf, 
  0xf1, 0x7e, 0x6f, 0x3f, 0x2b, 0xda, 0x31, 0x3f, 0x27, 0x08, 0xa7, 0xbf, 
  0xa3, 0x01, 0x34, 0xbf, 0xa3, 0x0a, 0x1b, 0xbf, 0xb7, 0xbc, 0xe7, 0x3d, 
  0x80, 0xaa, 0x45, 0xbf, 0xa2, 0x72, 0x8a, 0xbe, 0x24, 0x6d, 0xb2, 0xbe, 
  0xff, 0x44, 0x94, 0xbe, 0x6b, 0x7a, 0x9a, 0xbf, 0xd2, 0xaf, 0xa4, 0xbf, 
  0x95, 0xf3, 0x9c, 0xbf, 0x70, 0xb7, 0xf4, 0xbe, 0x76, 0x70, 0x66, 0x3f, 
  0x28, 0x39, 0x6a, 0xbf, 0x2f, 0xd3, 0xa3, 0xbf, 0x1a, 0xab, 0x17, 0xbf, 
  0xf3, 0x2b, 0xbf, 0xbf, 0x14, 0xcb, 0x1c, 0x3f, 0x52, 0xd1, 0x1b, 0xbf, 
  0x32, 0xb9, 0x61, 0x3f, 0x9d, 0x6f, 0xdf, 0xbe, 0x32, 0x23, 0x28, 0x3e, 
  0xf8, 0x2e, 0xeb, 0x3e, 0xad, 0xae, 0x97, 0x3e, 0x49, 0x7c, 0xa8, 0xbe, 
  0xfe, 0x23, 0x33, 0x3f, 0x3c, 0x8a, 0x95, 0xbe, 0xdd, 0xc1, 0xf2, 0x3d, 
  0x99, 0xdb, 0x7c, 0x3e, 0x72, 0x07, 0x09, 0x3f, 0x53, 0x0e, 0xe6, 0x3e, 
  0xa4, 0x60, 0x3c, 0x3e, 0x06, 0x74, 0x6a, 0xbf, 0x7b, 0x7c, 0x35, 0x3f, 
  0xe7, 0x6c, 0xcb, 0x3e, 0x05, 0x37, 0xdb, 0x3d, 0x42, 0xe1, 0x86, 0x3d, 
  0x4d, 0xf4, 0x4c, 0xbf, 0x68, 0xe8, 0x49, 0xbe, 0x68, 0xda, 0xa6, 0x3e, 
  0x66, 0x86, 0x09, 0xbf, 0x98, 0xeb, 0xc0, 0xbf, 0x78, 0xf2, 0xa2, 0x3a, 
  0x12, 0x21, 0xab, 0xbf, 0x6c, 0x56, 0x34, 0x3f, 0xad, 0xd7, 0x4d, 0xbf, 
  0xe9, 0xa6, 0x12, 0x3f, 0xd5, 0x6e, 0x51, 0x3e, 0xa2, 0xfd, 0xff, 0xff, 
  0x04, 0x00, 0x00, 0x00, 0x68, 0x01, 0x00, 0x00, 0xfa, 0x4c, 0xbe, 0xbe, 
  0xd5, 0xf6, 0xb8, 0x3f, 0x22, 0x88, 0x8f, 0xbe, 0xc2, 0x8f, 0xe8, 0xbd, 
  0xff, 0xdb, 0x75, 0x3d, 0xa3, 0x4f, 0x15, 0x3e, 0xde, 0xf3, 0xd5, 0x3c, 
  0xc1, 0x94, 0xbb, 0x3c, 0x4a, 0xff, 0x17, 0xbf, 0x0c, 0xb0, 0x23, 0xbf, 
  0x02, 0x10, 0x23, 0x3f, 0xe6, 0x68, 0x2d, 0x3f, 0xa4, 0x7c, 0xa3, 0xbe, 
  0xce, 0xb2, 0xb8, 0xbe, 0x8b, 0x57, 0x30, 0xbf, 0x6f, 0x20, 0xb2, 0x3e, 
  0xba, 0x0c, 0xf8, 0xbc, 0x69, 0x4f, 0x7a, 0xbf, 0xcc, 0x83, 0x05, 0xbf, 
  0x7d, 0x1f, 0x93, 0xbf, 0xd6, 0xcd, 0xb8, 0xbe, 0x95, 0x7f, 0x8a, 0x3e, 
  0x6b, 0x2d, 0xab, 0xbc, 0x89, 0xf4, 0xbd, 0xbc, 0xca, 0x62, 0x37, 0xbd, 
  0x04, 0xb0, 0x51, 0x3e, 0xd1, 0x17, 0xbf, 0xbe, 0x43, 0x34, 0x86, 0xbf, 
  0xe9, 0xa8, 0x8e, 0xbf, 0x9e, 0xe0, 0x24, 0x3e, 0x39, 0x1b, 0x60, 0xbe, 
  0x34, 0x8d, 0xcc, 0x3e, 0x22, 0x39, 0xaa, 0x3c, 0xb3, 0x90, 0xdd, 0x3e, 
  0x6d, 0x75, 0x87, 0x3b, 0xce, 0xe7, 0xe2, 0xbe, 0x1d, 0x91, 0x1f, 0x3e, 
  0x78, 0xf9, 0x18, 0xbf, 0xce, 0x83, 0xa9, 0x3f, 0x42, 0x72, 0x94, 0xbe, 
  0x16, 0x2d, 0x70, 0xbf, 0x0e, 0xa4, 0xe0, 0xbe, 0xa8, 0x45, 0x89, 0xbe, 
  0xa5, 0xaa, 0xfe, 0x3e, 0xe8, 0xd7, 0x73, 0x3f, 0xc3, 0xc6, 0x39, 0xbe, 
  0x0a, 0x65, 0x8a, 0xbc, 0x9e, 0x93, 0xd2, 0x3e, 0x71, 0x80, 0x2d, 0x3f, 
  0xb7, 0xcb, 0xc6, 0x3e, 0xbb, 0xc2, 0x33, 0x3f, 0x41, 0x56, 0x0d, 0xbf, 
  0xbf, 0xb3, 0xf5, 0xbe, 0x30, 0x67, 0x4d, 0xbe, 0xb2, 0x10, 0x88, 0x3f, 
  0xae, 0xed, 0xdf, 0xbe, 0xd6, 0xbd, 0x42, 0x3f, 0x4e, 0x63, 0xed, 0xbe, 
  0x30, 0x26, 0xce, 0xbe, 0xcb, 0x4a, 0x08, 0x3e, 0xd5, 0xc0, 0xae, 0xbf, 
  0x39, 0x90, 0xeb, 0xbe, 0x1f, 0xf7, 0x6d, 0xbe, 0x60, 0x73, 0xbc, 0x3e, 
  0x9d, 0x67, 0x84, 0xbd, 0x92, 0x3c, 0x11, 0x3f, 0xe2, 0x01, 0x19, 0x3f, 
  0xac, 0x25, 0xad, 0x3e, 0x51, 0x76, 0x92, 0x3e, 0x72, 0xe1, 0x9c, 0x3e, 
  0x62, 0x16, 0xdf, 0x3d, 0xb0, 0xf2, 0xe8, 0xbe, 0x2d, 0x84, 0x22, 0x3f, 
  0x62, 0x1c, 0x92, 0xbf, 0x59, 0x67, 0x85, 0xbc, 0xb8, 0xb4, 0x4e, 0xbf, 
  0xb0, 0x08, 0xe1, 0xbd, 0xf4, 0x59, 0x43, 0xbf, 0xe2, 0x32, 0x6d, 0x3d, 
  0x20, 0x74, 0x2d, 0xbe, 0x09, 0xa9, 0x49, 0xbf, 0x55, 0x11, 0x32, 0x3f, 
  0x11, 0xf8, 0xe0, 0x3e, 0x02, 0xdc, 0x53, 0x3f, 0x51, 0x0d, 0x59, 0xbe, 
  0xd6, 0x59, 0x05, 0xbe, 0xa2, 0x2f, 0x8e, 0xbe, 0x82, 0x64, 0x16, 0xbe, 
  0x42, 0xf4, 0x26, 0xbb, 0x91, 0x64, 0xb2, 0x3e, 0x16, 0xff, 0xff, 0xff, 
  0x04, 0x00, 0x00, 0x00, 0x18, 0x00, 0x00, 0x00, 0xc6, 0xda, 0x15, 0xbd, 
  0x21, 0x9f, 0x27, 0x3f, 0x36, 0x1d, 0xa3, 0x3e, 0x6f, 0x4e, 0xe2, 0x3d, 
  0x7c, 0x56, 0x0f, 0xbf, 0xdf, 0x6a, 0x05, 0xbf, 0x3a, 0xff, 0xff, 0xff, 
  0x04, 0x00, 0x00, 0x00, 0x28, 0x00, 0x00, 0x00, 0x83, 0x30, 0x49, 0x3f, 
  0x71, 0xc1, 0xd6, 0x3e, 0x2f, 0xb2, 0x0d, 0x3f, 0xbc, 0xb7, 0x43, 0x3f, 
  0xba, 0x6d, 0xaf, 0x3e, 0x0a, 0x90, 0xee, 0x3e, 0x74, 0xef, 0x47, 0x3f, 
  0x5e, 0xc9, 0x9b, 0x3e, 0x72, 0x09, 0x47, 0x3e, 0xd5, 0xb1, 0xce, 0x3e, 
  0xf4, 0xfb, 0xff, 0xff, 0xf8, 0xfb, 0xff, 0xff, 0x0f, 0x00, 0x00, 0x00, 
  0x4d, 0x4c, 0x49, 0x52, 0x20, 0x43, 0x6f, 0x6e, 0x76, 0x65, 0x72, 0x74, 
  0x65, 0x64, 0x2e, 0x00, 0x01, 0x00, 0x00, 0x00, 0x14, 0x00, 0x00, 0x00, 
  0x00, 0x00, 0x0e, 0x00, 0x18, 0x00, 0x14, 0x00, 0x10, 0x00, 0x0c, 0x00, 
  0x08, 0x00, 0x04, 0x00, 0x0e, 0x00, 0x00, 0x00, 0x14, 0x00, 0x00, 0x00, 
  0x1c, 0x00, 0x00, 0x00, 0xec, 0x00, 0x00, 0x00, 0xf0, 0x00, 0x00, 0x00, 
  0xf4, 0x00, 0x00, 0x00, 0x04, 0x00, 0x00, 0x00, 0x6d, 0x61, 0x69, 0x6e, 
  0x00, 0x00, 0x00, 0x00, 0x03, 0x00, 0x00, 0x00, 0x94, 0x00, 0x00, 0x00, 
  0x50, 0x00, 0x00, 0x00, 0x14, 0x00, 0x00, 0x00, 0x00, 0x00, 0x0e, 0x00, 
  0x1a, 0x00, 0x14, 0x00, 0x10, 0x00, 0x0c, 0x00, 0x0b, 0x00, 0x04, 0x00, 
  0x0e, 0x00, 0x00, 0x00, 0x1c, 0x00, 0x00, 0x00, 0x00, 0x00, 0x00, 0x09, 
  0x1c, 0x00, 0x00, 0x00, 0x20, 0x00, 0x00, 0x00, 0x01, 0x00, 0x00, 0x00, 
  0x00, 0x00, 0x06, 0x00, 0x08, 0x00, 0x04, 0x00, 0x06, 0x00, 0x00, 0x00, 
  0x00, 0x00, 0x80, 0x3f, 0x01, 0x00, 0x00, 0x00, 0x07, 0x00, 0x00, 0x00, 
  0x01, 0x00, 0x00, 0x00, 0x06, 0x00, 0x00, 0x00, 0xce, 0xff, 0xff, 0xff, 
  0x10, 0x00, 0x00, 0x00, 0x00, 0x00, 0x00, 0x08, 0x0c, 0x00, 0x00, 0x00, 
  0x10, 0x00, 0x00, 0x00, 0xb8, 0xfc, 0xff, 0xff, 0x01, 0x00, 0x00, 0x00, 
  0x06, 0x00, 0x00, 0x00, 0x03, 0x00, 0x00, 0x00, 0x05, 0x00, 0x00, 0x00, 
  0x04, 0x00, 0x00, 0x00, 0x02, 0x00, 0x00, 0x00, 0x00, 0x00, 0x0e, 0x00, 
  0x16, 0x00, 0x00, 0x00, 0x10, 0x00, 0x0c, 0x00, 0x0b, 0x00, 0x04, 0x00, 
  0x0e, 0x00, 0x00, 0x00, 0x18, 0x00, 0x00, 0x00, 0x00, 0x00, 0x00, 0x08, 
  0x18, 0x00, 0x00, 0x00, 0x1c, 0x00, 0x00, 0x00, 0x00, 0x00, 0x06, 0x00, 
  0x08, 0x00, 0x07, 0x00, 0x06, 0x00, 0x00, 0x00, 0x00, 0x00, 0x00, 0x01, 
  0x01, 0x00, 0x00, 0x00, 0x05, 0x00, 0x00, 0x00, 0x03, 0x00, 0x00, 0x00, 
  0x00, 0x00, 0x00, 0x00, 0x03, 0x00, 0x00, 0x00, 0x01, 0x00, 0x00, 0x00, 
  0x01, 0x00, 0x00, 0x00, 0x07, 0x00, 0x00, 0x00, 0x01, 0x00, 0x00, 0x00, 
  0x00, 0x00, 0x00, 0x00, 0x08, 0x00, 0x00, 0x00, 0xa8, 0x02, 0x00, 0x00, 
  0x44, 0x02, 0x00, 0x00, 0xe0, 0x01, 0x00, 0x00, 0x9c, 0x01, 0x00, 0x00, 
  0x54, 0x01, 0x00, 0x00, 0xd0, 0x00, 0x00, 0x00, 0x5c, 0x00, 0x00, 0x00, 
  0x04, 0x00, 0x00, 0x00, 0x8c, 0xfd, 0xff, 0xff, 0x14, 0x00, 0x00, 0x00, 
  0x1c, 0x00, 0x00, 0x00, 0x1c, 0x00, 0x00, 0x00, 0x08, 0x00, 0x00, 0x00, 
  0x34, 0x00, 0x00, 0x00, 0x02, 0x00, 0x00, 0x00, 0xff, 0xff, 0xff, 0xff, 
  0x06, 0x00, 0x00, 0x00, 0x78, 0xfd, 0xff, 0xff, 0x19, 0x00, 0x00, 0x00, 
  0x53, 0x74, 0x61, 0x74, 0x65, 0x66, 0x75, 0x6c, 0x50, 0x61, 0x72, 0x74, 
  0x69, 0x74, 0x69, 0x6f, 0x6e, 0x65, 0x64, 0x43, 0x61, 0x6c, 0x6c, 0x3a, 
  0x30, 0x00, 0x00, 0x00, 0x02, 0x00, 0x00, 0x00, 0x01, 0x00, 0x00, 0x00, 
  0x06, 0x00, 0x00, 0x00, 0xe0, 0xfd, 0xff, 0xff, 0x14, 0x00, 0x00, 0x00, 
  0x1c, 0x00, 0x00, 0x00, 0x1c, 0x00, 0x00, 0x00, 0x07, 0x00, 0x00, 0x00, 
  0x50, 0x00, 0x00, 0x00, 0x02, 0x00, 0x00, 0x00, 0xff, 0xff, 0xff, 0xff, 
  0x06, 0x00, 0x00, 0x00, 0xcc, 0xfd, 0xff, 0xff, 0x34, 0x00, 0x00, 0x00, 
  0x73, 0x65, 0x71, 0x75, 0x65, 0x6e, 0x74, 0x69, 0x61, 0x6c, 0x2f, 0x64, 
  0x65, 0x6e, 0x73, 0x65, 0x5f, 0x31, 0x2f, 0x4d, 0x61, 0x74, 0x4d, 0x75, 
  0x6c, 0x3b, 0x73, 0x65, 0x71, 0x75, 0x65, 0x6e, 0x74, 0x69, 0x61, 0x6c, 
  0x2f, 0x64, 0x65, 0x6e, 0x73, 0x65, 0x5f, 0x31, 0x2f, 0x42, 0x69, 0x61, 
  0x73, 0x41, 0x64, 0x64, 0x00, 0x00, 0x00, 0x00, 0x02, 0x00, 0x00, 0x00, 
  0x01, 0x00, 0x00, 0x00, 0x06, 0x00, 0x00, 0x00, 0x50, 0xfe, 0xff, 0xff, 
  0x14, 0x00, 0x00, 0x00, 0x1c, 0x00, 0x00, 0x00, 0x1c, 0x00, 0x00, 0x00, 
  0x06, 0x00, 0x00, 0x00, 0x60, 0x00, 0x00, 0x00, 0x02, 0x00, 0x00, 0x00, 
  0xff, 0xff, 0xff, 0xff, 0x0a, 0x00, 0x00, 0x00, 0x3c, 0xfe, 0xff, 0xff, 
  0x46, 0x00, 0x00, 0x00, 0x73, 0x65, 0x71, 0x75, 0x65, 0x6e, 0x74, 0x69, 
  0x61, 0x6c, 0x2f, 0x64, 0x65, 0x6e, 0x73, 0x65, 0x2f, 0x4d, 0x61, 0x74, 
  0x4d, 0x75, 0x6c, 0x3b, 0x73, 0x65, 0x71, 0x75, 0x65, 0x6e, 0x74, 0x69, 
  0x61, 0x6c, 0x2f, 0x64, 0x65, 0x6e, 0x73, 0x65, 0x2f, 0x52, 0x65, 0x6c, 
  0x75, 0x3b, 0x73, 0x65, 0x71, 0x75, 0x65, 0x6e, 0x74, 0x69, 0x61, 0x6c, 
  0x2f, 0x64, 0x65, 0x6e, 0x73, 0x65, 0x2f, 0x42, 0x69, 0x61, 0x73, 0x41, 
  0x64, 0x64, 0x00, 0x00, 0x02, 0x00, 0x00, 0x00, 0x01, 0x00, 0x00, 0x00, 
  0x0a, 0x00, 0x00, 0x00, 0x2a, 0xff, 0xff, 0xff, 0x10, 0x00, 0x00, 0x00, 
  0x10, 0x00, 0x00, 0x00, 0x05, 0x00, 0x00, 0x00, 0x28, 0x00, 0x00, 0x00, 
  0xac, 0xfe, 0xff, 0xff, 0x19, 0x00, 0x00, 0x00, 0x73, 0x65, 0x71, 0x75, 
  0x65, 0x6e, 0x74, 0x69, 0x61, 0x6c, 0x2f, 0x64, 0x65, 0x6e, 0x73, 0x65, 
  0x5f, 0x31, 0x2f, 0x4d, 0x61, 0x74, 0x4d, 0x75, 0x6c, 0x00, 0x00, 0x00, 
  0x02, 0x00, 0x00, 0x00, 0x06, 0x00, 0x00, 0x00, 0x0a, 0x00, 0x00, 0x00, 
  0x6e, 0xff, 0xff, 0xff, 0x10, 0x00, 0x00, 0x00, 0x10, 0x00, 0x00, 0x00, 
  0x04, 0x00, 0x00, 0x00, 0x24, 0x00, 0x00, 0x00, 0xf0, 0xfe, 0xff, 0xff, 
  0x17, 0x00, 0x00, 0x00, 0x73, 0x65, 0x71, 0x75, 0x65, 0x6e, 0x74, 0x69, 
  0x61, 0x6c, 0x2f, 0x64, 0x65, 0x6e, 0x73, 0x65, 0x2f, 0x4d, 0x61, 0x74, 
  0x4d, 0x75, 0x6c, 0x00, 0x02, 0x00, 0x00, 0x00, 0x0a, 0x00, 0x00, 0x00, 
  0x09, 0x00, 0x00, 0x00, 0xae, 0xff, 0xff, 0xff, 0x10, 0x00, 0x00, 0x00, 
  0x10, 0x00, 0x00, 0x00, 0x03, 0x00, 0x00, 0x00, 0x38, 0x00, 0x00, 0x00, 
  0x30, 0xff, 0xff, 0xff, 0x29, 0x00, 0x00, 0x00, 0x73, 0x65, 0x71, 0x75, 
  0x65, 0x6e, 0x74, 0x69, 0x61, 0x6c, 0x2f, 0x64, 0x65, 0x6e, 0x73, 0x65, 
  0x5f, 0x31, 0x2f, 0x42, 0x69, 0x61, 0x73, 0x41, 0x64, 0x64, 0x2f, 0x52, 
  0x65, 0x61, 0x64, 0x56, 0x61, 0x72, 0x69, 0x61, 0x62, 0x6c, 0x65, 0x4f, 
  0x70, 0x00, 0x00, 0x00, 0x01, 0x00, 0x00, 0x00, 0x06, 0x00, 0x00, 0x00, 
  0x00, 0x00, 0x0e, 0x00, 0x14, 0x00, 0x10, 0x00, 0x00, 0x00, 0x0c, 0x00, 
  0x08, 0x00, 0x04, 0x00, 0x0e, 0x00, 0x00, 0x00, 0x10, 0x00, 0x00, 0x00, 
  0x10, 0x00, 0x00, 0x00, 0x02, 0x00, 0x00, 0x00, 0x34, 0x00, 0x00, 0x00, 
  0x90, 0xff, 0xff, 0xff, 0x27, 0x00, 0x00, 0x00, 0x73, 0x65, 0x71, 0x75, 
  0x65, 0x6e, 0x74, 0x69, 0x61, 0x6c, 0x2f, 0x64, 0x65, 0x6e, 0x73, 0x65, 
  0x2f, 0x42, 0x69, 0x61, 0x73, 0x41, 0x64, 0x64, 0x2f, 0x52, 0x65, 0x61, 
  0x64, 0x56, 0x61, 0x72, 0x69, 0x61, 0x62, 0x6c, 0x65, 0x4f, 0x70, 0x00, 
  0x01, 0x00, 0x00, 0x00, 0x0a, 0x00, 0x00, 0x00, 0x14, 0x00, 0x18, 0x00, 
  0x14, 0x00, 0x00, 0x00, 0x10, 0x00, 0x0c, 0x00, 0x08, 0x00, 0x00, 0x00, 
  0x00, 0x00, 0x04, 0x00, 0x14, 0x00, 0x00, 0x00, 0x14, 0x00, 0x00, 0x00, 
  0x20, 0x00, 0x00, 0x00, 0x20, 0x00, 0x00, 0x00, 0x01, 0x00, 0x00, 0x00, 
  0x38, 0x00, 0x00, 0x00, 0x02, 0x00, 0x00, 0x00, 0xff, 0xff, 0xff, 0xff, 
  0x09, 0x00, 0x00, 0x00, 0x04, 0x00, 0x04, 0x00, 0x04, 0x00, 0x00, 0x00, 
  0x19, 0x00, 0x00, 0x00, 0x73, 0x65, 0x72, 0x76, 0x69, 0x6e, 0x67, 0x5f, 
  0x64, 0x65, 0x66, 0x61, 0x75, 0x6c, 0x74, 0x5f, 0x69, 0x6e, 0x70, 0x75, 
  0x74, 0x5f, 0x31, 0x3a, 0x30, 0x00, 0x00, 0x00, 0x02, 0x00, 0x00, 0x00, 
  0x01, 0x00, 0x00, 0x00, 0x09, 0x00, 0x00, 0x00, 0x02, 0x00, 0x00, 0x00, 
  0x20, 0x00, 0x00, 0x00, 0x04, 0x00, 0x00, 0x00, 0xf4, 0xff, 0xff, 0xff, 
  0x19, 0x00, 0x00, 0x00, 0x00, 0x00, 0x00, 0x19, 0x0c, 0x00, 0x0c, 0x00, 
  0x0b, 0x00, 0x00, 0x00, 0x00, 0x00, 0x04, 0x00, 0x0c, 0x00, 0x00, 0x00, 
  0x09, 0x00, 0x00, 0x00, 0x00, 0x00, 0x00, 0x09
};
unsigned int tflite_model_len = 2300;

#define INPUT_TENSOR_SIZE 9
#define OUTPUT_TENSOR_SIZE 6

const float input_scale[] = {
  0.710478, 2.434696, 0.724338, 0.251689, 
  1.569214, 2.602570, 2.281903, 1.225529, 
  1.303157, 2.901013, 1.732214, 1.669387, 
  0.608900, 1.190489, 0.958129, 0.691079, 
  0.455273, 0.332598, 0.447896, 0.454172, 
  3.151984, 3.807978, 7.716400, 7.711755, 
  0.900994, 0.779001, 0.782054, 0.770418, 
};

const float input_offset[] = {
  -0.257373, 0.251907, 9.358210, 9.932003, 
  -1.605011, -1.470928, 7.921793, 8.610225, 
  0.894398, 2.125049, 10.996237, 11.392982, 
  0.658966, 1.114462, 0.757941, 0.634259, 
  3.342495, 3.403815, 3.335883, 3.317340, 
  2.017248, 2.304466, 4.713878, 4.972508, 
  2.006559, 2.041257, 2.148346, 2.173618, 
};
