// generated code
unsigned char model_protocol_v2_2_2_tflite[] = {
  0x1c, 0x00, 0x00, 0x00, 0x54, 0x46, 0x4c, 0x33, 0x14, 0x00, 0x20, 0x00,
  0x04, 0x00, 0x08, 0x00, 0x0c, 0x00, 0x10, 0x00, 0x14, 0x00, 0x00, 0x00,
  0x18, 0x00, 0x1c, 0x00, 0x14, 0x00, 0x00, 0x00, 0x03, 0x00, 0x00, 0x00,
  0x18, 0x00, 0x00, 0x00, 0x20, 0x00, 0x00, 0x00, 0x28, 0x01, 0x00, 0x00,
  0x20, 0x00, 0x00, 0x00, 0xd0, 0x00, 0x00, 0x00, 0x50, 0x00, 0x00, 0x00,
  0x02, 0x00, 0x00, 0x00, 0x14, 0x04, 0x00, 0x00, 0xe8, 0x01, 0x00, 0x00,
  0x01, 0x00, 0x00, 0x00, 0x2c, 0x01, 0x00, 0x00, 0x0d, 0x00, 0x00, 0x00,
  0x6c, 0x0c, 0x00, 0x00, 0x68, 0x0c, 0x00, 0x00, 0x88, 0x0b, 0x00, 0x00,
  0xfc, 0x0a, 0x00, 0x00, 0x94, 0x0a, 0x00, 0x00, 0x54, 0x09, 0x00, 0x00,
  0xa8, 0x06, 0x00, 0x00, 0x74, 0x04, 0x00, 0x00, 0x4c, 0x0c, 0x00, 0x00,
  0x48, 0x0c, 0x00, 0x00, 0x44, 0x0c, 0x00, 0x00, 0x40, 0x0c, 0x00, 0x00,
  0xb4, 0x00, 0x00, 0x00, 0x01, 0x00, 0x00, 0x00, 0x10, 0x00, 0x00, 0x00,
  0x00, 0x00, 0x0a, 0x00, 0x10, 0x00, 0x0c, 0x00, 0x08, 0x00, 0x04, 0x00,
  0x0a, 0x00, 0x00, 0x00, 0x0c, 0x00, 0x00, 0x00, 0x1c, 0x00, 0x00, 0x00,
  0x20, 0x00, 0x00, 0x00, 0x0f, 0x00, 0x00, 0x00, 0x73, 0x65, 0x72, 0x76,
  0x69, 0x6e, 0x67, 0x5f, 0x64, 0x65, 0x66, 0x61, 0x75, 0x6c, 0x74, 0x00,
  0x01, 0x00, 0x00, 0x00, 0x14, 0x00, 0x00, 0x00, 0x01, 0x00, 0x00, 0x00,
  0x24, 0x00, 0x00, 0x00, 0x08, 0x00, 0x0c, 0x00, 0x08, 0x00, 0x04, 0x00,
  0x08, 0x00, 0x00, 0x00, 0x0a, 0x00, 0x00, 0x00, 0x04, 0x00, 0x00, 0x00,
  0x07, 0x00, 0x00, 0x00, 0x64, 0x65, 0x6e, 0x73, 0x65, 0x5f, 0x32, 0x00,
  0x12, 0xf5, 0xff, 0xff, 0x04, 0x00, 0x00, 0x00, 0x07, 0x00, 0x00, 0x00,
  0x69, 0x6e, 0x70, 0x75, 0x74, 0x5f, 0x31, 0x00, 0x01, 0x00, 0x00, 0x00,
  0x0c, 0x00, 0x00, 0x00, 0x08, 0x00, 0x0c, 0x00, 0x04, 0x00, 0x08, 0x00,
  0x08, 0x00, 0x00, 0x00, 0x08, 0x00, 0x00, 0x00, 0x0c, 0x00, 0x00, 0x00,
  0x13, 0x00, 0x00, 0x00, 0x6d, 0x69, 0x6e, 0x5f, 0x72, 0x75, 0x6e, 0x74,
  0x69, 0x6d, 0x65, 0x5f, 0x76, 0x65, 0x72, 0x73, 0x69, 0x6f, 0x6e, 0x00,
  0x5a, 0xf5, 0xff, 0xff, 0x04, 0x00, 0x00, 0x00, 0x10, 0x00, 0x00, 0x00,
  0x31, 0x2e, 0x35, 0x2e, 0x30, 0x00, 0x00, 0x00, 0x00, 0x00, 0x00, 0x00,
  0x00, 0x00, 0x00, 0x00, 0x0f, 0x00, 0x00, 0x00, 0x4d, 0x4c, 0x49, 0x52,
  0x20, 0x43, 0x6f, 0x6e, 0x76, 0x65, 0x72, 0x74, 0x65, 0x64, 0x2e, 0x00,
  0x00, 0x00, 0x0e, 0x00, 0x18, 0x00, 0x04, 0x00, 0x08, 0x00, 0x0c, 0x00,
  0x10, 0x00, 0x14, 0x00, 0x0e, 0x00, 0x00, 0x00, 0x14, 0x00, 0x00, 0x00,
  0x40, 0x00, 0x00, 0x00, 0x44, 0x00, 0x00, 0x00, 0x48, 0x00, 0x00, 0x00,
  0x58, 0x00, 0x00, 0x00, 0x0b, 0x00, 0x00, 0x00, 0xd4, 0x0a, 0x00, 0x00,
  0x88, 0x0a, 0x00, 0x00, 0x08, 0x0a, 0x00, 0x00, 0x8c, 0x09, 0x00, 0x00,
  0x14, 0x09, 0x00, 0x00, 0xd0, 0x07, 0x00, 0x00, 0x24, 0x05, 0x00, 0x00,
  0xb4, 0x02, 0x00, 0x00, 0xc0, 0x01, 0x00, 0x00, 0x08, 0x01, 0x00, 0x00,
  0x80, 0x00, 0x00, 0x00, 0x01, 0x00, 0x00, 0x00, 0x00, 0x00, 0x00, 0x00,
  0x01, 0x00, 0x00, 0x00, 0x0a, 0x00, 0x00, 0x00, 0x04, 0x00, 0x00, 0x00,
  0x38, 0x02, 0x00, 0x00, 0x68, 0x01, 0x00, 0x00, 0xb4, 0x00, 0x00, 0x00,
  0x1c, 0x00, 0x00, 0x00, 0x04, 0x00, 0x00, 0x00, 0x6d, 0x61, 0x69, 0x6e,
  0x00, 0x00, 0x0e, 0x00, 0x18, 0x00, 0x08, 0x00, 0x0c, 0x00, 0x10, 0x00,
  0x07, 0x00, 0x14, 0x00, 0x0e, 0x00, 0x00, 0x00, 0x00, 0x00, 0x00, 0x09,
  0x01, 0x00, 0x00, 0x00, 0x1c, 0x00, 0x00, 0x00, 0x10, 0x00, 0x00, 0x00,
  0x04, 0x00, 0x00, 0x00, 0x36, 0xf6, 0xff, 0xff, 0x00, 0x00, 0x80, 0x3f,
  0x01, 0x00, 0x00, 0x00, 0x0a, 0x00, 0x00, 0x00, 0x01, 0x00, 0x00, 0x00,
  0x09, 0x00, 0x00, 0x00, 0xe4, 0xfd, 0xff, 0xff, 0x19, 0x00, 0x00, 0x00,
  0x00, 0x00, 0x00, 0x19, 0x01, 0x00, 0x00, 0x00, 0xe8, 0xf5, 0xff, 0xff,
  0x14, 0x00, 0x00, 0x00, 0x0b, 0x00, 0x00, 0x00, 0x18, 0x00, 0x00, 0x00,
  0x40, 0x00, 0x00, 0x00, 0x30, 0x00, 0x00, 0x00, 0x02, 0x00, 0x00, 0x00,
  0x01, 0x00, 0x00, 0x00, 0x08, 0x00, 0x00, 0x00, 0x19, 0x00, 0x00, 0x00,
  0x53, 0x74, 0x61, 0x74, 0x65, 0x66, 0x75, 0x6c, 0x50, 0x61, 0x72, 0x74,
  0x69, 0x74, 0x69, 0x6f, 0x6e, 0x65, 0x64, 0x43, 0x61, 0x6c, 0x6c, 0x3a,
  0x30, 0x00, 0x00, 0x00, 0x02, 0x00, 0x00, 0x00, 0xff, 0xff, 0xff, 0xff,
  0x08, 0x00, 0x00, 0x00, 0xd0, 0xf5, 0xff, 0xff, 0x5e, 0xff, 0xff, 0xff,
  0x00, 0x00, 0x00, 0x08, 0x18, 0x00, 0x00, 0x00, 0x0c, 0x00, 0x00, 0x00,
  0x04, 0x00, 0x00, 0x00, 0xe8, 0xf5, 0xff, 0xff, 0x01, 0x00, 0x00, 0x00,
  0x09, 0x00, 0x00, 0x00, 0x03, 0x00, 0x00, 0x00, 0x08, 0x00, 0x00, 0x00,
  0x06, 0x00, 0x00, 0x00, 0x01, 0x00, 0x00, 0x00, 0x6c, 0xf6, 0xff, 0xff,
  0x14, 0x00, 0x00, 0x00, 0x0a, 0x00, 0x00, 0x00, 0x18, 0x00, 0x00, 0x00,
  0x5c, 0x00, 0x00, 0x00, 0x4c, 0x00, 0x00, 0x00, 0x02, 0x00, 0x00, 0x00,
  0x01, 0x00, 0x00, 0x00, 0x08, 0x00, 0x00, 0x00, 0x34, 0x00, 0x00, 0x00,
  0x73, 0x65, 0x71, 0x75, 0x65, 0x6e, 0x74, 0x69, 0x61, 0x6c, 0x2f, 0x64,
  0x65, 0x6e, 0x73, 0x65, 0x5f, 0x32, 0x2f, 0x4d, 0x61, 0x74, 0x4d, 0x75,
  0x6c, 0x3b, 0x73, 0x65, 0x71, 0x75, 0x65, 0x6e, 0x74, 0x69, 0x61, 0x6c,
  0x2f, 0x64, 0x65, 0x6e, 0x73, 0x65, 0x5f, 0x32, 0x2f, 0x42, 0x69, 0x61,
  0x73, 0x41, 0x64, 0x64, 0x00, 0x00, 0x00, 0x00, 0x02, 0x00, 0x00, 0x00,
  0xff, 0xff, 0xff, 0xff, 0x08, 0x00, 0x00, 0x00, 0x58, 0xf7, 0xff, 0xff,
  0x00, 0x00, 0x0e, 0x00, 0x14, 0x00, 0x00, 0x00, 0x08, 0x00, 0x0c, 0x00,
  0x07, 0x00, 0x10, 0x00, 0x0e, 0x00, 0x00, 0x00, 0x00, 0x00, 0x00, 0x08,
  0x1c, 0x00, 0x00, 0x00, 0x10, 0x00, 0x00, 0x00, 0x04, 0x00, 0x00, 0x00,
  0x32, 0xff, 0xff, 0xff, 0x00, 0x00, 0x00, 0x01, 0x01, 0x00, 0x00, 0x00,
  0x08, 0x00, 0x00, 0x00, 0x03, 0x00, 0x00, 0x00, 0x07, 0x00, 0x00, 0x00,
  0x05, 0x00, 0x00, 0x00, 0x02, 0x00, 0x00, 0x00, 0x20, 0xf7, 0xff, 0xff,
  0x14, 0x00, 0x00, 0x00, 0x09, 0x00, 0x00, 0x00, 0x18, 0x00, 0x00, 0x00,
  0x74, 0x00, 0x00, 0x00, 0x64, 0x00, 0x00, 0x00, 0x02, 0x00, 0x00, 0x00,
  0x01, 0x00, 0x00, 0x00, 0x0f, 0x00, 0x00, 0x00, 0x4c, 0x00, 0x00, 0x00,
  0x73, 0x65, 0x71, 0x75, 0x65, 0x6e, 0x74, 0x69, 0x61, 0x6c, 0x2f, 0x64,
  0x65, 0x6e, 0x73, 0x65, 0x5f, 0x31, 0x2f, 0x4d, 0x61, 0x74, 0x4d, 0x75,
  0x6c, 0x3b, 0x73, 0x65, 0x71, 0x75, 0x65, 0x6e, 0x74, 0x69, 0x61, 0x6c,
  0x2f, 0x64, 0x65, 0x6e, 0x73, 0x65, 0x5f, 0x31, 0x2f, 0x52, 0x65, 0x6c,
  0x75, 0x3b, 0x73, 0x65, 0x71, 0x75, 0x65, 0x6e, 0x74, 0x69, 0x61, 0x6c,
  0x2f, 0x64, 0x65, 0x6e, 0x73, 0x65, 0x5f, 0x31, 0x2f, 0x42, 0x69, 0x61,
  0x73, 0x41, 0x64, 0x64, 0x00, 0x00, 0x00, 0x00, 0x02, 0x00, 0x00, 0x00,
  0xff, 0xff, 0xff, 0xff, 0x0f, 0x00, 0x00, 0x00, 0x24, 0xf8, 0xff, 0xff,
  0x00, 0x00, 0x0e, 0x00, 0x16, 0x00, 0x00, 0x00, 0x08, 0x00, 0x0c, 0x00,
  0x07, 0x00, 0x10, 0x00, 0x0e, 0x00, 0x00, 0x00, 0x00, 0x00, 0x00, 0x08,
  0x24, 0x00, 0x00, 0x00, 0x18, 0x00, 0x00, 0x00, 0x0c, 0x00, 0x00, 0x00,
  0x00, 0x00, 0x06, 0x00, 0x08, 0x00, 0x07, 0x00, 0x06, 0x00, 0x00, 0x00,
  0x00, 0x00, 0x00, 0x01, 0x01, 0x00, 0x00, 0x00, 0x07, 0x00, 0x00, 0x00,
  0x03, 0x00, 0x00, 0x00, 0x00, 0x00, 0x00, 0x00, 0x04, 0x00, 0x00, 0x00,
  0x03, 0x00, 0x00, 0x00, 0x0c, 0x00, 0x10, 0x00, 0x0b, 0x00, 0x00, 0x00,
  0x0c, 0x00, 0x04, 0x00, 0x0c, 0x00, 0x00, 0x00, 0x09, 0x00, 0x00, 0x00,
  0x00, 0x00, 0x00, 0x09, 0x01, 0x00, 0x00, 0x00, 0x10, 0xf8, 0xff, 0xff,
  0x14, 0x00, 0x00, 0x00, 0x08, 0x00, 0x00, 0x00, 0x18, 0x00, 0x00, 0x00,
  0x6c, 0x00, 0x00, 0x00, 0x5c, 0x00, 0x00, 0x00, 0x02, 0x00, 0x00, 0x00,
  0x01, 0x00, 0x00, 0x00, 0x0a, 0x00, 0x00, 0x00, 0x46, 0x00, 0x00, 0x00,
  0x73, 0x65, 0x71, 0x75, 0x65, 0x6e, 0x74, 0x69, 0x61, 0x6c, 0x2f, 0x64,
  0x65, 0x6e, 0x73, 0x65, 0x2f, 0x4d, 0x61, 0x74, 0x4d, 0x75, 0x6c, 0x3b,
  0x73, 0x65, 0x71, 0x75, 0x65, 0x6e, 0x74, 0x69, 0x61, 0x6c, 0x2f, 0x64,
  0x65, 0x6e, 0x73, 0x65, 0x2f, 0x52, 0x65, 0x6c, 0x75, 0x3b, 0x73, 0x65,
  0x71, 0x75, 0x65, 0x6e, 0x74, 0x69, 0x61, 0x6c, 0x2f, 0x64, 0x65, 0x6e,
  0x73, 0x65, 0x2f, 0x42, 0x69, 0x61, 0x73, 0x41, 0x64, 0x64, 0x00, 0x00,
  0x02, 0x00, 0x00, 0x00, 0xff, 0xff, 0xff, 0xff, 0x0a, 0x00, 0x00, 0x00,
  0x24, 0xf8, 0xff, 0xff, 0x06, 0xf9, 0xff, 0xff, 0x04, 0x00, 0x00, 0x00,
  0xe0, 0x01, 0x00, 0x00, 0x88, 0xaf, 0x9b, 0xbf, 0x86, 0xbc, 0x8b, 0xbe,
  0xd4, 0x2c, 0x4d, 0x3f, 0x61, 0xb6, 0xf2, 0x3b, 0xbe, 0x11, 0xdd, 0xbe,
  0x13, 0xfa, 0x12, 0xc0, 0xa0, 0x9d, 0x2c, 0xbe, 0x0d, 0x3b, 0xe3, 0x3f,
  0x13, 0x80, 0x95, 0xbd, 0x7c, 0x69, 0xd4, 0x3e, 0x46, 0xb4, 0x2c, 0xbe,
  0x95, 0xa1, 0x73, 0x3e, 0x0f, 0x84, 0xde, 0xbd, 0xdd, 0x21, 0xbb, 0xbf,
  0x33, 0x6f, 0x75, 0xc0, 0x66, 0xa4, 0xc8, 0x3e, 0xbd, 0xab, 0xc4, 0xbe,
  0x36, 0xb4, 0x3a, 0xc0, 0x28, 0x28, 0x05, 0xc0, 0xa6, 0xa5, 0x81, 0x3f,
  0x2b, 0xc2, 0xc8, 0xbf, 0x1d, 0xcd, 0x7c, 0xbe, 0x78, 0x22, 0xb1, 0x3e,
  0x0b, 0xe5, 0x20, 0xbe, 0x29, 0x99, 0x68, 0xbe, 0x97, 0x92, 0x86, 0xbe,
  0x9c, 0x30, 0xc8, 0x3d, 0xda, 0x6c, 0xae, 0x3f, 0x3c, 0xe2, 0x06, 0xbf,
  0x53, 0x2c, 0xcd, 0xbe, 0x4a, 0x57, 0xed, 0xbf, 0xf1, 0x99, 0x48, 0xbe,
  0x20, 0xf7, 0x3b, 0x3f, 0x5d, 0x8b, 0xf9, 0x3e, 0xba, 0x41, 0x23, 0xbf,
  0xc1, 0x88, 0x8e, 0xc0, 0x4b, 0x65, 0x6b, 0xbf, 0x9c, 0x14, 0xf4, 0xbf,
  0xad, 0x28, 0x0a, 0x3e, 0xa7, 0x2b, 0xaa, 0xbc, 0x2f, 0x13, 0x77, 0xbf,
  0xfc, 0x3b, 0x2e, 0xbf, 0xca, 0x8b, 0xf7, 0xbf, 0xba, 0x7d, 0xb6, 0xbf,
  0x60, 0x8e, 0x3e, 0x3f, 0x58, 0xb0, 0xb5, 0xbf, 0x06, 0x8e, 0x2b, 0xbe,
  0x6e, 0x0c, 0x91, 0xbf, 0x5a, 0x53, 0x35, 0xbe, 0x6f, 0x80, 0x29, 0x3f,
  0x24, 0x81, 0xd0, 0xbf, 0x73, 0x14, 0x03, 0xc0, 0xa9, 0x1c, 0xc2, 0x3f,
  0x13, 0x38, 0x85, 0xbe, 0x6e, 0x7c, 0x47, 0xbd, 0x5b, 0x3f, 0x33, 0xbf,
  0x3e, 0xf3, 0x02, 0x3d, 0xa2, 0xa6, 0xd0, 0x3e, 0x5e, 0xd9, 0xa7, 0xbf,
  0x0c, 0x11, 0xcb, 0x3c, 0x58, 0xa6, 0x39, 0x3f, 0x9e, 0x8d, 0x1e, 0x3c,
  0xf1, 0x6c, 0xb0, 0x3c, 0xdd, 0x42, 0xbb, 0x3e, 0xf5, 0xfa, 0xa2, 0x3d,
  0x35, 0xf7, 0x1d, 0x3f, 0x66, 0xf3, 0x43, 0x3f, 0xe2, 0x96, 0x8c, 0xbf,
  0x7a, 0x83, 0x5e, 0x3e, 0xe1, 0x10, 0x12, 0xbe, 0x35, 0xa7, 0x03, 0x3f,
  0x9f, 0x09, 0x21, 0xbe, 0x92, 0x49, 0xd0, 0x3e, 0x8a, 0x16, 0x87, 0x3e,
  0x2a, 0x1e, 0x61, 0xbf, 0xea, 0xc8, 0xe7, 0x3f, 0x63, 0x8b, 0xaa, 0x3e,
  0xd4, 0x5b, 0xa9, 0x3d, 0x18, 0xc6, 0xcc, 0xbe, 0xd1, 0x7c, 0xd5, 0x3f,
  0x71, 0xc6, 0xb3, 0xbf, 0xc0, 0x4a, 0xcc, 0xbf, 0x67, 0xfc, 0x18, 0xbe,
  0x9d, 0xa6, 0xc5, 0x3b, 0x02, 0xf5, 0xd6, 0xbd, 0xca, 0xf4, 0x3d, 0xbf,
  0x61, 0xf9, 0x32, 0xbe, 0x3f, 0xfe, 0xff, 0xbe, 0xce, 0xf3, 0x24, 0xbf,
  0xd5, 0x61, 0x27, 0x3f, 0x81, 0xdb, 0xf3, 0x3e, 0xc5, 0x1e, 0xeb, 0xbd,
  0xb2, 0x11, 0xdb, 0x3e, 0x78, 0xa5, 0xda, 0x3e, 0x48, 0x29, 0x1f, 0xbf,
  0x9b, 0xb1, 0xa2, 0x3e, 0xa4, 0xfd, 0xf9, 0xbf, 0xd9, 0x52, 0x0e, 0x3f,
  0x4f, 0xb2, 0x23, 0x3d, 0x69, 0xf2, 0x71, 0x3d, 0x88, 0x76, 0xbd, 0x3e,
  0xb3, 0x8c, 0xfa, 0x3d, 0xc2, 0x51, 0xf2, 0xbf, 0x4d, 0xf7, 0xc1, 0x3d,
  0x50, 0x04, 0x3e, 0xbe, 0xee, 0x73, 0x21, 0xbf, 0xe4, 0x26, 0xf4, 0x3d,
  0xd7, 0x12, 0x8a, 0xbb, 0x58, 0xea, 0x7d, 0x3e, 0xfd, 0x03, 0xae, 0xbf,
  0x69, 0x9d, 0x44, 0x3f, 0x70, 0x65, 0xe1, 0xbd, 0x2d, 0x7e, 0xa2, 0xbf,
  0x36, 0xa7, 0xf7, 0xbe, 0x01, 0xe6, 0xa1, 0xbe, 0x27, 0x6b, 0xa2, 0xbd,
  0x5a, 0xf4, 0x18, 0x3e, 0x47, 0x5a, 0x8a, 0x3f, 0x1a, 0x75, 0x22, 0xbf,
  0x35, 0x71, 0x07, 0xc0, 0xbe, 0xfa, 0xff, 0xff, 0x10, 0x00, 0x00, 0x00,
  0x07, 0x00, 0x00, 0x00, 0x14, 0x00, 0x00, 0x00, 0x30, 0x00, 0x00, 0x00,
  0x02, 0x00, 0x00, 0x00, 0x08, 0x00, 0x00, 0x00, 0x0f, 0x00, 0x00, 0x00,
  0x19, 0x00, 0x00, 0x00, 0x73, 0x65, 0x71, 0x75, 0x65, 0x6e, 0x74, 0x69,
  0x61, 0x6c, 0x2f, 0x64, 0x65, 0x6e, 0x73, 0x65, 0x5f, 0x32, 0x2f, 0x4d,
  0x61, 0x74, 0x4d, 0x75, 0x6c, 0x00, 0x00, 0x00, 0x54, 0xfa, 0xff, 0xff,
  0x36, 0xfb, 0xff, 0xff, 0x04, 0x00, 0x00, 0x00, 0x58, 0x02, 0x00, 0x00,
  0x66, 0xf3, 0x07, 0xbf, 0xdc, 0xc6, 0x45, 0x3f, 0x54, 0xdb, 0x8f, 0xbf,
  0x00, 0x24, 0x77, 0xbd, 0x12, 0xd3, 0xd6, 0xbf, 0xad, 0xb2, 0x7c, 0x3f,
  0x21, 0xd2, 0x4a, 0x3e, 0x2b, 0x67, 0x76, 0xbe, 0x5a, 0x94, 0xa8, 0xbe,
  0xeb, 0xfd, 0x98, 0x3e, 0xa0, 0xb9, 0x46, 0x3d, 0x08, 0x69, 0xd0, 0x3e,
  0x9d, 0x82, 0x11, 0xbe, 0x75, 0x59, 0x81, 0x3e, 0x6c, 0xdc, 0x0d, 0xbf,
  0x98, 0x57, 0x08, 0xbf, 0x45, 0x22, 0x01, 0xbf, 0x32, 0xf3, 0x39, 0x3e,
  0x10, 0x01, 0xcb, 0x3c, 0x6c, 0xa3, 0xaf, 0xbd, 0xd2, 0x9d, 0xcf, 0x3d,
  0x64, 0x24, 0x8f, 0xbe, 0x58, 0x89, 0x75, 0x3d, 0x72, 0x4d, 0x0d, 0x3e,
  0xbf, 0x6c, 0x6e, 0x3f, 0x39, 0x77, 0xae, 0x3d, 0x69, 0xa1, 0x11, 0x3f,
  0x42, 0x80, 0xdb, 0xbe, 0x8c, 0xc8, 0xec, 0x3d, 0x28, 0x3c, 0xdf, 0xbe,
  0xb7, 0x48, 0x32, 0x3e, 0xa6, 0x75, 0x77, 0xbf, 0xdf, 0x9d, 0x6b, 0x3e,
  0xb2, 0xf3, 0x04, 0x3e, 0xb1, 0xca, 0xc7, 0x3e, 0xbd, 0xa3, 0x9c, 0x3d,
  0xcc, 0x38, 0xbb, 0x3e, 0x66, 0xe8, 0x9c, 0xbe, 0xd6, 0x90, 0x69, 0x3e,
  0xa0, 0x2d, 0x86, 0x3d, 0xfc, 0xb6, 0xaa, 0xbd, 0x6e, 0x46, 0x99, 0x3f,
  0x08, 0x43, 0x72, 0xbf, 0x63, 0x11, 0xa5, 0x3e, 0xe7, 0x84, 0x2e, 0x3f,
  0xa2, 0xa2, 0x38, 0x3f, 0xdd, 0x52, 0xb9, 0xbf, 0x92, 0x68, 0x57, 0x3e,
  0xc0, 0xc5, 0x90, 0xbb, 0x63, 0xc1, 0x15, 0xc0, 0xf8, 0x48, 0x1b, 0x3f,
  0x1f, 0x3b, 0x87, 0x3f, 0x7e, 0x15, 0x30, 0xbf, 0x75, 0xf6, 0xed, 0xbe,
  0x9c, 0x97, 0x48, 0x3e, 0x4f, 0xf8, 0x08, 0xbf, 0xb9, 0xf7, 0x28, 0x3f,
  0xa2, 0x7d, 0x49, 0x3e, 0x0b, 0x24, 0xf2, 0xbe, 0xb9, 0x70, 0xfc, 0x3d,
  0x98, 0x7c, 0x04, 0xbf, 0xcc, 0xa9, 0x93, 0x3e, 0xcc, 0x2d, 0x72, 0x40,
  0x48, 0xf0, 0x28, 0xbe, 0x0e, 0xd2, 0x87, 0xbf, 0x15, 0x63, 0xe1, 0xbf,
  0xe6, 0x3b, 0x05, 0x3f, 0xc4, 0xb6, 0xfe, 0xbd, 0x04, 0x59, 0x9d, 0xbe,
  0xc8, 0xc1, 0x51, 0xbf, 0xf1, 0xec, 0x13, 0xbf, 0xc0, 0xc9, 0x31, 0x3f,
  0x6e, 0x90, 0xdb, 0x3f, 0x83, 0x4e, 0xe7, 0x3e, 0x63, 0x8c, 0x59, 0x3f,
  0xac, 0xe3, 0x3e, 0x3f, 0x8c, 0x46, 0x14, 0xc0, 0x6f, 0x98, 0xe9, 0xbe,
  0x18, 0x94, 0x24, 0xbd, 0x21, 0x38, 0x95, 0xbf, 0xdf, 0x82, 0x21, 0xbf,
  0x45, 0x01, 0xa8, 0x3e, 0x96, 0xb5, 0xc2, 0xbe, 0x70, 0xde, 0x89, 0xbe,
  0x48, 0x60, 0xd6, 0xbe, 0xe3, 0x4c, 0x41, 0xbe, 0x9c, 0x15, 0x20, 0xbf,
  0xb8, 0xb8, 0xd5, 0xbe, 0xc5, 0x6a, 0x8e, 0x3e, 0x83, 0x00, 0x1d, 0xbe,
  0x5a, 0x3c, 0x3a, 0xbf, 0x6e, 0x72, 0xe5, 0x3e, 0x7a, 0x63, 0x9c, 0x3d,
  0xd2, 0x6f, 0x3d, 0xbe, 0xec, 0x76, 0x94, 0x3d, 0x13, 0x86, 0x82, 0xbe,
  0x02, 0xb3, 0x4a, 0xbd, 0x9c, 0xd5, 0x5b, 0xbe, 0x23, 0x4a, 0xda, 0x3e,
  0xd9, 0x68, 0x0c, 0xbe, 0x4e, 0x2a, 0x19, 0xbe, 0x9c, 0xdf, 0x27, 0xbe,
  0x9a, 0xc5, 0x4d, 0xbf, 0x25, 0x4b, 0x88, 0x3e, 0x16, 0x91, 0x1a, 0xbf,
  0x67, 0x05, 0x21, 0xbf, 0x9f, 0xa4, 0xf1, 0xbe, 0x17, 0x5a, 0xe0, 0x3e,
  0x34, 0x98, 0xca, 0xbd, 0x10, 0xb8, 0x91, 0x3e, 0x96, 0xb7, 0xe9, 0xbe,
  0x94, 0xd1, 0x36, 0xbf, 0xd8, 0x02, 0x21, 0xbe, 0xd0, 0xdd, 0xcc, 0x3c,
  0xca, 0x22, 0xdd, 0xbe, 0x5d, 0xb8, 0x6a, 0xbf, 0x08, 0xdd, 0x82, 0xbe,
  0xd0, 0x75, 0xbe, 0x3c, 0x99, 0x57, 0x92, 0xbe, 0xfd, 0x39, 0x36, 0xbf,
  0xda, 0xdb, 0x04, 0xbf, 0x50, 0x9c, 0x71, 0xbf, 0xea, 0xc4, 0x69, 0x3d,
  0x26, 0x3f, 0x67, 0x3e, 0xff, 0x45, 0x76, 0xbf, 0x61, 0x80, 0x1e, 0x3f,
  0xad, 0xdb, 0x91, 0xbf, 0xfc, 0x76, 0xad, 0xbd, 0x09, 0xe5, 0xb1, 0xbe,
  0x73, 0xcf, 0xde, 0x3f, 0xc7, 0xe1, 0xd7, 0xbc, 0xe1, 0xdc, 0x04, 0xbf,
  0x8a, 0x63, 0xac, 0xbe, 0x56, 0x46, 0x2f, 0xbe, 0xc6, 0xd5, 0x10, 0xbf,
  0xf0, 0x96, 0xe9, 0xbe, 0xdc, 0x81, 0xe9, 0xbe, 0xf0, 0x8a, 0xbc, 0xbc,
  0x42, 0x26, 0x02, 0x3e, 0x8c, 0x10, 0x02, 0x3e, 0x7e, 0xf0, 0xab, 0x3d,
  0xf5, 0x98, 0x9d, 0xbf, 0x91, 0x1f, 0x1d, 0xc0, 0x8b, 0x97, 0xc7, 0xbe,
  0xfa, 0x52, 0x21, 0x3f, 0x59, 0x63, 0x99, 0x3f, 0xe1, 0xb6, 0xfe, 0x3b,
  0x83, 0x37, 0xe5, 0x3e, 0xa3, 0xaf, 0x9f, 0x3e, 0x0c, 0xbc, 0xb2, 0xbe,
  0x66, 0xfd, 0xff, 0xff, 0x10, 0x00, 0x00, 0x00, 0x06, 0x00, 0x00, 0x00,
  0x14, 0x00, 0x00, 0x00, 0x30, 0x00, 0x00, 0x00, 0x02, 0x00, 0x00, 0x00,
  0x0f, 0x00, 0x00, 0x00, 0x0a, 0x00, 0x00, 0x00, 0x19, 0x00, 0x00, 0x00,
  0x73, 0x65, 0x71, 0x75, 0x65, 0x6e, 0x74, 0x69, 0x61, 0x6c, 0x2f, 0x64,
  0x65, 0x6e, 0x73, 0x65, 0x5f, 0x31, 0x2f, 0x4d, 0x61, 0x74, 0x4d, 0x75,
  0x6c, 0x00, 0x00, 0x00, 0xfc, 0xfc, 0xff, 0xff, 0xde, 0xfd, 0xff, 0xff,
  0x04, 0x00, 0x00, 0x00, 0xf0, 0x00, 0x00, 0x00, 0xfe, 0x4d, 0x98, 0xbe,
  0x59, 0x78, 0x4f, 0xbf, 0x4f, 0x30, 0x10, 0x3e, 0x76, 0x44, 0xcc, 0xbe,
  0x2d, 0xbf, 0x8b, 0x3f, 0x74, 0x8f, 0xc7, 0x3f, 0xfc, 0xa7, 0xce, 0x3f,
  0x8a, 0xa4, 0x7f, 0xbf, 0xfb, 0x01, 0xd4, 0xbd, 0xa1, 0x51, 0xdd, 0x3f,
  0x88, 0xd7, 0x14, 0xbf, 0x10, 0x15, 0xd6, 0x3f, 0xb6, 0x99, 0x66, 0xc0,
  0x90, 0x74, 0x0d, 0xbf, 0x32, 0x69, 0x50, 0x3e, 0x32, 0x7e, 0xb1, 0xbf,
  0xd8, 0xda, 0x5a, 0xc0, 0x1e, 0xd8, 0xd6, 0xbf, 0xfe, 0x36, 0xf5, 0x3e,
  0x25, 0x59, 0xbb, 0xbe, 0x10, 0xf2, 0xc6, 0xbe, 0x40, 0x04, 0x44, 0xbe,
  0xe0, 0xff, 0x3b, 0x3d, 0x05, 0x4e, 0xc2, 0xbe, 0xc9, 0x2a, 0x16, 0x3e,
  0x8c, 0x16, 0xf0, 0xbf, 0x61, 0x5c, 0x91, 0x3e, 0x29, 0xd3, 0x3a, 0xbe,
  0xbe, 0x1a, 0xc1, 0x3e, 0xb6, 0x00, 0x09, 0xc0, 0xf8, 0xe7, 0x7b, 0x3f,
  0xb5, 0x6e, 0x76, 0x3e, 0x24, 0x1c, 0x1a, 0x3f, 0x13, 0x1e, 0x72, 0xbf,
  0x6a, 0xed, 0x1a, 0xc0, 0x9f, 0x55, 0x22, 0xc0, 0x03, 0x2e, 0xa4, 0xbf,
  0x87, 0x2e, 0xf7, 0xbd, 0xfe, 0x96, 0x8c, 0x3d, 0x3c, 0x44, 0x6a, 0x40,
  0x4c, 0x75, 0xe4, 0x3f, 0x5a, 0x24, 0xcd, 0x3f, 0xc0, 0xca, 0xef, 0x3d,
  0x10, 0x71, 0x87, 0x3e, 0x11, 0xaa, 0xd7, 0xbe, 0x68, 0xa2, 0xfd, 0xbe,
  0xc8, 0x4b, 0xd0, 0x3d, 0x70, 0xee, 0x21, 0x3e, 0xf0, 0x72, 0x8e, 0xbd,
  0x30, 0x58, 0xb5, 0xbe, 0xdb, 0xcf, 0xcb, 0xbe, 0xb7, 0x3f, 0x8d, 0xbe,
  0xc2, 0x4b, 0x80, 0x3e, 0x3c, 0x7d, 0xe7, 0xbe, 0xed, 0x1c, 0x14, 0x3e,
  0x3a, 0x7f, 0xb7, 0x3f, 0x79, 0x82, 0x06, 0x3d, 0x84, 0x2f, 0x51, 0xbf,
  0xd4, 0x0f, 0xef, 0x3f, 0x89, 0x41, 0x08, 0x3f, 0xa6, 0xfe, 0xff, 0xff,
  0x10, 0x00, 0x00, 0x00, 0x05, 0x00, 0x00, 0x00, 0x14, 0x00, 0x00, 0x00,
  0x2c, 0x00, 0x00, 0x00, 0x02, 0x00, 0x00, 0x00, 0x0a, 0x00, 0x00, 0x00,
  0x06, 0x00, 0x00, 0x00, 0x17, 0x00, 0x00, 0x00, 0x73, 0x65, 0x71, 0x75,
  0x65, 0x6e, 0x74, 0x69, 0x61, 0x6c, 0x2f, 0x64, 0x65, 0x6e, 0x73, 0x65,
  0x2f, 0x4d, 0x61, 0x74, 0x4d, 0x75, 0x6c, 0x00, 0x38, 0xfe, 0xff, 0xff,
  0x1a, 0xff, 0xff, 0xff, 0x04, 0x00, 0x00, 0x00, 0x28, 0x00, 0x00, 0x00,
  0xf6, 0xe8, 0xfc, 0xbe, 0xc5, 0x18, 0x38, 0xbc, 0x31, 0x5e, 0xf0, 0xbd,
  0x00, 0x00, 0x00, 0x00, 0x5c, 0x95, 0x2d, 0x3e, 0x55, 0xac, 0xf7, 0x3c,
  0x77, 0x9f, 0x34, 0xbd, 0x00, 0x00, 0x00, 0x00, 0x00, 0x00, 0x00, 0x00,
  0xab, 0xc2, 0x9f, 0x3e, 0x1a, 0xff, 0xff, 0xff, 0x10, 0x00, 0x00, 0x00,
  0x04, 0x00, 0x00, 0x00, 0x10, 0x00, 0x00, 0x00, 0x1c, 0x00, 0x00, 0x00,
  0x01, 0x00, 0x00, 0x00, 0x0a, 0x00, 0x00, 0x00, 0x0a, 0x00, 0x00, 0x00,
  0x64, 0x65, 0x6e, 0x73, 0x65, 0x2f, 0x62, 0x69, 0x61, 0x73, 0x00, 0x00,
  0x9c, 0xfe, 0xff, 0xff, 0x7e, 0xff, 0xff, 0xff, 0x04, 0x00, 0x00, 0x00,
  0x3c, 0x00, 0x00, 0x00, 0x26, 0x6e, 0x9f, 0xbf, 0x7a, 0x91, 0xce, 0xbe,
  0x79, 0xc0, 0xb8, 0x3e, 0x3b, 0xee, 0x2d, 0x3f, 0xa8, 0x4d, 0xc8, 0xbe,
  0xcc, 0x07, 0x7e, 0x3d, 0x72, 0xd9, 0x03, 0x3f, 0x98, 0x1e, 0x84, 0xbd,
  0xf0, 0x6c, 0x9c, 0xbe, 0xb7, 0x08, 0xd0, 0xbe, 0x12, 0x20, 0xb6, 0xbe,
  0x81, 0x83, 0x12, 0xbf, 0xfe, 0xdf, 0x9b, 0x3d, 0x64, 0xe2, 0x8f, 0xbd,
  0xeb, 0x36, 0x77, 0x3f, 0x92, 0xff, 0xff, 0xff, 0x10, 0x00, 0x00, 0x00,
  0x03, 0x00, 0x00, 0x00, 0x10, 0x00, 0x00, 0x00, 0x24, 0x00, 0x00, 0x00,
  0x01, 0x00, 0x00, 0x00, 0x0f, 0x00, 0x00, 0x00, 0x0c, 0x00, 0x00, 0x00,
  0x64, 0x65, 0x6e, 0x73, 0x65, 0x5f, 0x31, 0x2f, 0x62, 0x69, 0x61, 0x73,
  0x00, 0x00, 0x00, 0x00, 0x04, 0x00, 0x06, 0x00, 0x04, 0x00, 0x00, 0x00,
  0x00, 0x00, 0x06, 0x00, 0x08, 0x00, 0x04, 0x00, 0x06, 0x00, 0x00, 0x00,
  0x04, 0x00, 0x00, 0x00, 0x20, 0x00, 0x00, 0x00, 0x3c, 0x52, 0xdf, 0x3d,
  0x6f, 0x57, 0x86, 0xbf, 0xa3, 0x27, 0x50, 0x3f, 0x59, 0x4e, 0x10, 0x3e,
  0x6b, 0xb1, 0xb0, 0xbf, 0xcb, 0xae, 0x29, 0xbf, 0x77, 0xf3, 0x5d, 0x3f,
  0x5e, 0x8c, 0x45, 0x3f, 0x00, 0x00, 0x0e, 0x00, 0x14, 0x00, 0x04, 0x00,
  0x00, 0x00, 0x08, 0x00, 0x0c, 0x00, 0x10, 0x00, 0x0e, 0x00, 0x00, 0x00,
  0x10, 0x00, 0x00, 0x00, 0x02, 0x00, 0x00, 0x00, 0x10, 0x00, 0x00, 0x00,
  0x20, 0x00, 0x00, 0x00, 0x01, 0x00, 0x00, 0x00, 0x08, 0x00, 0x00, 0x00,
  0x0c, 0x00, 0x00, 0x00, 0x64, 0x65, 0x6e, 0x73, 0x65, 0x5f, 0x32, 0x2f,
  0x62, 0x69, 0x61, 0x73, 0x00, 0x00, 0x00, 0x00, 0x94, 0xff, 0xff, 0xff,
  0x14, 0x00, 0x18, 0x00, 0x04, 0x00, 0x00, 0x00, 0x08, 0x00, 0x0c, 0x00,
  0x10, 0x00, 0x00, 0x00, 0x00, 0x00, 0x14, 0x00, 0x14, 0x00, 0x00, 0x00,
  0x14, 0x00, 0x00, 0x00, 0x01, 0x00, 0x00, 0x00, 0x18, 0x00, 0x00, 0x00,
  0x40, 0x00, 0x00, 0x00, 0x30, 0x00, 0x00, 0x00, 0x02, 0x00, 0x00, 0x00,
  0x01, 0x00, 0x00, 0x00, 0x06, 0x00, 0x00, 0x00, 0x19, 0x00, 0x00, 0x00,
  0x73, 0x65, 0x72, 0x76, 0x69, 0x6e, 0x67, 0x5f, 0x64, 0x65, 0x66, 0x61,
  0x75, 0x6c, 0x74, 0x5f, 0x69, 0x6e, 0x70, 0x75, 0x74, 0x5f, 0x31, 0x3a,
  0x30, 0x00, 0x00, 0x00, 0x02, 0x00, 0x00, 0x00, 0xff, 0xff, 0xff, 0xff,
  0x06, 0x00, 0x00, 0x00, 0xfc, 0xff, 0xff, 0xff, 0x04, 0x00, 0x04, 0x00,
  0x04, 0x00, 0x00, 0x00
};
unsigned int model_protocol_v2_2_2_tflite_len = 3268;

// custom code
#define INPUT_TENSOR_SIZE 6
#define OUTPUT_TENSOR_SIZE 8
